{"vocab": {"0": "\n", "1": " ", "2": "!", "3": "\"", "4": "%", "5": "&", "6": "'", "7": "(", "8": ")", "9": "*", "10": ",", "11": "-", "12": ".", "13": "/", "14": "0", "15": "1", "16": "2", "17": "3", "18": "4", "19": "5", "20": "6", "21": "7", "22": "8", "23": "9", "24": ":", "25": ";", "26": ">", "27": "?", "28": "A", "29": "B", "30": "C", "31": "D", "32": "E", "33": "F", "34": "G", "35": "H", "36": "I", "37": "J", "38": "K", "39": "L", "40": "M", "41": "N", "42": "O", "43": "P", "44": "Q", "45": "R", "46": "S", "47": "T", "48": "U", "49": "V", "50": "W", "51": "X", "52": "Y", "53": "Z", "54": "\\", "55": "]", "56": "a", "57": "b", "58": "c", "59": "d", "60": "e", "61": "f", "62": "g", "63": "h", "64": "i", "65": "j", "66": "k", "67": "l", "68": "m", "69": "n", "70": "o", "71": "p", "72": "q", "73": "r", "74": "s", "75": "t", "76": "u", "77": "v", "78": "w", "79": "x", "80": "y", "81": "z", "82": "|", "83": "~", "84": "\u2014", "85": "\u2018", "86": "\u2019", "87": "\u201c", "88": "\u201d", "89": "\u2022", "90": " \n", "91": "he", "92": "in", "93": "the", "94": "re", "95": "an", "96": "ou", "97": "ed", "98": "on", "99": "ar", "100": "ing", "101": "er", "102": "at", "103": "to", "104": "th", "105": "as", "106": "and", "107": "is", "108": "en", "109": "or", "110": "ll", "111": "id", "112": "of", "113": "le", "114": "st", "115": "it", "116": "ry", "117": "ha", "118": "ow", "119": "arry", "120": "sa", "121": "Harry", "122": "ly", "123": "be", "124": "se", "125": "me", "126": "was", "127": "gh", "128": "ac", "129": "oo", "130": "his", "131": "\u2019s", "132": "said", "133": "you", "134": "ve", "135": "ld", "136": "..", "137": "ot", "138": "hi", "139": "es", "140": ",\u201d", "141": "one", "142": "ver", "143": "ri", "144": "al", "145": "ro", "146": "we", "147": "ag", "148": "wi", "149": "had", "150": "all", "151": "that", "152": "ch", "153": "ad", "154": "ght", "155": "ut", "156": "ir", "157": "ic", "158": "un", "159": "out", "160": "ent", "161": "li", "162": "him", "163": ".\u201d", "164": "up", "165": "ke", "166": "ter", "167": "ore", "168": "?\u201d", "169": "ur", "170": "wh", "171": "for", "172": "mi", "173": "pe", "174": "The", "175": "\u2019t", "176": "ge", "177": "red", "178": "ook", "179": "ould", "180": "us", "181": "ay", "182": "with", "183": "ne", "184": "nd", "185": "ab", "186": "He", "187": "bl", "188": "so", "189": "um", "190": "her", "191": "Ron", "192": "ard", "193": "fe", "194": "ack", "195": "not", "196": "ther", "197": "\u201cI", "198": "s.", "199": "look", "200": "co", "201": "Her", "202": "now", "203": "ion", "204": "s,", "205": "do", "206": "ain", "207": "mione", "208": "Hermione", "209": "ce", "210": "!\u201d", "211": "they", "212": "em", "213": "sh", "214": "ind", "215": "pp", "216": "ound", "217": "...", "218": "am", "219": "lo", "220": "ill", "221": "te", "222": "were", "223": "but", "224": "no", "225": "them", "226": "n\u2019t", "227": "\u201cW", "228": "rom", "229": "ted", "230": "ough", "231": "thing", "232": "mo", "233": "she", "234": "are", "235": "ti", "236": "have", "237": "go", "238": "from", "239": "ust", "240": "de", "241": "whe", "242": "own", "243": "ck", "244": "ss", "245": "ak", "246": "po", "247": "et", "248": "bled", "249": "very", "250": "ra", "251": "back", "252": "who", "253": "way", "254": "qu", "255": "hed", "256": "umbled", "257": "ast", "258": "rid", "259": "into", "260": "ly.", "261": "did", "262": "what", "263": "ide", "264": "il", "265": "Dumbled", "266": "Dumbledore", "267": "could", "268": "bo", "269": "ho", "270": "ex", "271": "ant", "272": "ca", "273": "been", "274": "if", "275": "ink", "276": "con", "277": "art", "278": "ud", "279": "y,", "280": "\u201cY", "281": "our", "282": "any", "283": "ood", "284": "na", "285": "pl", "286": "ye", "287": "lf", "288": "ed,", "289": "ort", "290": "some", "291": "ess", "292": "too", "293": "know", "294": "hat", "295": "this", "296": "wor", "297": "ong", "298": "by", "299": "ace", "300": "over", "301": "ist", "302": "ice", "303": "ed.", "304": "op", "305": "ul", "306": "Harry,", "307": "would", "308": "there", "309": "like", "310": "ven", "311": "off", "312": "ting", "313": "their", "314": "ous", "315": "ment", "316": "down", "317": "about", "318": "oom", "319": "gr", "320": "per", "321": "der", "322": "again", "323": "ly,", "324": "ight", "325": "ling", "326": "ble", "327": "la", "328": "ang", "329": "We", "330": "looked", "331": "urn", "332": "whi", "333": "sp", "334": "got", "335": "ure", "336": "side", "337": "ked", "338": "old", "339": "end", "340": "ff", "341": "around", "342": "head", "343": "your", "344": "ley", "345": "hand", "346": "on\u2019t", "347": "ep", "348": "get", "349": "ct", "350": "Pr", "351": "...\u201d", "352": "Mr", "353": "room", "354": "other", "355": "ull", "356": "can", "357": "\u2019ve", "358": "just", "359": "time", "360": "think", "361": "my", "362": "then", "363": "ward", "364": "\u201cA", "365": "ig", "366": "essor", "367": "sc", "368": "ofessor", "369": "tr", "370": "turn", "371": "Hag", "372": "Professor", "373": "Hagrid", "374": "ark", "375": "fo", "376": "right", "377": "see", "378": "more", "379": "mp", "380": "fore", "381": "vo", "382": "able", "383": "ought", "384": "ath", "385": "thr", "386": "Pot", "387": "But", "388": "when", "389": "yes", "390": "\u2019re", "391": "ally", "392": "\u201cS", "393": "wand", "394": "\u201cWe", "395": "though", "396": "nape", "397": "self", "398": "ick", "399": "ever", "400": "ire", "401": "ake", "402": "ate", "403": "looking", "404": "how", "405": "Snape", "406": "They", "407": "It", "408": "\u201cYou", "409": "led", "410": "use", "411": "here", "412": "ing,", "413": "\u2019d", "414": "ass", "415": "door", "416": "face", "417": "mb", "418": "pt", "419": "Weas", "420": "Potter", "421": "pre", "422": "new", "423": "air", "424": "still", "425": "ive", "426": "\u201cN", "427": "cl", "428": "eyes", "429": "ation", "430": "Harry.", "431": "ug", "432": "tle", "433": "el", "434": "\u2019ll", "435": "clo", "436": "than", "437": "light", "438": "wo", "439": "gl", "440": "arm", "441": "ing.", "442": "through", "443": "af", "444": "pped", "445": "che", "446": "ers", "447": "ite", "448": "where", "449": "don\u2019t", "450": "orn", "451": "ap", "452": "ving", "453": "gre", "454": "man", "455": "voice", "456": "seem", "457": "inn", "458": "Harry\u2019s", "459": "ved", "460": "Ron,", "461": "let", "462": "\u201cO", "463": "which", "464": "read", "465": "cr", "466": "ree", "467": "going", "468": "iz", "469": "y.", "470": "thought", "471": "ll,", "472": "Mal", "473": "long", "474": "sto", "475": "before", "476": "br", "477": "cle", "478": "every", "479": "lit", "480": "\u2019m", "481": "Malfo", "482": "come", "483": "Weasley", "484": "\u201cT", "485": "him.", "486": "ared", "487": "king", "488": "uch", "489": "com", "490": "will", "491": "say", "492": "act", "493": "ave", "494": "under", "495": "didn\u2019t", "496": "og", "497": "ched", "498": "idd", "499": "fa", "500": "Mr.", "501": "wat", "502": "lt", "503": "There", "504": "ade", "505": "only", "506": "ron", "507": "Vold", "508": "emort", "509": "Voldemort", "510": "aring", "511": "\u201cWhat", "512": "turned", "513": "De", "514": "open", "515": "dis", "516": "saw", "517": "str", "518": "happ", "519": "tell", "520": "it,", "521": "h,", "522": "day", "523": "low", "524": "ft", "525": "spe", "526": "ob", "527": "after", "528": "him,", "529": "want", "530": "pr", "531": "ie", "532": "less", "533": "fir", "534": "hind", "535": "away", "536": "er,", "537": "iri", "538": "said,", "539": "ach", "540": "never", "541": "even", "542": "something", "543": "And", "544": "She", "545": "irius", "546": "himself", "547": "has", "548": "seemed", "549": "behind", "550": "uff", "551": "ev", "552": "try", "553": "pro", "554": "ried", "555": "itch", "556": "\u201cIt", "557": "year", "558": "e,", "559": "told", "560": "bet", "561": "\u201cHe", "562": "last", "563": "es,", "564": "Sirius", "565": "toward", "566": "Hog", "567": "fl", "568": "poin", "569": "stand", "570": "hair", "571": "its", "572": "it.", "573": "much", "574": "moment", "575": "agic", "576": "\u201cD", "577": "im", "578": "You", "579": "ts", "580": "bre", "581": "ance", "582": "sed", "583": "Malfoy", "584": "full", "585": "ish", "586": "Hermione,", "587": "llow", "588": "ple", "589": "knew", "590": "wa", "591": "should", "592": "ank", "593": "heard", "594": "bod", "595": "beca", "596": "ople", "597": "most", "598": "ious", "599": "once", "600": "little", "601": "aking", "602": "good", "603": "fin", "604": "first", "605": "sha", "606": "zard", "607": "att", "608": "sit", "609": "ool", "610": "made", "611": "two", "612": "sil", "613": "it\u2019s", "614": "Go", "615": "wizard", "616": "sm", "617": "ful", "618": "Min", "619": "left", "620": "age", "621": "ue", "622": "app", "623": "ugg", "624": "ped", "625": "word", "626": "Fred", "627": "er.", "628": "\u201cNo", "629": "asked", "630": "\u201cH", "631": "tal", "632": "people", "633": "uck", "634": "felt", "635": "Mrs.", "636": "wart", "637": "ans", "638": "table", "639": "des", "640": "\u201cBut", "641": "tor", "642": "ouse", "643": "imp", "644": "ub", "645": "Hogwart", "646": "sure", "647": "I\u2019m", "648": "\u201cM", "649": "flo", "650": "ear", "651": "pull", "652": "dark", "653": "might", "654": "ten", "655": "ching", "656": "went", "657": "min", "658": "ta", "659": "wal", "660": "fron", "661": "on,", "662": "Cr", "663": "dr", "664": "really", "665": "ated", "666": "upin", "667": "Lupin", "668": "ross", "669": "front", "670": "cont", "671": "happen", "672": "wind", "673": "nt", "674": "Mc", "675": "night", "676": "need", "677": "Be", "678": "must", "679": "Ge", "680": "he\u2019s", "681": "arge", "682": "body", "683": "bed", "684": "orge", "685": "lie", "686": "Qu", "687": "because", "688": "den", "689": "evill", "690": "George", "691": "xt", "692": "vis", "693": "Ginn", "694": "oud", "695": "reac", "696": "gi", "697": "cre", "698": "sup", "699": "stoo", "700": "cond", "701": "hur", "702": "came", "703": "put", "704": "ask", "705": "les", "706": "ste", "707": "sur", "708": "you,", "709": "feet", "710": "Nevill", "711": "rest", "712": "bit", "713": "\u201cAnd", "714": "cour", "715": "ign", "716": "cor", "717": "Ron.", "718": "whis", "719": "Gon", "720": "Gonag", "721": "Gonagall", "722": "\u201cL", "723": "while", "724": "ugh", "725": "appe", "726": "McGonagall", "727": "ence", "728": "pa", "729": "find", "730": "cur", "731": "took", "732": "ase", "733": "hard", "734": "\u201cThe", "735": "anted", "736": "them.", "737": "ine", "738": "take", "739": "ves", "740": "few", "741": "floor", "742": "anything", "743": "que", "744": "set", "745": "lp", "746": "\u201cWell,", "747": "ung", "748": "ced", "749": "In", "750": "tered", "751": "make", "752": "ream", "753": "rem", "754": "chool", "755": "ished", "756": "stood", "757": "trying", "758": "well", "759": "wr", "760": "Gry", "761": "Gryff", "762": "great", "763": "large", "764": "second", "765": "Ver", "766": "Gryffind", "767": "Gryffindor", "768": "\u201cC", "769": "another", "770": "mean", "771": "mat", "772": "ridge", "773": "mou", "774": "ise", "775": "stair", "776": "call", "777": "hear", "778": "again.", "779": "ught", "780": "next", "781": "qui", "782": "Death", "783": "mon", "784": "black", "785": "Bl", "786": "work", "787": "Fire", "788": "wall", "789": "inside", "790": "can\u2019t", "791": "school", "792": "ground", "793": "keep", "794": "ered", "795": "di", "796": "three", "797": "sound", "798": "found", "799": "ering", "800": "them,", "801": "aw", "802": "bro", "803": "comp", "804": "sk", "805": "ity", "806": "upon", "807": "ome", "808": "form", "809": "es.", "810": "window", "811": "Umb", "812": "Umbridge", "813": "mas", "814": "jo", "815": "Hermione.", "816": "seen", "817": "place", "818": "book", "819": "His", "820": "reme", "821": "ps", "822": "ins", "823": "house", "824": "ily", "825": "fi", "826": "course", "827": "law", "828": "gave", "829": "Neville", "830": "istry", "831": "nothing", "832": "ek", "833": "Ch", "834": "ci", "835": "Un", "836": "you\u2019re", "837": "ready", "838": "Ministry", "839": "unn", "840": "help", "841": "pass", "842": "cast", "843": "half", "844": "ized", "845": "ord", "846": "real", "847": "ket", "848": "ions", "849": "ea", "850": "udden", "851": "row", "852": "St", "853": "ock", "854": "onto", "855": "Hogwarts", "856": "ty", "857": "sing", "858": "smi", "859": "sudden", "860": "blet", "861": "cy", "862": "Per", "863": "beg", "864": "ised", "865": "ber", "866": "sat", "867": "pulled", "868": "me,", "869": "why", "870": "orm", "871": "wanted", "872": "fire", "873": "shout", "874": "az", "875": "\u201cIt\u2019s", "876": "across", "877": "sl", "878": "sent", "879": "stud", "880": "mis", "881": "mind", "882": "ating", "883": "boy", "884": "\u201cE", "885": "wait", "886": "quick", "887": "robe", "888": "I\u2019ve", "889": "arly", "890": "rew", "891": "unt", "892": "said.", "893": "being", "894": "dd", "895": "star", "896": "each", "897": "\u201cYea", "898": "follow", "899": "both", "900": "expe", "901": "ways", "902": "without", "903": "used", "904": "owling", "905": "Mad", "906": "done", "907": "loud", "908": "again,", "909": "part", "910": "udge", "911": "Eat", "912": "owl", "913": "Dark", "914": "quite", "915": "cted", "916": "ser", "917": "\u201cG", "918": "Ginny", "919": "small", "920": "ose", "921": "along", "922": "magic", "923": "car", "924": "wasn\u2019t", "925": "quiet", "926": "eye", "927": "cent", "928": "ress", "929": "care", "930": "against", "931": "slight", "932": "does", "933": "ister", "934": "hy", "935": "hen", "936": "better", "937": "suppo", "938": "won", "939": "ible", "940": "oot", "941": "press", "942": "fee", "943": "non", "944": "give", "945": "riend", "946": "couldn\u2019t", "947": "Ron\u2019s", "948": "pping", "949": "\u201cThat", "950": "top", "951": "Mugg", "952": "ction", "953": "empt", "954": "hold", "955": "cou", "956": "in\u2019", "957": "pered", "958": "sn", "959": "Then", "960": "par", "961": "belie", "962": "bus", "963": "mouth", "964": "else", "965": "ee", "966": "ouch", "967": "enough", "968": "stre", "969": "kill", "970": "Mood", "971": "roll", "972": "unti", "973": "und", "974": "raw", "975": "J.", "976": "Magic", "977": "K.", "978": "J.K.", "979": "Rowling", "980": "mut", "981": "gu", "982": "dif", "983": "friend", "984": "isten", "985": "uri", "986": "ged", "987": "ons", "988": "reat", "989": "ever,", "990": "gold", "991": "ump", "992": "ents", "993": "hor", "994": "Dumbledore,", "995": "step", "996": "dem", "997": "ame", "998": "ric", "999": "lyther", "1000": "<MASK>"}, "merges": [[1, 0], [63, 60], [64, 69], [75, 91], [73, 60], [56, 69], [70, 76], [60, 59], [70, 69], [56, 73], [92, 62], [60, 73], [56, 75], [75, 70], [75, 63], [56, 74], [95, 59], [64, 74], [60, 69], [70, 73], [67, 67], [64, 59], [70, 61], [67, 60], [74, 75], [64, 75], [73, 80], [63, 56], [70, 78], [99, 116], [74, 56], [35, 119], [67, 80], [57, 60], [74, 60], [68, 60], [78, 105], [62, 63], [56, 58], [70, 70], [63, 107], [86, 74], [120, 111], [80, 96], [77, 60], [67, 59], [12, 12], [70, 75], [63, 64], [60, 74], [10, 88], [98, 60], [77, 101], [73, 64], [56, 67], [73, 70], [78, 60], [56, 62], [78, 64], [117, 59], [56, 110], [104, 102], [58, 63], [56, 59], [127, 75], [76, 75], [64, 73], [64, 58], [76, 69], [96, 75], [108, 75], [67, 64], [138, 68], [12, 88], [76, 71], [66, 60], [75, 101], [70, 94], [27, 88], [76, 73], [78, 63], [61, 109], [68, 64], [71, 60], [47, 91], [86, 75], [62, 60], [94, 59], [129, 66], [96, 135], [76, 74], [56, 80], [148, 104], [69, 60], [69, 59], [56, 57], [35, 60], [57, 67], [74, 70], [76, 68], [91, 73], [45, 98], [99, 59], [61, 60], [128, 66], [69, 137], [93, 73], [87, 36], [74, 12], [67, 178], [58, 70], [35, 101], [69, 118], [64, 98], [74, 10], [59, 70], [56, 92], [172, 141], [201, 207], [58, 60], [2, 88], [93, 80], [60, 68], [74, 63], [92, 59], [71, 71], [96, 184], [136, 12], [56, 68], [67, 70], [64, 110], [75, 60], [146, 94], [57, 155], [69, 70], [93, 68], [69, 175], [87, 50], [145, 68], [75, 97], [96, 127], [104, 100], [68, 70], [74, 91], [56, 94], [75, 64], [117, 134], [62, 70], [61, 228], [76, 114], [59, 60], [78, 91], [118, 69], [58, 66], [74, 74], [56, 66], [71, 70], [60, 75], [187, 97], [142, 80], [73, 56], [57, 194], [170, 70], [78, 181], [72, 76], [91, 59], [189, 248], [105, 75], [73, 111], [92, 103], [122, 12], [59, 111], [170, 102], [111, 60], [64, 67], [31, 256], [265, 167], [58, 179], [57, 70], [63, 70], [60, 79], [95, 75], [58, 56], [123, 108], [64, 61], [92, 66], [58, 98], [99, 75], [76, 59], [80, 10], [87, 52], [96, 73], [95, 80], [129, 59], [69, 56], [71, 67], [80, 60], [67, 61], [97, 10], [109, 75], [188, 125], [139, 74], [103, 70], [66, 202], [63, 102], [104, 107], [78, 109], [98, 62], [57, 80], [128, 60], [70, 142], [107, 75], [157, 60], [97, 12], [70, 71], [76, 67], [121, 10], [78, 179], [93, 94], [161, 165], [77, 108], [112, 61], [75, 100], [93, 156], [96, 74], [68, 160], [59, 242], [185, 159], [129, 68], [62, 73], [71, 101], [59, 101], [147, 206], [122, 10], [64, 154], [67, 100], [57, 113], [67, 56], [95, 62], [50, 60], [199, 97], [169, 69], [78, 138], [74, 71], [62, 137], [76, 94], [74, 263], [66, 97], [70, 135], [108, 59], [61, 61], [99, 216], [91, 153], [133, 73], [113, 80], [63, 106], [98, 175], [60, 71], [176, 75], [58, 75], [43, 73], [136, 163], [40, 73], [73, 318], [70, 196], [76, 110], [58, 95], [86, 134], [65, 239], [235, 125], [104, 275], [68, 80], [93, 69], [78, 192], [87, 28], [64, 62], [291, 109], [74, 58], [112, 366], [75, 73], [75, 331], [35, 147], [350, 368], [371, 258], [99, 66], [61, 70], [143, 154], [124, 60], [68, 167], [68, 71], [61, 167], [77, 70], [185, 113], [96, 154], [102, 63], [104, 73], [43, 137], [29, 155], [241, 69], [80, 139], [86, 94], [150, 80], [87, 46], [78, 106], [227, 60], [104, 230], [284, 173], [124, 287], [157, 66], [60, 142], [64, 94], [56, 165], [102, 60], [199, 100], [63, 118], [46, 396], [174, 80], [36, 75], [280, 96], [67, 97], [76, 124], [91, 94], [100, 10], [86, 59], [105, 74], [205, 109], [61, 299], [68, 57], [71, 75], [329, 105], [386, 166], [71, 94], [183, 78], [56, 156], [114, 220], [64, 134], [87, 41], [58, 67], [60, 389], [102, 203], [121, 12], [76, 62], [75, 113], [60, 67], [86, 110], [58, 219], [104, 95], [161, 154], [78, 70], [62, 67], [99, 68], [100, 12], [385, 230], [56, 61], [215, 97], [58, 91], [101, 74], [115, 60], [241, 94], [59, 346], [109, 69], [56, 71], [77, 100], [62, 94], [68, 95], [381, 302], [124, 212], [92, 69], [121, 131], [77, 97], [191, 10], [113, 75], [87, 42], [332, 152], [94, 153], [58, 73], [94, 60], [237, 100], [64, 81], [80, 12], [104, 383], [110, 10], [40, 144], [67, 297], [74, 103], [123, 380], [57, 73], [58, 113], [60, 249], [67, 115], [86, 68], [472, 375], [200, 125], [419, 344], [87, 47], [162, 12], [56, 177], [66, 100], [76, 152], [200, 68], [148, 110], [120, 80], [128, 75], [56, 134], [158, 321], [261, 226], [70, 62], [58, 255], [111, 59], [61, 56], [352, 12], [78, 102], [67, 75], [174, 94], [153, 60], [98, 122], [73, 98], [49, 338], [212, 289], [507, 508], [99, 100], [227, 294], [370, 97], [31, 60], [304, 108], [59, 107], [120, 78], [114, 73], [117, 215], [221, 110], [115, 10], [63, 10], [59, 181], [67, 118], [61, 75], [74, 173], [70, 57], [443, 166], [162, 10], [78, 271], [71, 73], [64, 60], [113, 244], [61, 156], [63, 214], [56, 253], [101, 10], [64, 143], [132, 10], [128, 63], [183, 142], [60, 310], [290, 231], [28, 184], [46, 91], [537, 180], [162, 397], [63, 105], [456, 97], [123, 534], [76, 340], [60, 77], [75, 116], [71, 145], [143, 97], [115, 152], [197, 75], [286, 99], [60, 10], [103, 135], [123, 75], [87, 186], [67, 257], [139, 10], [46, 545], [103, 363], [35, 496], [61, 67], [246, 92], [114, 106], [117, 156], [115, 74], [115, 12], [68, 488], [232, 315], [147, 157], [87, 31], [64, 68], [52, 96], [75, 74], [57, 94], [95, 209], [74, 97], [481, 80], [61, 355], [107, 63], [208, 10], [110, 118], [71, 113], [66, 422], [78, 56], [213, 179], [95, 66], [91, 192], [268, 59], [123, 272], [304, 113], [232, 114], [64, 314], [98, 209], [479, 432], [245, 100], [62, 283], [61, 92], [533, 114], [74, 117], [81, 192], [102, 75], [74, 115], [129, 67], [68, 504], [75, 438], [74, 264], [115, 131], [34, 70], [148, 606], [74, 68], [61, 305], [40, 92], [113, 524], [147, 60], [76, 60], [56, 215], [431, 62], [71, 97], [296, 59], [33, 177], [101, 12], [426, 70], [105, 337], [87, 35], [75, 144], [173, 596], [76, 243], [193, 502], [352, 198], [78, 277], [95, 74], [75, 382], [59, 139], [87, 387], [103, 73], [96, 124], [64, 379], [76, 57], [566, 636], [74, 335], [36, 480], [87, 40], [61, 219], [60, 99], [71, 355], [59, 374], [172, 154], [75, 108], [152, 100], [78, 160], [68, 92], [75, 56], [78, 144], [61, 506], [98, 10], [30, 73], [59, 73], [94, 391], [102, 97], [164, 92], [39, 666], [145, 244], [660, 75], [276, 75], [518, 108], [78, 214], [69, 75], [40, 58], [69, 324], [183, 97], [29, 60], [68, 239], [34, 60], [91, 131], [99, 176], [594, 80], [57, 97], [109, 176], [161, 60], [44, 76], [595, 410], [59, 108], [551, 220], [679, 684], [79, 75], [77, 107], [34, 457], [96, 59], [94, 128], [62, 64], [58, 94], [74, 164], [74, 292], [276, 59], [63, 169], [272, 125], [71, 155], [105, 66], [113, 74], [114, 60], [74, 169], [133, 10], [193, 247], [41, 689], [94, 114], [57, 115], [364, 184], [58, 281], [365, 69], [58, 109], [191, 12], [78, 130], [34, 98], [719, 147], [720, 150], [87, 39], [332, 113], [76, 127], [451, 173], [674, 721], [108, 209], [71, 56], [61, 214], [58, 169], [292, 66], [105, 60], [63, 192], [87, 174], [95, 229], [225, 12], [92, 60], [75, 401], [134, 74], [193, 78], [649, 109], [282, 231], [254, 60], [124, 75], [67, 71], [394, 471], [158, 62], [58, 97], [36, 69], [221, 177], [68, 401], [94, 218], [94, 68], [152, 609], [107, 255], [699, 59], [552, 100], [146, 110], [78, 73], [34, 116], [760, 340], [453, 102], [67, 681], [124, 700], [49, 101], [761, 214], [766, 109], [87, 30], [95, 354], [125, 95], [68, 102], [258, 176], [68, 96], [107, 60], [114, 423], [58, 150], [91, 99], [322, 12], [76, 154], [183, 691], [254, 64], [513, 384], [68, 98], [187, 194], [29, 67], [296, 66], [33, 400], [78, 150], [92, 336], [356, 175], [74, 754], [319, 216], [165, 347], [60, 177], [59, 64], [104, 466], [74, 216], [61, 216], [101, 100], [225, 10], [56, 78], [57, 145], [200, 379], [74, 66], [115, 80], [164, 98], [70, 125], [171, 68], [139, 12], [672, 118], [48, 417], [811, 772], [68, 105], [65, 70], [208, 12], [124, 108], [285, 299], [57, 178], [35, 107], [94, 125], [71, 74], [92, 74], [63, 642], [64, 122], [61, 64], [714, 124], [327, 78], [62, 493], [710, 60], [301, 116], [224, 231], [60, 66], [30, 63], [58, 64], [48, 69], [133, 390], [464, 80], [618, 830], [158, 69], [91, 745], [71, 414], [58, 257], [117, 287], [468, 97], [109, 59], [94, 144], [165, 75], [203, 74], [60, 56], [278, 688], [73, 118], [46, 75], [70, 243], [98, 103], [645, 74], [75, 80], [74, 100], [74, 172], [74, 850], [326, 75], [58, 80], [43, 101], [123, 62], [107, 97], [57, 101], [74, 102], [651, 97], [125, 10], [170, 80], [109, 68], [78, 735], [61, 400], [213, 159], [56, 81], [556, 131], [128, 668], [74, 67], [74, 160], [114, 278], [68, 107], [68, 214], [102, 100], [268, 80], [87, 32], [590, 115], [254, 398], [145, 123], [36, 357], [99, 122], [94, 78], [158, 75], [132, 12], [123, 100], [59, 59], [114, 99], [60, 539], [280, 849], [375, 587], [268, 104], [270, 173], [253, 74], [182, 159], [180, 97], [118, 325], [40, 153], [59, 141], [67, 694], [322, 10], [71, 277], [278, 176], [32, 102], [118, 67], [31, 374], [254, 447], [58, 229], [74, 101], [87, 34], [693, 80], [616, 150], [70, 124], [144, 297], [68, 575], [58, 99], [126, 226], [781, 247], [60, 286], [58, 160], [94, 244], [58, 234], [322, 114], [74, 437], [205, 139], [107, 166], [63, 80], [91, 69], [560, 166], [698, 246], [78, 98], [64, 326], [129, 75], [421, 244], [193, 60], [69, 98], [62, 425], [143, 339], [267, 226], [191, 131], [215, 100], [484, 294], [103, 71], [40, 623], [349, 203], [212, 418], [269, 135], [58, 96], [92, 86], [173, 177], [74, 69], [174, 69], [71, 99], [123, 685], [57, 180], [773, 104], [433, 124], [60, 60], [96, 152], [108, 230], [114, 94], [66, 220], [40, 283], [145, 110], [158, 235], [158, 59], [250, 78], [37, 12], [40, 575], [38, 12], [975, 977], [45, 904], [68, 155], [62, 76], [59, 274], [61, 945], [301, 108], [76, 143], [62, 97], [98, 74], [94, 102], [399, 10], [237, 135], [189, 71], [160, 74], [63, 109], [266, 10], [114, 347], [59, 212], [56, 125], [143, 58], [122, 196]], "special_tokens": {"<MASK>": 1000}}