{"vocab": {"0": "\n", "1": " ", "2": "!", "3": "(", "4": ")", "5": "*", "6": ",", "7": "-", "8": ".", "9": "0", "10": "1", "11": "2", "12": "3", "13": "4", "14": "5", "15": "6", "16": "7", "17": "8", "18": "9", "19": ":", "20": ";", "21": "?", "22": "A", "23": "B", "24": "C", "25": "D", "26": "E", "27": "F", "28": "G", "29": "H", "30": "I", "31": "J", "32": "K", "33": "L", "34": "M", "35": "N", "36": "O", "37": "P", "38": "Q", "39": "R", "40": "S", "41": "T", "42": "U", "43": "V", "44": "W", "45": "X", "46": "Y", "47": "Z", "48": "_", "49": "a", "50": "b", "51": "c", "52": "d", "53": "e", "54": "f", "55": "g", "56": "h", "57": "i", "58": "j", "59": "k", "60": "l", "61": "m", "62": "n", "63": "o", "64": "p", "65": "q", "66": "r", "67": "s", "68": "t", "69": "u", "70": "v", "71": "w", "72": "x", "73": "y", "74": "z", "75": "\u00df", "76": "\u00e9", "77": "\u00f9", "78": "\u2013", "79": "\u2014", "80": "\u2018", "81": "\u2019", "82": "\u201c", "83": "\u201d", "84": "\u2026", "85": "he", "86": "in", "87": "the", "88": "re", "89": "an", "90": "ou", "91": "ed", "92": "on", "93": "ar", "94": "ing", "95": "er", "96": "at", "97": "to", "98": "th", "99": "as", "100": "is", "101": "and", "102": "en", "103": "or", "104": "ll", "105": "id", "106": "of", "107": "le", "108": "st", "109": "it", "110": "ry", "111": "ha", "112": "ow", "113": "sa", "114": "ly", "115": "arry", "116": "be", "117": "se", "118": "Harry", "119": "me", "120": "was", "121": "gh", "122": "ac", "123": "his", "124": "oo", "125": "\u2019s", "126": "said", "127": "you", "128": "ld", "129": "ve", "130": "ot", "131": "hi", "132": "es", "133": ",\u201d", "134": "one", "135": "ri", "136": "ver", "137": "ro", "138": "al", "139": "we", "140": "had", "141": "ag", "142": "wi", "143": "all", "144": "that", "145": "ch", "146": "ad", "147": "ght", "148": "ut", "149": "ir", "150": "ic", "151": "un", "152": "out", "153": "ent", "154": "li", "155": ".\u201d", "156": "him", "157": "up", "158": "ke", "159": "ur", "160": "ore", "161": "?\u201d", "162": "for", "163": "wh", "164": "mi", "165": "pe", "166": "The", "167": "ter", "168": "ge", "169": "\u2019t", "170": "red", "171": "ould", "172": "ay", "173": "ook", "174": "us", "175": "with", "176": "ne", "177": "nd", "178": "ab", "179": "He", "180": "so", "181": "bl", "182": "um", "183": "her", "184": "Ron", "185": "ard", "186": "fe", "187": "ack", "188": "not", "189": "ther", "190": "\u201cI", "191": "s.", "192": "!\u201d", "193": "co", "194": "look", "195": "now", "196": "s,", "197": "ion", "198": "Her", "199": "ain", "200": "do", "201": "ce", "202": "mione", "203": "Hermione", "204": "em", "205": "they", "206": "pp", "207": "sh", "208": "ind", "209": "ound", "210": "ill", "211": "am", "212": "lo", "213": "te", "214": "were", "215": "no", "216": "but", "217": "them", "218": "n\u2019t", "219": "\u201cW", "220": "rom", "221": "ted", "222": "ough", "223": "thing", "224": "mo", "225": "are", "226": "ti", "227": "from", "228": "have", "229": "she", "230": "go", "231": "de", "232": "ust", "233": "whe", "234": "own", "235": "ck", "236": "ss", "237": "ak", "238": "po", "239": "et", "240": "ra", "241": "very", "242": "bled", "243": "back", "244": "who", "245": "way", "246": "hed", "247": "qu", "248": "ast", "249": "into", "250": "ide", "251": "umbled", "252": "ly.", "253": "did", "254": "il", "255": "what", "256": "bo", "257": "rid", "258": "ho", "259": "could", "260": "Dumbled", "261": "Dumbledore", "262": "been", "263": "ca", "264": "ant", "265": "ex", "266": "if", "267": "ud", "268": "con", "269": "ink", "270": "art", "271": "y,", "272": "\u201cY", "273": "our", "274": "any", "275": "ood", "276": "na", "277": "pl", "278": "ye", "279": "ort", "280": "lf", "281": "ed,", "282": "some", "283": "too", "284": "know", "285": "ess", "286": "\u2014\u201d", "287": "ong", "288": "wor", "289": "this", "290": "ace", "291": "ist", "292": "hat", "293": "ice", "294": "over", "295": "by", "296": "ed.", "297": "ul", "298": "would", "299": "op", "300": "there", "301": "ven", "302": "like", "303": "Harry,", "304": "off", "305": "ting", "306": "ous", "307": "their", "308": "ment", "309": "about", "310": "down", "311": "oom", "312": "per", "313": "gr", "314": "der", "315": "ight", "316": "again", "317": "ly,", "318": "ang", "319": "la", "320": "sp", "321": "urn", "322": "whi", "323": "looked", "324": "old", "325": "We", "326": "ure", "327": "ley", "328": "side", "329": "got", "330": "ked", "331": "end", "332": "around", "333": "head", "334": "your", "335": "hand", "336": "ff", "337": "ep", "338": "on\u2019t", "339": "el", "340": "ct", "341": "room", "342": "get", "343": "Mr", "344": "other", "345": "Pr", "346": "my", "347": "can", "348": "time", "349": "ull", "350": "\u2019ve", "351": "then", "352": "just", "353": "\u201cA", "354": "think", "355": "ward", "356": "ig", "357": "turn", "358": "sc", "359": "more", "360": "vo", "361": "tr", "362": "right", "363": "mp", "364": "see", "365": "ark", "366": "fo", "367": "fore", "368": "essor", "369": "Hag", "370": "ofessor", "371": "Hagrid", "372": "Professor", "373": "ble", "374": "able", "375": "ought", "376": "But", "377": "yes", "378": "thr", "379": "when", "380": "\u2019re", "381": "\u201cS", "382": "ally", "383": "reat", "384": "wand", "385": "though", "386": "\u201cWe", "387": "ing,", "388": "gl", "389": "self", "390": "nape", "391": "ick", "392": "ever", "393": "how", "394": "\u2019ll", "395": "It", "396": "ake", "397": "Snape", "398": "\u201cYou", "399": "use", "400": "looking", "401": "ate", "402": "They", "403": "here", "404": "ing.", "405": "face", "406": "new", "407": "\u2019d", "408": "ass", "409": "pre", "410": "door", "411": "pt", "412": "still", "413": "air", "414": "cl", "415": "mb", "416": "ive", "417": "Weas", "418": "ug", "419": "\u201cN", "420": "eyes", "421": "tle", "422": "ation", "423": "Harry.", "424": "than", "425": "wo", "426": "light", "427": "led", "428": "arm", "429": "through", "430": "pped", "431": "af", "432": "ite", "433": "ers", "434": "che", "435": "where", "436": "man", "437": "don\u2019t", "438": "ving", "439": "ap", "440": "clo", "441": "voice", "442": "orn", "443": "Harry\u2019s", "444": "ved", "445": "seem", "446": "inn", "447": "ath", "448": "iz", "449": "let", "450": "ree", "451": "cle", "452": "Pot", "453": "read", "454": "y.", "455": "cr", "456": "which", "457": "long", "458": "going", "459": "\u201cO", "460": "Ron,", "461": "thought", "462": "before", "463": "br", "464": "ll,", "465": "sto", "466": "Mal", "467": "\u2019m", "468": "lit", "469": "every", "470": "ire", "471": "\u201cT", "472": "come", "473": "ared", "474": "him.", "475": "king", "476": "com", "477": "Malfo", "478": "uch", "479": "will", "480": "Weasley", "481": "say", "482": "act", "483": "under", "484": "ave", "485": "idd", "486": "og", "487": "didn\u2019t", "488": "ched", "489": "fa", "490": "Vold", "491": "emort", "492": "wat", "493": "Voldemort", "494": "lt", "495": "There", "496": "ade", "497": "str", "498": "Mr.", "499": "only", "500": "h,", "501": "aring", "502": "\u201cWhat", "503": "turned", "504": "pr", "505": "open", "506": "day", "507": "dis", "508": "happ", "509": "fr", "510": "low", "511": "saw", "512": "tell", "513": "it,", "514": "Potter", "515": "spe", "516": "after", "517": "him,", "518": "fir", "519": "ft", "520": "ob", "521": "less", "522": "De", "523": "ie", "524": "want", "525": "hind", "526": "away", "527": "iri", "528": "er,", "529": "even", "530": "never", "531": "And", "532": "ach", "533": "said,", "534": "something", "535": "himself", "536": "has", "537": "irius", "538": "She", "539": "seemed", "540": "try", "541": "year", "542": "age", "543": "behind", "544": "pro", "545": "itch", "546": "ried", "547": "uff", "548": "ev", "549": "last", "550": "\u201cHe", "551": "told", "552": "\u201cIt", "553": "Hog", "554": "bet", "555": "fl", "556": "Sirius", "557": "es,", "558": "hair", "559": "agic", "560": "toward", "561": "it.", "562": "poin", "563": "its", "564": "stand", "565": "Min", "566": "\u201cD", "567": "moment", "568": "ank", "569": "much", "570": "im", "571": "ine", "572": "ance", "573": "sed", "574": "ts", "575": "ish", "576": "llow", "577": "full", "578": "ue", "579": "Malfoy", "580": "ple", "581": "wa", "582": "Hermione,", "583": "knew", "584": "You", "585": "bod", "586": "heard", "587": "most", "588": "should", "589": "beca", "590": "ople", "591": "ious", "592": "aking", "593": "once", "594": "ool", "595": "first", "596": "little", "597": "sit", "598": "sil", "599": "made", "600": "two", "601": "att", "602": "good", "603": "sha", "604": "zard", "605": "ling", "606": "it\u2019s", "607": "wizard", "608": "ful", "609": "sm", "610": "ped", "611": "left", "612": "app", "613": "er.", "614": "word", "615": "\u201cNo", "616": "people", "617": "wart", "618": "\u201cH", "619": "tal", "620": "table", "621": "uck", "622": "ouse", "623": "asked", "624": "Fred", "625": "felt", "626": "ase", "627": "ans", "628": "tor", "629": "des", "630": "Mrs.", "631": "Hogwart", "632": "on,", "633": "\u201cBut", "634": "imp", "635": "\u201cM", "636": "ont", "637": "ub", "638": "ta", "639": "I\u2019m", "640": "dark", "641": "sure", "642": "ear", "643": "might", "644": "flo", "645": "ten", "646": "pull", "647": "ching", "648": "wal", "649": "gle", "650": "dr", "651": "went", "652": "wind", "653": "night", "654": "really", "655": "lie", "656": "ross", "657": "cont", "658": "feel", "659": "nt", "660": "happen", "661": "Be", "662": "ise", "663": "front", "664": "ille", "665": "arge", "666": "must", "667": "bed", "668": "Cr", "669": "body", "670": "need", "671": "he\u2019s", "672": "fin", "673": "Lup", "674": "Lupin", "675": "because", "676": "cond", "677": "Ge", "678": "Mc", "679": "xt", "680": "den", "681": "Qu", "682": "stoo", "683": "orge", "684": "rest", "685": "put", "686": "oud", "687": "reac", "688": "sup", "689": "ated", "690": "gi", "691": "came", "692": "George", "693": "vis", "694": "hur", "695": "eville", "696": "ask", "697": "you,", "698": "Ginn", "699": "ste", "700": "sur", "701": "feet", "702": "\u201cAnd", "703": "ign", "704": "bit", "705": "cour", "706": "ord", "707": "min", "708": "appe", "709": "\u201cL", "710": "pa", "711": "Neville", "712": "whis", "713": "rew", "714": "cur", "715": "ence", "716": "ern", "717": "while", "718": "ream", "719": "Ron.", "720": "ugh", "721": "find", "722": "great", "723": "Gon", "724": "Gonag", "725": "Gonagall", "726": "hard", "727": "\u201cThe", "728": "took", "729": "McGonagall", "730": "them.", "731": "few", "732": "que", "733": "anything", "734": "anted", "735": "In", "736": "take", "737": "ves", "738": "lp", "739": "ced", "740": "floor", "741": "set", "742": "stood", "743": "rem", "744": "\u201cWell,", "745": "chool", "746": "ung", "747": "second", "748": "ished", "749": "tered", "750": "make", "751": "large", "752": "wr", "753": "trying", "754": "call", "755": "mean", "756": "\u201cC", "757": "again.", "758": "ught", "759": "hear", "760": "another", "761": "mou", "762": "next", "763": "mat", "764": "stair", "765": "well", "766": "Gry", "767": "Gryff", "768": "Gryffind", "769": "Gryffindor", "770": "ridge", "771": "black", "772": "sound", "773": "qui", "774": "inside", "775": "work", "776": "school", "777": "wall", "778": "can\u2019t", "779": "ground", "780": "ered", "781": "keep", "782": "mon", "783": "aw", "784": "three", "785": "sk", "786": "window", "787": "bro", "788": "ering", "789": "comp", "790": "di", "791": "Un", "792": "ity", "793": "form", "794": "found", "795": "them,", "796": "Bl", "797": "ome", "798": "es.", "799": "upon", "800": "place", "801": "\u201cG", "802": "ister", "803": "house", "804": "book", "805": "ek", "806": "jo", "807": "His", "808": "ps", "809": "reme", "810": "seen", "811": "nothing", "812": "les", "813": "ily", "814": "gave", "815": "cor", "816": "Umb", "817": "Umbridge", "818": "fi", "819": "ins", "820": "mas", "821": "course", "822": "istry", "823": "Hermione.", "824": "ci", "825": "law", "826": "you\u2019re", "827": "Ministry", "828": "Death", "829": "Ch", "830": "ret", "831": "Hogwarts", "832": "ready", "833": "orm", "834": "unn", "835": "bre", "836": "help", "837": "real", "838": "ized", "839": "udge", "840": "pass", "841": "ket", "842": "row", "843": "udden", "844": "cast", "845": "half", "846": "ction", "847": "onto", "848": "unt", "849": "fire", "850": "ea", "851": "St", "852": "uggle", "853": "sing", "854": "ock", "855": "\u201cE", "856": "sudden", "857": "why", "858": "ised", "859": "Per", "860": "ress", "861": "smi", "862": "ber", "863": "me,", "864": "beg", "865": "ty", "866": "boy", "867": "sat", "868": "cy", "869": "pulled", "870": "sent", "871": "az", "872": "wanted", "873": "owl", "874": "across", "875": "shout", "876": "Vern", "877": "mis", "878": "arly", "879": "wait", "880": "\u201cIt\u2019s", "881": "ged", "882": "I\u2019ve", "883": "being", "884": "follow", "885": "quick", "886": "without", "887": "mind", "888": "star", "889": "robe", "890": "sl", "891": "each", "892": "ways", "893": "dd", "894": "part", "895": "stud", "896": "said.", "897": "magic", "898": "quite", "899": "loud", "900": "used", "901": "again,", "902": "done", "903": "car", "904": "both", "905": "Fudge", "906": "small", "907": "ser", "908": "ons", "909": "ose", "910": "\u201cYea", "911": "wasn\u2019t", "912": "cted", "913": "ible", "914": "along", "915": "Eat", "916": "expe", "917": "cent", "918": "Mad", "919": "Muggle", "920": "care", "921": "quiet", "922": "eye", "923": "hy", "924": "riend", "925": "against", "926": "ating", "927": "press", "928": "slight", "929": "hen", "930": "pping", "931": "Dark", "932": "suppo", "933": "better", "934": "oot", "935": "Ginny", "936": "won", "937": "sn", "938": "top", "939": "Uncle", "940": "\u201cThat", "941": "give", "942": "empt", "943": "does", "944": "kill", "945": "Dud", "946": "couldn\u2019t", "947": "par", "948": "ions", "949": "Ron\u2019s", "950": "cou", "951": "Magic", "952": "bus", "953": "else", "954": "belie", "955": "Then", "956": "hold", "957": "enough", "958": "pered", "959": "raw", "960": "mouth", "961": "in\u2019", "962": "und", "963": "friend", "964": "unti", "965": "ouch", "966": "isten", "967": "ee", "968": "roll", "969": "dif", "970": "uri", "971": "mut", "972": "Mood", "973": "ever,", "974": "dem", "975": "pic", "976": "step", "977": "ange", "978": "As", "979": "hor", "980": "scar", "981": "ump", "982": "he\u2019d", "983": "iddle", "984": "ric", "985": "gold", "986": "ia", "987": "tail", "988": "\u201cI\u2019m", "989": "ER", "990": "ame", "991": "gu", "992": "forward", "993": "son", "994": "ents", "995": "standing", "996": "Dumbledore,", "997": "lyther", "998": "ince", "999": "Vernon", "1000": "gone", "1001": "je", "1002": "Pet", "1003": "s,\u201d", "1004": "\u201cSo", "1005": "rather", "1006": "bot", "1007": "sna", "1008": "appeared", "1009": "past", "1010": "those", "1011": "mber", "1012": "case", "1013": "ging", "1014": "anger", "1015": "gre", "1016": "that\u2019s", "1017": "ib", "1018": "Slyther", "1019": "med", "1020": "cold", "1021": "name", "1022": "these", "1023": "usu", "1024": "lat", "1025": "staring", "1026": "ween", "1027": "Dumbledore\u2019s", "1028": "father", "1029": "already", "1030": "walked", "1031": "ult", "1032": "voice.", "1033": "whispered", "1034": "up,", "1035": "her.", "1036": "chair", "1037": "fell", "1038": "until", "1039": "between", "1040": "fle", "1041": "ley,", "1042": "leg", "1043": "om", "1044": "ense", "1045": "dro", "1046": "Dudley", "1047": "tain", "1048": "add", "1049": "Ar", "1050": "urs", "1051": "sw", "1052": "slow", "1053": "began", "1054": "close", "1055": "far", "1056": "coming", "1057": "unk", "1058": "sitting", "1059": "Lord", "1060": "many", "1061": "ary", "1062": "doing", "1063": "yet", "1064": "blood", "1065": "start", "1066": "arn", "1067": "tri", "1068": "fami", "1069": "\u201cR", "1070": "idditch", "1071": "minut", "1072": "now,", "1073": "you?\u201d", "1074": "Black", "1075": "Quidditch", "1076": "owing", "1077": "tried", "1078": "port", "1079": "breat", "1080": "swe", "1081": "reached", "1082": "hands", "1083": "Sl", "1084": "cho", "1085": "office", "1086": "lin", "1087": "rim", "1088": "Go", "1089": "Se", "1090": "fing", "1091": "fast", "1092": "bad", "1093": "gether", "1094": "dist", "1095": "fac", "1096": "tra", "1097": "started", "1098": "TH", "1099": "pow", "1100": "corrid", "1101": "corridor", "1102": "four", "1103": "obby", "1104": "ither", "1105": "pain", "1106": "castle", "1107": "high", "1108": "rum", "1109": "ughorn", "1110": "dead", "1111": "room,", "1112": "\u201cOh", "1113": "Clo", "1114": "lea", "1115": "foot", "1116": "Gr", "1117": "Hall", "1118": "ings", "1119": "Slughorn", "1120": "years", "1121": "almost", "1122": "same", "1123": "Dumbledore.", "1124": "sign", "1125": "\u201cHow", "1126": "tak", "1127": "mar", "1128": "An", "1129": "gir", "1130": "opened", "1131": "her,", "1132": "room.", "1133": "together", "1134": "\u201cF", "1135": "face.", "1136": "mor", "1137": "wouldn\u2019t", "1138": "Cloak", "1139": "anyone", "1140": "ph", "1141": "Who", "1142": "ained", "1143": "lying", "1144": "happened", "1145": "hing", "1146": "I\u2019ll", "1147": "tent", "1148": "ef", "1149": "always", "1150": "owed", "1151": "s\u2019", "1152": "ond", "1153": "rac", "1154": "leave", "1155": "raised", "1156": "cha", "1157": "What", "1158": "it?\u201d", "1159": "Hagrid,", "1160": "talking", "1161": "Minister", "1162": "aven", "1163": "move", "1164": "sight", "1165": "sle", "1166": "mother", "1167": "cket", "1168": "drag", "1169": "stared", "1170": "stra", "1171": "ured", "1172": "hour", "1173": "contin", "1174": "ote", "1175": "scream", "1176": "vi", "1177": "girl", "1178": "Slytherin", "1179": "fect", "1180": "on.", "1181": "ove", "1182": "itche", "1183": "class", "1184": "pleas", "1185": "yell", "1186": "If", "1187": "entor", "1188": "\u201cOh,", "1189": "su", "1190": "life", "1191": "whole", "1192": "play", "1193": "round", "1194": "lot", "1195": "week", "1196": "letter", "1197": "ping", "1198": "crow", "1199": "tw", "1200": "listen", "1201": "kept", "1202": "feeling", "1203": "crowd", "1204": "green", "1205": "talk", "1206": "then,", "1207": "moved", "1208": "things", "1209": "ses", "1210": "ren", "1211": "break", "1212": "Hermione\u2019s", "1213": "arri", "1214": "beside", "1215": "When", "1216": "cat", "1217": "straight", "1218": "ix", "1219": "won\u2019t", "1220": "getting", "1221": "fall", "1222": "orry", "1223": "\u201cThey", "1224": "van", "1225": "everything", "1226": "cre", "1227": "chi", "1228": "outside", "1229": "suddenly", "1230": "sli", "1231": "hope", "1232": "una", "1233": "caught", "1234": "bag", "1235": "ene", "1236": "ies", "1237": "dementor", "1238": "everyone", "1239": "fully", "1240": "quest", "1241": "called", "1242": "corn", "1243": "stop", "1244": "best", "1245": "stone", "1246": "tering", "1247": "sel", "1248": "Dobby", "1249": "sir", "1250": "believe", "1251": "whether", "1252": "watching", "1253": "mist", "1254": "idea", "1255": "pot", "1256": "supposed", "1257": "Durs", "1258": "hea", "1259": "you\u2019ve", "1260": "HA", "1261": "exc", "1262": "stick", "1263": "fre", "1264": "yeh", "1265": "poss", "1266": "ner", "1267": "ken", "1268": "Sc", "1269": "teac", "1270": "however,", "1271": "isn\u2019t", "1272": "muttered", "1273": "ened", "1274": "Moody", "1275": "fact", "1276": "phe", "1277": "\u201cThere", "1278": "broom", "1279": "deep", "1280": "right,", "1281": "in,", "1282": "sort", "1283": "ird", "1284": "since", "1285": "hit", "1286": "haven", "1287": "heart", "1288": "spo", "1289": "ery", "1290": "taken", "1291": "Crouch", "1292": "Petun", "1293": "Petunia", "1294": "there,", "1295": "slightly", "1296": "\u201cB", "1297": "white", "1298": "\u201cYeah,", "1299": "Dursley", "1300": "Luna", "1301": "someone", "1302": "haven\u2019t", "1303": "stay", "1304": "short", "1305": "rible", "1306": "an\u2019", "1307": "Percy", "1308": "edric", "1309": "ably", "1310": "Al", "1311": "nose", "1312": "Weasley,", "1313": "time,", "1314": "we\u2019re", "1315": "master", "1316": "well,", "1317": "laugh", "1318": "\u201cP", "1319": "desk", "1320": "Madam", "1321": "ined", "1322": "bu", "1323": "home", "1324": "ion,", "1325": "continu", "1326": "usual", "1327": "making", "1328": "cked", "1329": "ize", "1330": "head.", "1331": "attack", "1332": "point", "1333": "cus", "1334": "alone", "1335": "ness", "1336": "fer", "1337": "I\u2019d", "1338": "silence", "1339": "ouble", "1340": "morn", "1341": "All", "1342": "taking", "1343": "Aunt", "1344": "hadn\u2019t", "1345": "\u201cYes,", "1346": "Kreac", "1347": "stead", "1348": "No", "1349": "wig", "1350": "Cedric", "1351": "Pri", "1352": "ying", "1353": "For", "1354": "surpr", "1355": "speak", "1356": "ion.", "1357": "stopped", "1358": "ens", "1359": "exam", "1360": "holding", "1361": "they\u2019re", "1362": "mur", "1363": "shi", "1364": "Hagrid\u2019s", "1365": "vered", "1366": "late", "1367": "squ", "1368": "ris", "1369": "silver", "1370": "nes", "1371": "cing", "1372": "understand", "1373": "up.", "1374": "cept", "1375": "wearing", "1376": "lay", "1377": "Riddle", "1378": "ror", "1379": "pointed", "1380": "ertain", "1381": "hall", "1382": "plac", "1383": "\u201cIf", "1384": "spell", "1385": "cru", "1386": "inter", "1387": "dire", "1388": "kind", "1389": "arent", "1390": "dered", "1391": "watched", "1392": "How", "1393": "ject", "1394": "either", "1395": "aged", "1396": "here,", "1397": "draw", "1398": "ushed", "1399": "gra", "1400": "\u201cHarry", "1401": "bur", "1402": "sever", "1403": "plain", "1404": "stuff", "1405": "sme", "1406": "matter", "1407": "le.", "1408": "watch", "1409": "plan", "1410": "arms", "1411": "This", "1412": "notic", "1413": "spot", "1414": "pointing", "1415": "meet", "1416": "fig", "1417": "comple", "1418": "cid", "1419": "breath", "1420": "elf", "1421": "cli", "1422": "Bill", "1423": "team", "1424": "ati", "1425": "answ", "1426": "urious", "1427": "sum", "1428": "wonder", "1429": "ility", "1430": "On", "1431": "OU", "1432": "int", "1433": "several", "1434": "in.", "1435": "ending", "1436": "ster", "1437": "\u201cDon\u2019t", "1438": "tight", "1439": "know,", "1440": "At", "1441": "ited", "1442": "Just", "1443": "Th", "1444": "au", "1445": "fort", "1446": "having", "1447": "cup", "1448": "land", "1449": "glan", "1450": "kay", "1451": "-Who", "1452": "power", "1453": "way,", "1454": "ran", "1455": "Eaters", "1456": "ze", "1457": "it,\u201d", "1458": "bright", "1459": "given", "1460": "robes", "1461": "passed", "1462": "hurried", "1463": "tin", "1464": "common", "1465": "oc", "1466": "ilch", "1467": "such", "1468": "ger", "1469": "seat", "1470": "students", "1471": "us,", "1472": "reg", "1473": "\u201cNo,", "1474": "ures", "1475": "board", "1476": "eg", "1477": "le,", "1478": "ney", "1479": "person", "1480": "mer", "1481": "stro", "1482": "actly", "1483": "gest", "1484": "TER", "1485": "door.", "1486": "Filch", "1487": "Know", "1488": "\u201cWhy", "1489": "Voldemort\u2019s", "1490": "ton", "1491": "that,", "1492": "Wiz", "1493": "gaz", "1494": "may", "1495": "clear", "1496": "\u201cThat\u2019s", "1497": "lid", "1498": "Tre", "1499": "pret", "1500": "iously", "1501": "sorry", "1502": "free", "1503": "entr", "1504": "near", "1505": "glas", "1506": "ron", "1507": "Sn", "1508": "sof", "1509": "wizards", "1510": "neck", "1511": "kno", "1512": "sub", "1513": "stairs", "1514": "held", "1515": "\u201cI\u2019ve", "1516": "closed", "1517": "IN", "1518": "burst", "1519": "ars", "1520": "chment", "1521": "ith", "1522": "Hor", "1523": "lli", "1524": "doesn\u2019t", "1525": "itchen", "1526": "thick", "1527": "reas", "1528": "appro", "1529": "kitchen", "1530": "parchment", "1531": "witch", "1532": "Cho", "1533": "onk", "1534": "num", "1535": "ashed", "1536": "turning", "1537": "EN", "1538": "empty", "1539": "now.", "1540": "telling", "1541": "danger", "1542": "fight", "1543": "wrong", "1544": "words", "1545": "odd", "1546": "My", "1547": "pi", "1548": "entrance", "1549": "lost", "1550": "Head", "1551": "wand,", "1552": "ibility", "1553": "ally,", "1554": "voice,", "1555": "all,", "1556": "head,", "1557": "ow,", "1558": "followed", "1559": "Snape\u2019s", "1560": "Kreacher", "1561": "five", "1562": "sque", "1563": "pair", "1564": "idden", "1565": "\u201cHe\u2019s", "1566": "terest", "1567": "Krum", "1568": "complete", "1569": "iding", "1570": "tom", "1571": "aff", "1572": "selves", "1573": "Lock", "1574": "hart", "1575": "pat", "1576": "haps", "1577": "remember", "1578": "unning", "1579": "eyes.", "1580": "shut", "1581": "rent", "1582": "dear", "1583": "me.", "1584": "memor", "1585": "uring", "1586": "we\u2019ve", "1587": "steps", "1588": "Bag", "1589": "o\u2019", "1590": "moment,", "1591": "fic", "1592": "So", "1593": "Lockhart", "1594": "back,", "1595": "interest", "1596": "Bell", "1597": "Trelaw", "1598": "undred", "1599": "certain", "1600": "course,", "1601": "\u2019you", "1602": "coun", "1603": "Potter,", "1604": "leur", "1605": "mid", "1606": "s.\u201d", "1607": "teacher", "1608": "reco", "1609": "thinking", "1610": "ost", "1611": "conf", "1612": "\u201cWell", "1613": "too.", "1614": "trunk", "1615": "emp", "1616": "THE", "1617": "diffe", "1618": "eas", "1619": "all.", "1620": "noise", "1621": "ers,", "1622": "ches", "1623": "tory", "1624": "raco", "1625": "Or", "1626": "using", "1627": "saying", "1628": "\u201cYes", "1629": "Wizard", "1630": "portra", "1631": "possible", "1632": "shouted", "1633": "\u201cWhat\u2019s", "1634": "nodd", "1635": "snake", "1636": "House", "1637": "express", "1638": "est", "1639": "hundred", "1640": "sleep", "1641": "exactly", "1642": "\u201cHarry,", "1643": "arp", "1644": "moving", "1645": "cut", "1646": "Harry,\u201d", "1647": "ored", "1648": "Some", "1649": "spr", "1650": "reck", "1651": "stre", "1652": "-Know", "1653": "spoke", "1654": "shot", "1655": "mit", "1656": "eneath", "1657": "death", "1658": "s?\u201d", "1659": "du", "1660": "gri", "1661": "safe", "1662": "run", "1663": "Great", "1664": "Goy", "1665": "Malfoy,", "1666": "ended", "1667": "Fleur", "1668": "youn", "1669": "known", "1670": "opp", "1671": "sus", "1672": "\u201cNot", "1673": "gn", "1674": "Crab", "1675": "Crabbe", "1676": "nearly", "1677": "gas", "1678": "shook", "1679": "heav", "1680": "ers.", "1681": "ormtail", "1682": "wide", "1683": "sharp", "1684": "wel", "1685": "above", "1686": "ago", "1687": "dream", "1688": "prote", "1689": "covered", "1690": "spl", "1691": "You-Know", "1692": "\u201cNo,\u201d", "1693": "train", "1694": "bottom", "1695": "\u201cTh", "1696": "fla", "1697": "Draco", "1698": "Tonk", "1699": "minutes", "1700": "shaking", "1701": "res", "1702": "Fire", "1703": "strange", "1704": "rying", "1705": "ently", "1706": "least", "1707": "shri", "1708": "igg", "1709": "hurt", "1710": "crux", "1711": "also", "1712": "\u201c\u2014", "1713": "waiting", "1714": "\u201cMy", "1715": "beneath", "1716": "family", "1717": "fill", "1718": "please", "1719": "Bagman", "1720": "Horcrux", "1721": "pur", "1722": "and,", "1723": "mean,", "1724": "stup", "1725": "chang", "1726": "ining", "1727": "arely", "1728": "Snape,", "1729": "dri", "1730": "back.", "1731": "\u201cbut", "1732": "entered", "1733": "cross", "1734": "pack", "1735": "ubb", "1736": "you\u2019d", "1737": "finished", "1738": "carry", "1739": "times", "1740": "shad", "1741": "Wormtail", "1742": "ext", "1743": "pri", "1744": "ash", "1745": "ular", "1746": "trouble", "1747": "you.", "1748": "gobl", "1749": "Every", "1750": "burn", "1751": "return", "1752": "Lu", "1753": "atri", "1754": "except", "1755": "stret", "1756": "clut", "1757": "pocket", "1758": "you,\u201d", "1759": "giant", "1760": "kne", "1761": "teen", "1762": "wood", "1763": "edwig", "1764": "You-Know-Who", "1765": "nerv", "1766": "golden", "1767": "six", "1768": "\u201cThis", "1769": "vel", "1770": "dropped", "1771": "whose", "1772": "It\u2019s", "1773": "bling", "1774": "ceil", "1775": "forest", "1776": "magical", "1777": "she\u2019s", "1778": "y-", "1779": "repe", "1780": "shall", "1781": "diffic", "1782": "visibility", "1783": "met", "1784": "ather", "1785": "show", "1786": "shock", "1787": "quickly", "1788": "neare", "1789": "chest", "1790": "Do", "1791": "bottle", "1792": "That", "1793": "out,", "1794": "aked", "1795": "claw", "1796": "tru", "1797": "\u201cYou\u2019re", "1798": "face,", "1799": "vers", "1800": "stupid", "1801": "coll", "1802": "simp", "1803": "\u201cYeah", "1804": "vent", "1805": "umped", "1806": "water", "1807": "there\u2019s", "1808": "Hedwig", "1809": "Dean", "1810": "CHA", "1811": "ON", "1812": "threw", "1813": "scr", "1814": "pract", "1815": "chance", "1816": "wand.", "1817": "Invisibility", "1818": "floor.", "1819": "tiny", "1820": "cas", "1821": "puff", "1822": "os", "1823": "bat", "1824": "dun", "1825": "flew", "1826": "Pro", "1827": "big", "1828": "import", "1829": "OR", "1830": "staircase", "1831": "Bellatri", "1832": "Bellatrix", "1833": "\u201cEr", "1834": "world", "1835": "rist", "1836": "ristmas", "1837": "hand.", "1838": "soft", "1839": "creat", "1840": "mir", "1841": "ey", "1842": "hand,", "1843": "managed", "1844": "CHAP", "1845": "CHAPTER", "1846": "wild", "1847": "what\u2019s", "1848": "Christmas", "1849": "realized", "1850": "imag", "1851": "ation.", "1852": "luck", "1853": "appear", "1854": "mad", "1855": "vanished", "1856": "pie", "1857": "\u201cCome", "1858": "Fred,", "1859": "Prime", "1860": "writ", "1861": "ening", "1862": "inc", "1863": "ax", "1864": "woman", "1865": "warn", "1866": "table.", "1867": "aming", "1868": "\u201cGood", "1869": "col", "1870": "present", "1871": "away,", "1872": "crack", "1873": "glanced", "1874": "iss", "1875": "-b", "1876": "cloak", "1877": "emer", "1878": "forgot", "1879": "pict", "1880": "nobody", "1881": "leaving", "1882": "oun", "1883": "returned", "1884": "climb", "1885": "inform", "1886": "ied", "1887": "vor", "1888": "With", "1889": "became", "1890": "val", "1891": "eter", "1892": "stri", "1893": "match", "1894": "gen", "1895": "continued", "1896": "angri", "1897": "arrow", "1898": "\u201cWho", "1899": "bered", "1900": "ent,", "1901": "One", "1902": "glass", "1903": "sage", "1904": "gain", "1905": "brother", "1906": "ation,", "1907": "noticed", "1908": "later,", "1909": "spect", "1910": "bar", "1911": "lead", "1912": "oub", "1913": "soon", "1914": "seized", "1915": "iew", "1916": "expected", "1917": "broken", "1918": "amp", "1919": "ishing", "1920": "eag", "1921": "Prophe", "1922": "athe", "1923": "\u201cShe", "1924": "recogn", "1925": "tre", "1926": "fif", "1927": "time.", "1928": "you\u2019ll", "1929": "ately", "1930": "ring", "1931": "\u201cAll", "1932": "alm", "1933": "walking", "1934": "view", "1935": "grinn", "1936": "hang", "1937": "artment", "1938": "rup", "1939": "Trelawney", "1940": "too,", "1941": "tonight", "1942": "nor", "1943": "pare", "1944": "running", "1945": "rifi", "1946": "box", "1947": "inted", "1948": "ari", "1949": "number", "1950": "AN", "1951": "below", "1952": "pulling", "1953": "ru", "1954": "door,", "1955": "\u201cI\u2019ll", "1956": "herself", "1957": "cir", "1958": "mere", "1959": "anks", "1960": "bably", "1961": "true", "1962": "Jame", "1963": "furious", "1964": "away.", "1965": "slowly", "1966": "Bo", "1967": "down,", "1968": "long,", "1969": "sca", "1970": "themselves", "1971": "Wood", "1972": "aster", "1973": "we\u2019ll", "1974": "beak", "1975": "igh", "1976": "angry", "1977": "sne", "1978": "men", "1979": "important", "1980": "broke", "1981": "ball", "1982": "paper", "1983": "this,", "1984": "ically", "1985": "\u201cWhere", "1986": "lean", "1987": "fense", "1988": "impress", "1989": "quietly.", "1990": "zk", "1991": "zkab", "1992": "zkaban", "1993": "dementors", "1994": "no,", "1995": "clock", "1996": "sun", "1997": "instead", "1998": "thro", "1999": "there.", "2000": "pho", "2001": "esca", "2002": "line", "2003": "ormous", "2004": "sword", "2005": "ones", "2006": "others", "2007": "cret", "2008": "sug", "2009": "blue", "2010": "bring", "2011": "table,", "2012": "Prophet", "2013": "barely", "2014": "mes", "2015": "expect", "2016": "street", "2017": "corner", "2018": "early", "2019": "ually", "2020": "books", "2021": "ory", "2022": "enormous", "2023": "drew", "2024": "job", "2025": "ows", "2026": "okay", "2027": "within", "2028": "Azkaban", "2029": "walk", "2030": "Albus", "2031": "question", "2032": "cab", "2033": "Magical", "2034": "Weasley.", "2035": "Sirius,", "2036": "miss", "2037": "day,", "2038": "grew", "2039": "difficult", "2040": "seven", "2041": "\u201cLook", "2042": "George,", "2043": "Seam", "2044": "Snape.", "2045": "was,", "2046": "different", "2047": "one,", "2048": "fter", "2049": "suppose", "2050": "rib", "2051": "bolt", "2052": "AR", "2053": "cause", "2054": "bas", "2055": "Par", "2056": "Er", "2057": "thank", "2058": "nts", "2059": "month", "2060": "meant", "2061": "ent.", "2062": "Sever", "2063": "says", "2064": "sess", "2065": "unch", "2066": "mention", "2067": "fro", "2068": "visible", "2069": "dragon", "2070": "backward", "2071": "vol", "2072": "gray", "2073": "ces", "2074": "\u201cDid", "2075": "pas", "2076": "Goyle", "2077": "wing", "2078": "learn", "2079": "nervous", "2080": "fine", "2081": "around.", "2082": "trem", "2083": "swi", "2084": "way.", "2085": "avenclaw", "2086": "echo", "2087": "Pat", "2088": "Kark", "2089": "hum", "2090": "bri", "2091": "fix", "2092": "killed", "2093": "pan", "2094": "hidden", "2095": "horrible", "2096": "tee", "2097": "clas", "2098": "Snitch", "2099": "young", "2100": "flying", "2101": "direction", "2102": "longer", "2103": "parents", "2104": "egg", "2105": "quill", "2106": "Not", "2107": "spit", "2108": "d\u2019you", "2109": "fear", "2110": "ous.", "2111": "once.", "2112": "it.\u201d", "2113": "Ravenclaw", "2114": "placed", "2115": "laught", "2116": "remain", "2117": "bey", "2118": "whom", "2119": "story", "2120": "dress", "2121": "ol", "2122": "LE", "2123": "inde", "2124": "giving", "2125": "oul", "2126": "happy", "2127": "forced", "2128": "iled", "2129": "fingers", "2130": "middle", "2131": "us.", "2132": "out.", "2133": "atur", "2134": "check", "2135": "posit", "2136": "s;", "2137": "expression", "2138": "\u201cYes,\u201d", "2139": "Hagrid.", "2140": "stepped", "2141": "died", "2142": "drink", "2143": "truth", "2144": "third", "2145": "Da", "2146": "cell", "2147": "dor", "2148": "portrait", "2149": "medi", "2150": "Scrim", "2151": "geour", "2152": "p.", "2153": "me,\u201d", "2154": "Order", "2155": "\u201cBe", "2156": "peri", "2157": "Charm", "2158": "house-", "2159": "arently", "2160": "Scrimgeour", "2161": "por", "2162": "rolled", "2163": "post", "2164": "sid", "2165": "inst", "2166": "kes", "2167": "partic", "2168": "deser", "2169": "love", "2170": "whisper", "2171": "ma", "2172": "reckon", "2173": "isted", "2174": "reason", "2175": "knows", "2176": "anx", "2177": "\u201cEx", "2178": "eyes,", "2179": "rol", "2180": "later", "2181": "potion", "2182": "lake", "2183": "fur", "2184": "cover", "2185": "picked", "2186": "\u201cAre", "2187": "\u201cDo", "2188": "brought", "2189": "pushed", "2190": "looks", "2191": "Malfoy\u2019s", "2192": "vin", "2193": "Crook", "2194": "Crooksh", "2195": "norm", "2196": "icked", "2197": "abb", "2198": "rose", "2199": "\u201cProfessor", "2200": "uffle", "2201": "-E", "2202": "Karkar", "2203": "Karkaroff", "2204": "udd", "2205": "probably", "2206": "yourself", "2207": "carrying", "2208": "mag", "2209": "sense", "2210": "laug", "2211": "roared", "2212": "cop", "2213": "Again", "2214": "dormi", "2215": "hardly", "2216": "fright", "2217": "days", "2218": "\u201cWhat?\u201d", "2219": "amed", "2220": "desper", "2221": "vious", "2222": "ita", "2223": "firm", "2224": "bor", "2225": "suggest", "2226": "completely", "2227": "cri", "2228": "kn", "2229": "during", "2230": "it!\u201d", "2231": "n\u2019", "2232": "feet.", "2233": "Di", "2234": "ning", "2235": "p,", "2236": "tree", "2237": "sister", "2238": "Pom", "2239": "Pomfre", "2240": "answer", "2241": "laughed", "2242": "Very", "2243": "doub", "2244": "ield", "2245": "test", "2246": "y,\u201d", "2247": "couple", "2248": "dinn", "2249": "explain", "2250": "dog", "2251": "ily.", "2252": "yea", "2253": "Ginny,", "2254": "morning", "2255": "yelled", "2256": "hu", "2257": "once,", "2258": "worse", "2259": "stom", "2260": "clearly", "2261": "hot", "2262": "feet,", "2263": "brain", "2264": "App", "2265": "champ", "2266": "Hogsme", "2267": "ve,", "2268": "thin", "2269": "Dursleys", "2270": "doors", "2271": "sounded", "2272": "aled", "2273": "Hogsmeade", "2274": "Lupin,", "2275": "edge", "2276": "-looking", "2277": "Voldemort,", "2278": "finally", "2279": "force", "2280": "shr", "2281": "\u201cLet", "2282": "hung", "2283": "ted.", "2284": "ench", "2285": "perhaps", "2286": "himself,", "2287": "reading", "2288": "ald", "2289": "Ex", "2290": "calm", "2291": "James", "2292": "pun", "2293": "ming", "2294": "is,", "2295": "age,", "2296": "sol", "2297": "added", "2298": "Wizarding", "2299": "immedi", "2300": "funn", "2301": "apart", "2302": "air,", "2303": "bang", "2304": "become", "2305": "To", "2306": "joined", "2307": "Luci", "2308": "thur", "2309": "age.", "2310": "stretched", "2311": "cla", "2312": "worry", "2313": "note", "2314": "Pee", "2315": "\u201cand", "2316": "limp", "2317": "Rita", "2318": "perfect", "2319": "ous,", "2320": "right,\u201d", "2321": "trust", "2322": "s!\u201d", "2323": "cry", "2324": "red.", "2325": "filled", "2326": "Le", "2327": "pale", "2328": "ufflepuff", "2329": "sear", "2330": "ush", "2331": "ached", "2332": "merely", "2333": "flat", "2334": "Now", "2335": "dangerous", "2336": "shop", "2337": "fully.", "2338": "himself.", "2339": "\u201cOf", "2340": "student", "2341": "picture", "2342": "teach", "2343": "child", "2344": "tea", "2345": "decid", "2346": "ingly", "2347": "aunt", "2348": "bb", "2349": "change", "2350": "famili", "2351": "Harry?\u201d", "2352": "alive", "2353": "field", "2354": "raid", "2355": "mbered", "2356": "Hufflepuff", "2357": "cting", "2358": "throat", "2359": "Hogwarts,", "2360": "guard", "2361": "broomstick", "2362": "floor,", "2363": "Fr", "2364": "arrived", "2365": "order", "2366": "subject", "2367": "narrow", "2368": "plat", "2369": "aside", "2370": "around,", "2371": "eh", "2372": "va", "2373": "headmaster", "2374": "frown", "2375": "uggl", "2376": "vic", "2377": "grou", "2378": "wondered", "2379": "After", "2380": "bath", "2381": "myself", "2382": "remembered", "2383": "lius", "2384": "wick", "2385": "Why", "2386": "day.", "2387": "Re", "2388": "eng", "2389": "night.", "2390": "slid", "2391": "Hogwarts.", "2392": "it?", "2393": "aren\u2019t", "2394": "spital", "2395": "pleasant", "2396": "attemp", "2397": "secret", "2398": "zen", "2399": "\u201cIs", "2400": "inky", "2401": "worth", "2402": "starting", "2403": "leapt", "2404": "exp", "2405": "ghost", "2406": "beyond", "2407": "ane", "2408": "bow", "2409": "Eater", "2410": "half-", "2411": "huge", "2412": "spid", "2413": "jumped", "2414": "none", "2415": "He\u2019s", "2416": "Tr", "2417": "shoulder", "2418": "Gri", "2419": "term", "2420": "points", "2421": "avo", "2422": "remained", "2423": "ourn", "2424": "more.", "2425": "legs", "2426": "mark", "2427": "prom", "2428": "glasses", "2429": "say,", "2430": "voic", "2431": "terrible", "2432": "breakfast", "2433": "\u2019em", "2434": "Daily", "2435": "irre", "2436": "Defense", "2437": "phook", "2438": "Neville,", "2439": "spir", "2440": "object", "2441": "Ske", "2442": "vet", "2443": "yes,", "2444": "light,", "2445": "nice", "2446": "living", "2447": "usually", "2448": "dare", "2449": "t,", "2450": "dad", "2451": "\u201cJust", "2452": "cau", "2453": "you?", "2454": "extreme", "2455": "listening", "2456": "attent", "2457": "figure", "2458": "cis", "2459": "Lupin.", "2460": "catch", "2461": "Well,", "2462": "live", "2463": "wants", "2464": "surprise", "2465": "somewhere", "2466": "gig", "2467": "ushing", "2468": "you.\u201d", "2469": "ularly", "2470": "litwick", "2471": "\u201c\u2018", "2472": "led.", "2473": "bent", "2474": "pink", "2475": "\u2019\u201d", "2476": "aybe", "2477": "cauld", "2478": "excit", "2479": "dust", "2480": "fted", "2481": "pol", "2482": "friends", "2483": "wish", "2484": "avender", "2485": "bellow", "2486": "lesson", "2487": "changed", "2488": "evening", "2489": "ned", "2490": "proper", "2491": "abbed", "2492": "favor", "2493": "actually", "2494": "stomach", "2495": "\u201cThere\u2019s", "2496": "tive", "2497": "Against", "2498": "\u201cRight", "2499": "ages", "2500": "deal", "2501": "Mo", "2502": "Lavender", "2503": "Flitwick", "2504": "lder", "2505": "undung", "2506": "forgotten", "2507": "bed,", "2508": "inking", "2509": "bound", "2510": "gy", "2511": "ison", "2512": "strong", "2513": "surround", "2514": "key", "2515": "weak", "2516": "air.", "2517": "Pl", "2518": "somebody", "2519": "termin", "2520": "McGonagall,", "2521": "ike", "2522": "before.", "2523": "more,", "2524": "cess", "2525": "Arts", "2526": "ided", "2527": "Seamus", "2528": "fu", "2529": "attempt", "2530": "task", "2531": "excited", "2532": "weren\u2019t", "2533": "snapped", "2534": "strang", "2535": "darknes", "2536": "ele", "2537": "night,", "2538": "smell", "2539": "heavy", "2540": "piece", "2541": "rock", "2542": "twent", "2543": "strode", "2544": "teeth", "2545": "afraid", "2546": "\u201cSt", "2547": "Griphook", "2548": "ears", "2549": "Skeeter", "2550": "clutching", "2551": "smile", "2552": "one.", "2553": "liday", "2554": "oppos", "2555": "Dis", "2556": "extra", "2557": "pos", "2558": "Patron", "2559": "gard", "2560": "rit", "2561": "slipped", "2562": "ated,", "2563": "ouched", "2564": "opposite", "2565": "ban", "2566": "eager", "2567": "open.", "2568": "Cur", "2569": "eve", "2570": "ments", "2571": "vati", "2572": "appo", "2573": "inx", "2574": "Digg", "2575": "keeping", "2576": "allowed", "2577": "ctly", "2578": "akes", "2579": "itself", "2580": "memory", "2581": "holiday", "2582": "pleased", "2583": "Tom", "2584": "\u201cThank", "2585": "enjo", "2586": "staff", "2587": "Frank", "2588": "mirror", "2589": "determin", "2590": "he?\u201d", "2591": "lock", "2592": "discus", "2593": "minute", "2594": "here.", "2595": "needed", "2596": "tem", "2597": "following", "2598": "hasn\u2019t", "2599": "ST", "2600": "climbed", "2601": "hospital", "2602": "struggl", "2603": "\u201cWe\u2019re", "2604": "ial", "2605": "Lucius", "2606": "Mundung", "2607": "apparently", "2608": "uckbeak", "2609": "Tonks", "2610": "twi", "2611": "decided", "2612": "eat", "2613": "smo", "2614": "goblin", "2615": "extremely", "2616": "Muggles", "2617": "purple", "2618": "seeing", "2619": "ently.", "2620": "fain", "2621": "join", "2622": "\u201cYeah,\u201d", "2623": "bir", "2624": "know,\u201d", "2625": "\u201cAn", "2626": "vand", "2627": "other.", "2628": "Dad", "2629": "blank", "2630": "Parvati", "2631": "W.", "2632": "swung", "2633": "bell", "2634": "relie", "2635": "RE", "2636": "knock", "2637": "sy", "2638": "cord", "2639": "hesit", "2640": "Fudge,", "2641": "Crookshanks", "2642": "-Eye", "2643": "er\u2019s", "2644": "slam", "2645": "what?\u201d", "2646": "simply", "2647": "snar", "2648": "YOU", "2649": "let\u2019s", "2650": "ez", "2651": "terrifi", "2652": "curse", "2653": "loudly", "2654": "Potter,\u201d", "2655": "marble", "2656": "rais", "2657": "window.", "2658": "tow", "2659": "me?\u201d", "2660": "notice", "2661": "rat", "2662": "him;", "2663": "off,", "2664": "sen", "2665": "Quirre", "2666": "blet", "2667": "ily,", "2668": ".W.", "2669": "convers", "2670": "Buckbeak", "2671": "whatever", "2672": "they\u2019ve", "2673": "impati", "2674": "they\u2019d", "2675": "ges", "2676": "birth", "2677": "antic", "2678": "warm", "2679": "on\u2019", "2680": "Spe", "2681": "ves,", "2682": "finite", "2683": "dunge", "2684": "gelin", "2685": "gelina", "2686": "Ern", "2687": "Sirius\u2019s", "2688": "blem", "2689": "stat", "2690": "itched", "2691": "disappeared", "2692": "pressed", "2693": "gro", "2694": "rang", "2695": "quickly.", "2696": "food", "2697": "working", "2698": "inting", "2699": "shadow", "2700": "touch", "2701": "die", "2702": "wands", "2703": "passage", "2704": "send", "2705": "dormitory", "2706": "Nor", "2707": "oned", "2708": "ical", "2709": "Mar", "2710": "fixed", "2711": "icking", "2712": "repeated", "2713": "iness", "2714": "visit", "2715": "reach", "2716": "do,", "2717": "powerful", "2718": "wid", "2719": "load", "2720": "gazing", "2721": "normal", "2722": "\u201c.", "2723": "windows", "2724": "summer", "2725": "libr", "2726": "ired", "2727": "earth", "2728": "ations", "2729": "homework", "2730": "Curse", "2731": "Blud", "2732": "possess", "2733": "hasti", "2734": "Firebolt", "2735": "single", "2736": "moon", "2737": "\u201cRe", "2738": "we\u2019d", "2739": "remind", "2740": "oh", "2741": "\u201cNow,", "2742": "\u201cCan", "2743": "auld", "2744": "llivand", "2745": "an,", "2746": "fallen", "2747": "Malfoy.", "2748": "ague", "2749": "Angelina", "2750": "Appar", "2751": "are,", "2752": "rel", "2753": "that?\u201d", "2754": "practice", "2755": "izing", "2756": "\u201cVery", "2757": "Ollivand", "2758": "so,", "2759": "ashing", "2760": "Bur", "2761": "rtle", "2762": "Umbridge,", "2763": "afterno", "2764": "rain", "2765": "leep", "2766": "less,", "2767": "twel", "2768": "Mum", "2769": "nast", "2770": "walls", "2771": "lly", "2772": "nearer", "2773": "wondering", "2774": "or,", "2775": "hanging", "2776": "instr", "2777": "Char", "2778": "George.", "2779": "Petti", "2780": "Pettigrew", "2781": "garden", "2782": "problem", "2783": "rep", "2784": "playing", "2785": "\u201cIn", "2786": "glad", "2787": "heads", "2788": "sick", "2789": "rag", "2790": "grow", "2791": "vill", "2792": "eling", "2793": "tightly", "2794": "particularly", "2795": "path", "2796": "means", "2797": "ute", "2798": "conc", "2799": "then?\u201d", "2800": "ournam", "2801": "off.", "2802": "beard", "2803": "jump", "2804": "meeting", "2805": "cro", "2806": "zz", "2807": "\u201c\u2019", "2808": "rubb", "2809": "alle", "2810": "Tow", "2811": "cannot", "2812": "spent", "2813": "ted,", "2814": "cried", "2815": "photo", "2816": "ier", "2817": "iling", "2818": "fold", "2819": "Co", "2820": "halfway", "2821": "desperate", "2822": "prefect", "2823": "finger", "2824": "Arthur", "2825": "rece", "2826": "split", "2827": "OO", "2828": "us,\u201d", "2829": "ju", "2830": "iously.", "2831": "forget", "2832": "trans", "2833": "among", "2834": "incl", "2835": "pet", "2836": "cabin", "2837": "locket", "2838": "large,", "2839": "light.", "2840": "o\u2019clock", "2841": "me.\u201d", "2842": "bed.", "2843": "certainly", "2844": "hiding", "2845": "Then,", "2846": "handed", "2847": "faced", "2848": "een", "2849": "fist", "2850": "Where", "2851": "ahead", "2852": "tip", "2853": "rupt", "2854": "Myrtle", "2855": "prophe", "2856": "that.", "2857": "map", "2858": "ground.", "2859": "smiling", "2860": "wise", "2861": "showed", "2862": "lad", "2863": "hours", "2864": "alarm", "2865": "comm", "2866": "eyebr", "2867": "asked,", "2868": "Potions", "2869": "atter", "2870": "doubt", "2871": "Fang", "2872": "news", "2873": "Pomfrey", "2874": "tall", "2875": "wra", "2876": "\u201cGet", "2877": "cheer", "2878": "missed", "2879": "Harry!\u201d", "2880": "Ni", "2881": "Ro", "2882": "glit", "2883": "ugg", "2884": "Nick", "2885": "Cha", "2886": "whispered.", "2887": "throwing", "2888": "seconds", "2889": "maybe", "2890": "asleep", "2891": "smoo", "2892": "sweat", "2893": "tears", "2894": "ling.", "2895": "fun", "2896": "yed", "2897": "Quirrell", "2898": "hel", "2899": "headed", "2900": "down.", "2901": "recognized", "2902": "trees", "2903": "mass", "2904": "Kat", "2905": "Katie", "2906": "suspic", "2907": "trick", "2908": "ground,", "2909": "Ho", "2910": "landed", "2911": "gap", "2912": "gras", "2913": "leaned", "2914": "enix", "2915": "cy,", "2916": "waving", "2917": "distant", "2918": "Gre", "2919": "detent", "2920": "Weasley\u2019s", "2921": "information", "2922": "Mad-Eye", "2923": "viously", "2924": "hoo", "2925": "asked.", "2926": "fly", "2927": "Cup", "2928": "sank", "2929": "lease", "2930": "Dep", "2931": "fool", "2932": "thinks", "2933": "fee", "2934": "tear", "2935": "curtain", "2936": "Peeves", "2937": "definite", "2938": "house-elf", "2939": "Sirius.", "2940": "\u201cWe\u2019ve", "2941": "that,\u201d", "2942": "Two", "2943": "go,", "2944": "ott", "2945": "reve", "2946": "umin", "2947": "approached", "2948": "aning", "2949": "sky", "2950": "hoping", "2951": "centr", "2952": "tern", "2953": "liked", "2954": "\u201cDumbledore", "2955": "him,\u201d", "2956": "nine", "2957": "AT", "2958": "card", "2959": "tomor", "2960": "tomorrow", "2961": "agre", "2962": "bra", "2963": "org", "2964": "itches", "2965": "copy", "2966": "snow", "2967": "on,\u201d", "2968": "hes", "2969": "invisible", "2970": "ref", "2971": "Miss", "2972": "drawing", "2973": "stag", "2974": "ition", "2975": "Madame", "2976": "perfectly", "2977": "funny", "2978": "struck", "2979": "ors", "2980": "unless", "2981": "closer", "2982": "crossed", "2983": "Did", "2984": "hurrying", "2985": "Charlie", "2986": "flow", "2987": "ement", "2988": "werewo", "2989": "likely", "2990": "evid", "2991": "Max", "2992": "Maxi", "2993": "knocked", "2994": "iff", "2995": "ved,", "2996": "uffled", "2997": "see,", "2998": "thir", "2999": "nasty", "3000": "aded", "3001": "hole", "3002": "vering", "3003": "yer", "3004": "urg", "3005": "Any", "3006": "smiled", "3007": "ment,", "3008": "yeah", "3009": "scarlet", "3010": "grounds", "3011": "isk", "3012": "cand", "3013": "Neville\u2019s", "3014": "hands.", "3015": "inch", "3016": "delight", "3017": "grim", "3018": "suc", "3019": "thor", "3020": "VE", "3021": "cloud", "3022": "he,", "3023": "Even", "3024": "dinner", "3025": "spark", "3026": "McGonagall.", "3027": "carefully", "3028": "hood", "3029": "pu", "3030": "arg", "3031": "other,", "3032": "beat", "3033": "OF", "3034": "led,", "3035": "agon", "3036": "Fred.", "3037": "creature", "3038": "ever.", "3039": "by,", "3040": "Perhaps", "3041": "robes,", "3042": "angrily.", "3043": "silent", "3044": "game", "3045": "fat", "3046": "often", "3047": "year,", "3048": "putting", "3049": "eper", "3050": "yellow", "3051": "eding", "3052": "know.", "3053": "robes.", "3054": "troll", "3055": "Potion", "3056": "darkness", "3057": "yard", "3058": "Voldemort.", "3059": "resp", "3060": "aware", "3061": "forth", "3062": "Department", "3063": "utter", "3064": "realize", "3065": "neither", "3066": "shoulder.", "3067": "surprised", "3068": "cupboard", "3069": "control", "3070": "OT", "3071": "thrown", "3072": "do.", "3073": "attered", "3074": "\u201cSome", "3075": "SE", "3076": "hig", "3077": "\u201cWe\u2019ll", "3078": "lessons", "3079": "speaking", "3080": "understood", "3081": "jinx", "3082": "concern", "3083": "us!\u201d", "3084": "ated.", "3085": "Winky", "3086": "Dri", "3087": "ve.", "3088": "together.", "3089": "lunch", "3090": "determined", "3091": "unable", "3092": "last,", "3093": "nearest", "3094": "voices", "3095": "ING", "3096": "Once", "3097": "hide", "3098": "mum", "3099": "pes", "3100": "Po", "3101": "ousand", "3102": "soul", "3103": "me!\u201d", "3104": "facing", "3105": "ceiling", "3106": "fortun", "3107": "llo", "3108": "arter", "3109": "inning", "3110": "ar,", "3111": "faces", "3112": "memb", "3113": "attention", "3114": "centa", "3115": "Ernie", "3116": "Kings", "3117": "ount", "3118": "Pe", "3119": "concentr", "3120": "group", "3121": "swept", "3122": "muttered,", "3123": "ance,", "3124": "then,\u201d", "3125": "anyway", "3126": "miser", "3127": "sho", "3128": "explo", "3129": "Trans", "3130": "place,", "3131": "\u201cYou\u2019ve", "3132": "fault", "3133": "fifty", "3134": "loo", "3135": "clos", "3136": "Aur", "3137": "Privet", "3138": "twice", "3139": "jer", "3140": "ful,", "3141": "growing", "3142": "poor", "3143": "rence", "3144": "this.", "3145": "\u201cMaybe", "3146": "ulous", "3147": "pay", "3148": "ENT", "3149": "stuck", "3150": "lift", "3151": "Lee", "3152": "Long", "3153": "zoom", "3154": "jured", "3155": "attacked", "3156": "satis", "3157": "spotted", "3158": "showing", "3159": "irrit", "3160": "seems", "3161": "quickly,", "3162": "here,\u201d", "3163": "fit", "3164": "witches", "3165": "human", "3166": "\u201cThey\u2019re", "3167": "quarter", "3168": "Scabb", "3169": "Scabbers", "3170": "echoed", "3171": "ident", "3172": "laughing", "3173": "threat", "3174": "goal", "3175": "Ginny.", "3176": "appre", "3177": "Grey", "3178": "Xen", "3179": "aling", "3180": "sounding", "3181": "gasp", "3182": "ucked", "3183": "kin", "3184": "itor", "3185": "\u201cGo", "3186": "velo", "3187": "tled", "3188": "\u201cthat", "3189": "you!\u201d", "3190": "Wor", "3191": "ordin", "3192": "lda", "3193": "lliant", "3194": "Galle", "3195": "added,", "3196": "Granger", "3197": "goblet", "3198": "save", "3199": "falling", "3200": "otion", "3201": "occas", "3202": "Mundungus", "3203": "owls", "3204": "Was", "3205": "comfor", "3206": "lou", "3207": "photogra", "3208": "grabbed", "3209": "left,", "3210": "school,", "3211": "\u201cYour", "3212": "hall,", "3213": "ell", "3214": "),", "3215": "ighed", "3216": "shouted,", "3217": "ry,", "3218": "fil", "3219": "ongue", "3220": "right.", "3221": "quietly,", "3222": "loudly,", "3223": "stal", "3224": "wed", "3225": "breathe", "3226": "stairs.", "3227": "pitch", "3228": "\u201cOkay", "3229": "pen", "3230": "uding", "3231": "entire", "3232": "Diggory", "3233": "band", "3234": "office,", "3235": "ary,", "3236": "together,", "3237": "upstairs", "3238": "ment.", "3239": "boy,", "3240": "curious", "3241": "oney", "3242": "Vernon,", "3243": "shouldn\u2019t", "3244": "Spr", "3245": "scared", "3246": "cellent", "3247": "Potter.", "3248": "-M", "3249": "carri", "3250": "fresh", "3251": "conne", "3252": "highly", "3253": "murder", "3254": "loudly.", "3255": "ls", "3256": "twelve", "3257": "mus", "3258": "whispered,", "3259": "asking", "3260": "inging", "3261": "locked", "3262": "worst", "3263": "waited", "3264": "waved", "3265": "count", "3266": "wooden", "3267": "happened.", "3268": "That\u2019s", "3269": "quire", "3270": "leading", "3271": "\u201cBecause", "3272": "upward", "3273": "\u201cLet\u2019s", "3274": "block", "3275": "not,", "3276": "page", "3277": "Mark", "3278": "Xenop", "3279": "Xenophi", "3280": "clothe", "3281": "recei", "3282": "small,", "3283": "carried", "3284": "ibly", "3285": "pause", "3286": "fra", "3287": "indeed", "3288": "ased", "3289": "year.", "3290": "refle", "3291": "e.", "3292": "immediately", "3293": "pure", "3294": "ically.", "3295": "consc", "3296": "ceed", "3297": "sir,", "3298": "bird", "3299": "guess", "3300": "fam", "3301": "horror", "3302": "cool", "3303": "writing", "3304": "pose", "3305": "they\u2019ll", "3306": "rough", "3307": "passing", "3308": "TO", "3309": "list", "3310": "forward,", "3311": "counter", "3312": "color", "3313": "fighting", "3314": "\u201cyou", "3315": "definitely", "3316": "Longbottom", "3317": "admit", "3318": "perform", "3319": "pretty", "3320": "Del", "3321": "before,", "3322": "here?\u201d", "3323": "he\u2019ll", "3324": "Nearly", "3325": "and-", "3326": "dam", "3327": "instant", "3328": "quietly", "3329": "track", "3330": "helped", "3331": "worked", "3332": "unpleasant", "3333": "desk.", "3334": "emerged", "3335": "disappo", "3336": "bin", "3337": "one\u2019s", "3338": "tray", "3339": "trave", "3340": "Tri", "3341": "Umbridge\u2019s", "3342": "dull", "3343": "was.", "3344": "man,", "3345": "spectac", "3346": "sweet", "3347": "les.", "3348": "swall", "3349": "size", "3350": "destro", "3351": "\u201cSh", "3352": "wake", "3353": "snat", "3354": "stairs,", "3355": "LL", "3356": "clam", "3357": "shrie", "3358": "Transfig", "3359": "\u201cListen", "3360": "compartment", "3361": "castle.", "3362": "silence.", "3363": "ini", "3364": "accid", "3365": "classroom", "3366": "oring", "3367": "patch", "3368": "eld", "3369": "Quaff", "3370": "skin", "3371": "Love", "3372": "ative", "3373": "juice", "3374": "Ph", "3375": "obviously", "3376": "da", "3377": "sideways", "3378": "him?\u201d", "3379": "Lily", "3380": "uncle", "3381": "louder", "3382": "demand", "3383": "rememb", "3384": "moment.", "3385": "slowly,", "3386": "mother\u2019s", "3387": "anno", "3388": "over,", "3389": "bowl", "3390": "bitter", "3391": "nois", "3392": "bbing", "3393": "smile.", "3394": "\u201cAh,", "3395": "\u201cAny", "3396": "ational", "3397": "pant", "3398": "platform", "3399": "dread", "3400": "ves.", "3401": "riff", "3402": "lur", "3403": "footsteps", "3404": "him!\u201d", "3405": "Triwizard", "3406": "Moody,", "3407": "son,", "3408": "today", "3409": "Dudley\u2019s", "3410": "somehow", "3411": "bab", "3412": "chair,", "3413": "belong", "3414": "fully,", "3415": "ke,", "3416": "Potter?\u201d", "3417": "haired", "3418": "castle,", "3419": "nif", "3420": "orting", "3421": "lawn", "3422": "soared", "3423": "instru", "3424": "cheek", "3425": "worried", "3426": "busy", "3427": "nodded", "3428": "written", "3429": "him.\u201d", "3430": "cial", "3431": "escape", "3432": "sighed", "3433": "gar", "3434": "clean", "3435": "ry.", "3436": "dec", "3437": "Gring", "3438": "Spell", "3439": "halt", "3440": "solid", "3441": "pound", "3442": "serv", "3443": "\u201cWhen", "3444": "ate,", "3445": "However,", "3446": "pill", "3447": "rolling", "3448": "\u201cShe\u2019s", "3449": "fellow", "3450": "Kingsley", "3451": "fact,", "3452": "blink", "3453": "mood", "3454": "Come", "3455": "ps,", "3456": "\u201cOn", "3457": "God", "3458": "als", "3459": "to,", "3460": "twenty", "3461": "hands,", "3462": "they?\u201d", "3463": "\u201cK", "3464": "window,", "3465": "lifted", "3466": "Potter!\u201d", "3467": "rog", "3468": "good,", "3469": "Fe", "3470": "Slytherins", "3471": "fered", "3472": "def", "3473": "gleaming", "3474": "comfort", "3475": "inv", "3476": "tha", "3477": "Reg", "3478": "Moody\u2019s", "3479": "ineas", "3480": "though,", "3481": "favorite", "3482": "\u201cNow", "3483": "grown", "3484": "relief", "3485": "screamed", "3486": "By", "3487": "dir", "3488": "Harry.\u201d", "3489": "Three", "3490": "wave", "3491": "kid", "3492": "parent", "3493": "wall,", "3494": "tun", "3495": "avoid", "3496": "laughter", "3497": "ate.", "3498": "eping", "3499": "rising", "3500": "lessly", "3501": "further", "3502": "Bludger", "3503": "member", "3504": "lowered", "3505": "sion", "3506": "previous", "3507": "eight", "3508": "sped", "3509": "wall.", "3510": "side,", "3511": "knowing", "3512": "ago,", "3513": "smooth", "3514": "ceiling.", "3515": "mine", "3516": "Sh", "3517": "ful.", "3518": "Your", "3519": "hall.", "3520": "deli", "3521": "amaz", "3522": "Nobody", "3523": "us\u2019", "3524": "panic", "3525": "lime", "3526": "fire.", "3527": "expell", "3528": "tied", "3529": "at,", "3530": "Transfigur", "3531": "Their", "3532": "pile", "3533": "it;", "3534": "packed", "3535": "spells", "3536": "sounds", "3537": "children", "3538": "effort", "3539": "imm", "3540": "hearing", "3541": "scene", "3542": "trac", "3543": "vid", "3544": "ik", "3545": "final", "3546": "Aber", "3547": "anywhere", "3548": "tele", "3549": "rer", "3550": "\u201cSorry", "3551": "learned", "3552": "yes,\u201d", "3553": "bedroom", "3554": "ably.", "3555": "persu", "3556": "faint", "3557": "house,", "3558": "alf", "3559": "onest", "3560": "morning,", "3561": "colate", "3562": "thought,", "3563": "bidden", "3564": "teachers", "3565": "incred", "3566": "RI", "3567": "knees", "3568": "ium", "3569": "shining", "3570": "muttering", "3571": "Headless", "3572": "contact", "3573": "Chamber", "3574": "abrupt", "3575": "conce", "3576": "sence", "3577": "arcis", "3578": "arcissa", "3579": "jam", "3580": "fas", "3581": "there?\u201d", "3582": "sob", "3583": "\u201cI\u2019d", "3584": "stream", "3585": "birthday", "3586": "hair,", "3587": "questions", "3588": "right?\u201d", "3589": "hair.", "3590": "\u2019s,", "3591": "mm", "3592": "\u201cSee", "3593": "fier", "3594": "don\u2019", "3595": "horse", "3596": "\u201cThen", "3597": "impossible", "3598": "rust", "3599": "silvery", "3600": "interested", "3601": "appla", "3602": "Mor", "3603": "shak", "3604": "del", "3605": "serious", "3606": "grand", "3607": "protection", "3608": "ife", "3609": "\u201cHere", "3610": "thus", "3611": "tense", "3612": "grave", "3613": "work,", "3614": "screaming", "3615": "thed", "3616": "ooped", "3617": "photograph", "3618": "while,", "3619": "brown", "3620": "AND", "3621": "expl", "3622": "thy", "3623": "breaking", "3624": "weight", "3625": "Mer", "3626": "red,", "3627": "terrified", "3628": "scram", "3629": "Look", "3630": "Cor", "3631": "lar", "3632": "peering", "3633": "Oc", "3634": "circ", "3635": "snarled", "3636": "Fat", "3637": "saved", "3638": "raising", "3639": "inno", "3640": "war", "3641": "compan", "3642": "appar", "3643": "prophecy", "3644": "although", "3645": "colle", "3646": "ild", "3647": "darkness.", "3648": "dozen", "3649": "frightened", "3650": "lived", "3651": "riding", "3652": "no,\u201d", "3653": "awn", "3654": "otts", "3655": "brilliant", "3656": "unic", "3657": "charm", "3658": "butter", "3659": "double", "3660": "girls", "3661": "ries", "3662": "side.", "3663": "fourth", "3664": "werewolf", "3665": "sack", "3666": "L.", "3667": "consid", "3668": "Og", "3669": "conversation", "3670": "Grim", "3671": "ensie", "3672": "Phineas", "3673": "proud", "3674": "look.", "3675": "cleared", "3676": "open,", "3677": "scrat", "3678": "kets", "3679": "wear", "3680": "appearance", "3681": "mel", "3682": "letters", "3683": "shel", "3684": "stor", "3685": "fierce", "3686": "on?\u201d", "3687": "Kee", "3688": "Keeper", "3689": "gul", "3690": "toad", "3691": "adv", "3692": "athi", "3693": "En", "3694": "inches", "3695": "familiar", "3696": "Lad", "3697": "flung", "3698": "directly", "3699": "aud", "3700": "ude", "3701": "ensive", "3702": "O.W.", "3703": "attempted", "3704": "Ari", "3705": "ppog", "3706": "ppogriff", "3707": "Aberforth", "3708": "Pensie", "3709": "ugged", "3710": "jud", "3711": "gone.", "3712": "feast", "3713": "surely", "3714": "lucky", "3715": "famous", "3716": "mind,", "3717": "sock", "3718": "Don\u2019t", "3719": "aper", "3720": "a,", "3721": "level", "3722": "blind", "3723": "flash", "3724": "spread", "3725": "jour", "3726": "arm.", "3727": "ordinary", "3728": "secur", "3729": "OW", "3730": "ination", "3731": "panted", "3732": "HE", "3733": "mouth.", "3734": "treat", "3735": "ature", "3736": "prep", "3737": "ournament", "3738": "Narcissa", "3739": "sight.", "3740": "road", "3741": ").", "3742": "easy", "3743": "lamp", "3744": "jet", "3745": "sad", "3746": "place.", "3747": "e,", "3748": "Vernon\u2019s", "3749": "company", "3750": "gasped", "3751": "burning", "3752": "mistake", "3753": "Of", "3754": "uttered", "3755": "slowly.", "3756": "triump", "3757": "dragged", "3758": "deserted", "3759": "tort", "3760": "mistak", "3761": "nze", "3762": "aim", "3763": "suppor", "3764": "O.W.L.", "3765": "surface", "3766": "impression", "3767": "gener", "3768": "Divin", "3769": "Disappar", "3770": "sharply.", "3771": "drop", "3772": "\u201cAs", "3773": "forehead", "3774": "spaper", "3775": "heavily", "3776": "RY", "3777": "Hallow", "3778": "breathing", "3779": "dan", "3780": "Corne", "3781": "athilda", "3782": "beam", "3783": "isting", "3784": "Wand", "3785": "dim", "3786": "now,\u201d", "3787": "answe", "3788": "yelled,", "3789": "bellowed", "3790": "dungeon", "3791": "still,", "3792": "Now,", "3793": "us?\u201d", "3794": "ann", "3795": "World", "3796": "\u201cRon", "3797": "\u201cMr.", "3798": "occasion", "3799": "udblood", "3800": "office.", "3801": "sour", "3802": "Slughorn,", "3803": "Prince", "3804": "woke", "3805": "chair.", "3806": "second,", "3807": "broad", "3808": "pin", "3809": "Lond", "3810": "TW", "3811": "newspaper", "3812": "warning", "3813": "rap", "3814": "write", "3815": "touched", "3816": "GH", "3817": "ded", "3818": "Something", "3819": "growled", "3820": "main", "3821": "tic", "3822": "-year", "3823": "experi", "3824": "surpris", "3825": "aut", "3826": "Ollivander", "3827": "Let", "3828": "desc", "3829": "wit", "3830": "Neville.", "3831": "believed", "3832": "everybody", "3833": "space", "3834": "Cloak,", "3835": "detention", "3836": "innocent", "3837": "he?", "3838": "indign", "3839": "Creat", "3840": "Graw", "3841": "shud", "3842": "country", "3843": "build", "3844": "everywhere", "3845": "slammed", "3846": "business", "3847": "amps", "3848": "over.", "3849": "wished", "3850": "poison", "3851": "coat", "3852": "checking", "3853": "ip", "3854": "badly", "3855": "chest.", "3856": "feather", "3857": "awk", "3858": "Tho", "3859": "-and-", "3860": "marched", "3861": "ved.", "3862": "uc", "3863": "Hall.", "3864": "glittering", "3865": "win", "3866": "ounced", "3867": "bran", "3868": "pest", "3869": "guil", "3870": "position", "3871": "Borg", "3872": "Colin", "3873": "Ogden", "3874": "diary", "3875": "anybody", "3876": "hippogriff", "3877": "harder", "3878": "Most", "3879": "awake", "3880": "gets", "3881": "Everyone", "3882": "glasse", "3883": "weeks", "3884": "thing,", "3885": "ling,", "3886": "dang", "3887": "finish", "3888": "glancing", "3889": "Room", "3890": "al,", "3891": "not,\u201d", "3892": "bust", "3893": "inside.", "3894": "cauldr", "3895": "\u201cHave", "3896": "library", "3897": "bother", "3898": "enough,", "3899": "mount", "3900": "opening", "3901": "Will", "3902": "thoughts", "3903": "fire,", "3904": "word,", "3905": "knew,", "3906": "practic", "3907": "ding", "3908": "heading", "3909": "closely", "3910": "fan", "3911": "suspe", "3912": "support", "3913": "effect", "3914": "circle", "3915": "gg", "3916": "suff", "3917": "Firenze", "3918": "stir", "3919": "flame", "3920": "unity", "3921": "elves", "3922": "clum", "3923": "vague", "3924": "thusi", "3925": "-born", "3926": "lied", "3927": "A.", "3928": "Yax", "3929": "ittle", "3930": "morning.", "3931": "wife", "3932": "hundreds", "3933": "Whi", "3934": "square", "3935": "Und", "3936": "IS", "3937": "colored", "3938": "cise", "3939": "pop", "3940": "Half", "3941": "vanished.", "3942": "years,", "3943": "imagine", "3944": "priv", "3945": "ripped", "3946": "pac", "3947": "shrieked", "3948": "ively", "3949": "settled", "3950": "father\u2019s", "3951": "umb", "3952": "cy.", "3953": "delighted", "3954": "corre", "3955": "aining", "3956": "glimp", "3957": "ugly", "3958": "shriek", "3959": "therefore", "3960": "\u201cDobby", "3961": "qual", "3962": "hastily", "3963": "ly-", "3964": "butterbe", "3965": "Regul", "3966": "Moody.", "3967": "Lag", "3968": "-bye", "3969": "gazed", "3970": "sorry,", "3971": "drawn", "3972": "cold,", "3973": "answer.", "3974": "this?\u201d", "3975": "roar", "3976": "murm", "3977": "boys", "3978": "bank", "3979": "Con", "3980": "IT", "3981": "life,", "3982": "handsome", "3983": "surrounding", "3984": "beaming", "3985": "temper", "3986": "cage", "3987": "ure,", "3988": "do,\u201d", "3989": "ony", "3990": "indel", "3991": "-of", "3992": "corridor,", "3993": "\u201cHermione", "3994": "choice", "3995": "smir", "3996": "moments", "3997": "crets", "3998": "creatures", "3999": "enthusi", "4000": "Laggen", "4001": "invol", "4002": "mind.", "4003": "aky", "4004": "fting", "4005": "man\u2019s", "4006": "lights", "4007": "glance", "4008": "anxious", "4009": "Godric", "4010": "murmured", "4011": "AS", "4012": "Marge", "4013": "pretending", "4014": "Satur", "4015": "\u2019S", "4016": "brand", "4017": "zing", "4018": "trembling", "4019": "keen", "4020": "do?\u201d", "4021": "twisted", "4022": "attering", "4023": "expecting", "4024": "own.", "4025": "done,", "4026": "indic", "4027": "to.", "4028": "iful", "4029": "search", "4030": "up,\u201d", "4031": "loads", "4032": "who\u2019s", "4033": "interrup", "4034": "bul", "4035": "bathroom", "4036": "makes", "4037": "convin", "4038": "caut", "4039": "instruction", "4040": "Burrow", "4041": "Mudblood", "4042": "arily", "4043": "Im", "4044": "backed", "4045": "roo", "4046": "sens", "4047": "kis", "4048": "father,", "4049": "received", "4050": "leaning", "4051": "log", "4052": "Stone", "4053": "envelo", "4054": "gust", "4055": "ignored", "4056": "renched", "4057": "anything,", "4058": "I?\u201d", "4059": "Had", "4060": "Potter\u2019s", "4061": "ctive", "4062": "cauldron", "4063": "pick", "4064": "Fl", "4065": "did,", "4066": "ech", "4067": "eled", "4068": "\u201cNever", "4069": "tur", "4070": "prefer", "4071": "corridors", "4072": "dropping", "4073": "struggling", "4074": "objects", "4075": "t.", "4076": "wings", "4077": "it!", "4078": "recent", "4079": "gling", "4080": "members", "4081": "glow", "4082": "St.", "4083": "mean?\u201d", "4084": "Rem", "4085": "champion", "4086": "Stan", "4087": "Tonks,", "4088": "grun", "4089": "statue", "4090": "eleven", "4091": "Is", "4092": "tired", "4093": "anything.", "4094": "moan", "4095": "years.", "4096": "crum", "4097": "las", "4098": "Cour", "4099": "village", "4100": "Cornelius", "4101": "History", "4102": "Bathilda", "4103": "corner,", "4104": "examining", "4105": "leng", "4106": "wrote", "4107": "occur", "4108": "-N", "4109": "gla", "4110": "Hall,", "4111": "Sorting", "4112": "\u201cFor", "4113": "gered", "4114": "calling", "4115": "antly.", "4116": "sway", "4117": "solute", "4118": "throw", "4119": "nearby", "4120": "th,", "4121": "tone", "4122": "echoing", "4123": "caused", "4124": "Muggle-born", "4125": "attempting", "4126": "Black\u2019s", "4127": "Maxime", "4128": "urm", "4129": "urmstrang", "4130": ".A.", "4131": "McLaggen", "4132": "house.", "4133": "hoped", "4134": "report", "4135": "Hagrid,\u201d", "4136": "ils", "4137": "life.", "4138": "wrapped", "4139": "les,", "4140": "BE", "4141": "risk", "4142": "water.", "4143": "lips", "4144": "it\u2019ll", "4145": "Gringotts", "4146": "see.", "4147": "folded", "4148": "Before", "4149": "thousand", "4150": "meas", "4151": "wald", "4152": "tables", "4153": "end,", "4154": "names", "4155": "fair", "4156": "ately,", "4157": "Seek", "4158": "movement", "4159": "exist", "4160": "arse", "4161": "escaped", "4162": "ently,", "4163": "ity,", "4164": "approach", "4165": "Lupin\u2019s", "4166": "Auror", "4167": "pec", "4168": "welcome", "4169": "here.\u201d", "4170": "lose", "4171": "sir,\u201d", "4172": "laid", "4173": "she\u2019d", "4174": "careful", "4175": "laugh.", "4176": "From", "4177": "breath,", "4178": "Mon", "4179": "thunder", "4180": "go.", "4181": "flick", "4182": "decide", "4183": "blaz", "4184": "\u201cYou\u2019ll", "4185": "rub", "4186": "well,\u201d", "4187": "beaut", "4188": "look,", "4189": "striding", "4190": "blur", "4191": "indelwald", "4192": "pped.", "4193": "not.", "4194": "accident", "4195": "deeply", "4196": "ly,\u201d", "4197": "terror", "4198": "bal", "4199": "journey", "4200": "smashed", "4201": "knife", "4202": "Ginny\u2019s", "4203": "detail", "4204": "ual", "4205": "Bill,", "4206": "Durmstrang", "4207": "buy", "4208": "peered", "4209": "high-", "4210": "allow", "4211": "kicked", "4212": "nose.", "4213": "bald", "4214": "bought", "4215": "punish", "4216": "joke", "4217": "ity.", "4218": "thin\u2019", "4219": "wanting", "4220": "mess", "4221": "security", "4222": "crystal", "4223": "IR", "4224": "own,", "4225": "smoke", "4226": "higher", "4227": "left.", "4228": "pump", "4229": "ness,", "4230": "Both", "4231": "mountain", "4232": "separ", "4233": "shoulder,", "4234": "nel", "4235": "triumph", "4236": "Blood", "4237": "Charms", "4238": "fus", "4239": "continue", "4240": "distance", "4241": "\u201cNo!\u201d", "4242": "dark,", "4243": "viol", "4244": "body,", "4245": "thorough", "4246": "illumin", "4247": "\u201cSirius", "4248": "Patronus", "4249": "Require", "4250": "ues", "4251": "ratt", "4252": "frozen", "4253": "stiff", "4254": "vast", "4255": "honest", "4256": "did.", "4257": "ME", "4258": "toi", "4259": "doing,", "4260": "possibly", "4261": "failed", "4262": "vault", "4263": "cope", "4264": "slo", "4265": "grinning", "4266": "pushing", "4267": "-haired", "4268": "George\u2019s", "4269": "Sprout", "4270": "thered", "4271": "grass", "4272": "frowning", "4273": "taught", "4274": "\u201cD\u2019you", "4275": "Pig", "4276": "forward.", "4277": "enter", "4278": "stad", "4279": "stadium", "4280": "months", "4281": "lessly.", "4282": "sevent", "4283": "oy", "4284": "discovered", "4285": "two,", "4286": "\u201cHermione,", "4287": "sal", "4288": "shrugg", "4289": "ior", "4290": "Elder", "4291": "Ludo", "4292": "ov", "4293": "champions", "4294": "Nige", "4295": "Nigell", "4296": "People", "4297": "contr", "4298": "tonight,", "4299": "wet", "4300": "lip", "4301": "saying,", "4302": "firmly.", "4303": "ouldn\u2019t", "4304": "shoulders", "4305": "aston", "4306": "difference", "4307": "money", "4308": "gigantic", "4309": "hurry", "4310": "intent", "4311": "toilet", "4312": "address", "4313": "disgust", "4314": "shouted.", "4315": "missing", "4316": "st,", "4317": "cow", "4318": "scrib", "4319": "glaring", "4320": "TE", "4321": "whir", "4322": "chairs", "4323": "finding", "4324": "there,\u201d", "4325": "ances", "4326": "whistle", "4327": "coo", "4328": "curled", "4329": "ears.", "4330": "Pans", "4331": "breathed", "4332": "first,", "4333": "reng", "4334": "anymore", "4335": "battle", "4336": "summ", "4337": "erup", "4338": "hoarse", "4339": "prevent", "4340": "wis", "4341": "desk,", "4342": "Bul", "4343": "Vik", "4344": "Viktor", "4345": "Place", "4346": "mauld", "4347": "Grawp", "4348": "Morfin", "4349": "Xenophilius", "4350": "ache", "4351": "happening", "4352": "ious.", "4353": "si", "4354": "impatiently.", "4355": "here!\u201d", "4356": "scree", "4357": "groan", "4358": "anim", "4359": "first.", "4360": "collap", "4361": "sometimes", "4362": "clutched", "4363": "jus\u2019", "4364": "wizard,", "4365": "rig", "4366": "scrambled", "4367": "har", "4368": "\u201cNothing", "4369": "There\u2019s", "4370": "awkward", "4371": "\u201cEvery", "4372": "phoenix", "4373": "removed", "4374": "surrounded", "4375": "crowd.", "4376": "badge", "4377": "brave", "4378": "becoming", "4379": "unned", "4380": "produ", "4381": "staircase.", "4382": "Norris", "4383": "fought", "4384": "laughter.", "4385": "sprinted", "4386": "bub", "4387": "sending", "4388": "helping", "4389": "curtains", "4390": "y!\u201d", "4391": "discuss", "4392": "ledge", "4393": "Broom", "4394": "Master", "4395": "happened,", "4396": "think,", "4397": "Delac", "4398": "Delacour", "4399": "Luna,", "4400": "Gaunt", "4401": "case,", "4402": "upset", "4403": "cele", "4404": "beha", "4405": "crept", "4406": "something.", "4407": "ines", "4408": "distin", "4409": "them.\u201d", "4410": "numb", "4411": "mouth,", "4412": "grip", "4413": "\u201cWell,\u201d", "4414": "jac", "4415": "Figg", "4416": "times,", "4417": "school.", "4418": "ill,", "4419": "agreed", "4420": "necess", "4421": "non", "4422": "eyebrow", "4423": "Transfiguration", "4424": "hon", "4425": "\u201cHello", "4426": "excellent", "4427": "softly.", "4428": "floating", "4429": "aa", "4430": "corridor.", "4431": "sidered", "4432": "losing", "4433": "magnif", "4434": "Gryffindors", "4435": "Magic,", "4436": "stuffed", "4437": "\u201cSnape", "4438": "Crabbe,", "4439": "grounds.", "4440": "suit", "4441": "sleeve", "4442": "Quaffle", "4443": "shouting", "4444": "message", "4445": "ouching", "4446": "transform", "4447": "due", "4448": "char", "4449": "haust", "4450": "ES", "4451": "distrac", "4452": "mission", "4453": "pleasure", "4454": "conscious", "4455": "Trelawne", "4456": "Grimmauld", "4457": "Slughorn\u2019s", "4458": "Greyback", "4459": "useful", "4460": "brief", "4461": "He\u2019d", "4462": "dead.", "4463": "dashed", "4464": "afternoon", "4465": "cher", "4466": "oddly", "4467": "chuck", "4468": "them,\u201d", "4469": "stare", "4470": "Oh,", "4471": "wound", "4472": "cous", "4473": "reminded", "4474": "-to", "4475": "speak.", "4476": "publ", "4477": "burned", "4478": "rot", "4479": "straightened", "4480": "bull", "4481": "a.", "4482": "him?", "4483": "tongue", "4484": "well.", "4485": "owl,", "4486": "ants", "4487": "Cauld", "4488": "wl", "4489": "fang", "4490": "Percy,", "4491": "dear,", "4492": "\u201cRight,\u201d", "4493": "capt", "4494": "zoomed", "4495": "spun", "4496": "lower", "4497": "tedly", "4498": "party", "4499": "prepared", "4500": "cient", "4501": "obby,", "4502": "considered", "4503": "swir", "4504": "consider", "4505": "awkes", "4506": "Mun", "4507": "Mungo", "4508": "ONE", "4509": "amount", "4510": "neigh", "4511": "bear", "4512": "distur", "4513": "celebr", "4514": "bringing", "4515": "hid", "4516": "neat", "4517": "icy", "4518": "\u201cU", "4519": "vision", "4520": "Dudley,", "4521": "revol", "4522": "Saturday", "4523": "sink", "4524": "Little", "4525": "Yes,", "4526": "squeez", "4527": "whenever", "4528": "suggested", "4529": "smiling.", "4530": "Never", "4531": "course,\u201d", "4532": "Br", "4533": "AC", "4534": "one,\u201d", "4535": "ends", "4536": "excuse", "4537": "played", "4538": "unicorn", "4539": "dep", "4540": "-Who-M", "4541": "-Who-Must", "4542": "-Who-Must-", "4543": "-Who-Must-Not", "4544": "-Who-Must-Not-", "4545": "-Who-Must-Not-Be", "4546": "-Who-Must-Not-Be-N", "4547": "eating", "4548": "is.", "4549": "simple", "4550": "ered.", "4551": "steps,", "4552": "le-", "4553": "cap", "4554": "mentioned", "4555": "enty", "4556": "Filch,", "4557": "farther", "4558": "spiral", "4559": "slip", "4560": "Pansy", "4561": "pped,", "4562": "disappointed", "4563": "embar", "4564": "them;", "4565": "streng", "4566": "\u201cHi", "4567": "teaching", "4568": "Sha", "4569": "aler", "4570": "centaur", "4571": "ably,", "4572": "cabinet", "4573": "skull", "4574": "alley", "4575": "o!\u201d", "4576": "aux", "4577": "smer", "4578": "uriel", "4579": "Yaxley", "4580": "bag,", "4581": "Petunia,", "4582": "Nothing", "4583": "heel", "4584": "bowed", "4585": "hissed", "4586": "body.", "4587": "envelope", "4588": "-up", "4589": "Course", "4590": "hiss", "4591": "AL", "4592": "barri", "4593": "as,", "4594": "able,", "4595": "Diagon", "4596": "clever", "4597": "deeper", "4598": "\u201cOne", "4599": "checked", "4600": "\u201cAh", "4601": "dead,", "4602": "nodded.", "4603": "raise", "4604": "us.\u201d", "4605": "interesting", "4606": "Grindelwald", "4607": "enjoy", "4608": "ies,", "4609": "lly.", "4610": "tunnel", "4611": "applause", "4612": "Hoo", "4613": "resc", "4614": "confus", "4615": "dived", "4616": "breath.", "4617": "ish,", "4618": "ary.", "4619": "figures", "4620": "Cloak.", "4621": "planning", "4622": "Borgin", "4623": "darkness,", "4624": "evidence", "4625": "ict", "4626": "pred", "4627": "Grubb", "4628": "Grubbly-", "4629": "Grubbly-Pl", "4630": "Grubbly-Plank", "4631": "neighbor", "4632": "flood", "4633": "Godric\u2019s", "4634": "Hollow", "4635": "lace", "4636": "ker", "4637": "suddenly,", "4638": "gotten", "4639": "crash", "4640": "blow", "4641": "ches.", "4642": "explained", "4643": "filthy", "4644": "drown", "4645": "cra", "4646": "stam", "4647": "rubbish", "4648": "this,\u201d", "4649": "seconds,", "4650": "goblins", "4651": "seats", "4652": "Several", "4653": "books,", "4654": "Galleons", "4655": "idi", "4656": "horn", "4657": "clapped", "4658": "twins", "4659": "Jord", "4660": "daz", "4661": "glared", "4662": "nervously", "4663": "song", "4664": "ously", "4665": "lines", "4666": "slightly.", "4667": "jar", "4668": "\u201cLe", "4669": "flames", "4670": "including", "4671": "ates", "4672": "injured", "4673": "exhaust", "4674": "nothing,", "4675": "aband", "4676": "traveling", "4677": "causing", "4678": "occup", "4679": "Care", "4680": "thoroughly", "4681": "closing", "4682": "Black,", "4683": "Lovegood", "4684": "auxbat", "4685": "D.A.", "4686": "Muriel", "4687": "ious,", "4688": "stern", "4689": "pour", "4690": "Potter.\u201d", "4691": "so,\u201d", "4692": "agree", "4693": "gone,", "4694": "fal", "4695": "places", "4696": "now.\u201d", "4697": "Can", "4698": "pretend", "4699": "Under", "4700": "We\u2019ve", "4701": "special", "4702": "arms.", "4703": "complain", "4704": "dest", "4705": "private", "4706": "\u2019s.", "4707": "orted", "4708": "ham", "4709": "bag.", "4710": "grate", "4711": "bewild", "4712": "on.\u201d", "4713": "\u201cthe", "4714": "say.", "4715": "muttered.", "4716": "alone,", "4717": "yeah,", "4718": "words.", "4719": "goes", "4720": "Ber", "4721": "saw,", "4722": "ear.", "4723": "arm,", "4724": "offered", "4725": "Hooch", "4726": "themsel", "4727": "fifth", "4728": "obvious", "4729": "dying", "4730": "spoken", "4731": "mill", "4732": "fied", "4733": "embarr", "4734": "Alic", "4735": "Alicia", "4736": "nothing.", "4737": "book,", "4738": "we?\u201d", "4739": "incre", "4740": "Smi", "4741": "sem", "4742": "ities", "4743": "action", "4744": "gress", "4745": "Mac", "4746": "artic", "4747": "bogg", "4748": "seventeen", "4749": "opport", "4750": "habit", "4751": "Beauxbat", "4752": "Imperi", "4753": "Doge", "4754": "thestr", "4755": "Horcruxes", "4756": "else.", "4757": "weather", "4758": "s?", "4759": "swell", "4760": "last.", "4761": "staying", "4762": "muffled", "4763": "wore", "4764": "Vernon.", "4765": "cel", "4766": "Lord,", "4767": "crowded", "4768": "Ca", "4769": "dod", "4770": "rubbing", "4771": "You\u2019re", "4772": "like,", "4773": "tran", "4774": "UN", "4775": "bert", "4776": "aloud", "4777": "study", "4778": "handing", "4779": "length", "4780": "coldly.", "4781": "is,\u201d", "4782": "warned", "4783": "cken", "4784": "portraits", "4785": "changing", "4786": "speech", "4787": "spill", "4788": "massive", "4789": "furiously.", "4790": "seventh", "4791": "mak", "4792": "embarrass", "4793": "insid", "4794": "silence,", "4795": "motion", "4796": "ship", "4797": "depart", "4798": "\u201cAr", "4799": "lly,", "4800": "ky", "4801": "water,", "4802": "below.", "4803": "decis", "4804": "till", "4805": "Y-", "4806": "gaze", "4807": "Fawkes", "4808": "Peter", "4809": "Fudge.", "4810": "boggart", "4811": "myster", "4812": "good-bye", "4813": "dressed", "4814": "nervously.", "4815": "persuade", "4816": "choo", "4817": "McGonagall\u2019s", "4818": "forever", "4819": "kitchen.", "4820": "Fin", "4821": "wrist", "4822": "leap", "4823": "swallowed", "4824": "alone.", "4825": "rapid", "4826": "apo", "4827": "High", "4828": "gloom", "4829": "steal", "4830": "Thi", "4831": "irst", "4832": "Gi", "4833": "-faced", "4834": "high,", "4835": "AG", "4836": "dancing", "4837": "expelled", "4838": "ator", "4839": "thirteen", "4840": "station", "4841": "eyebrows", "4842": "brisk", "4843": "kins", "4844": "od", "4845": "throat.", "4846": "-of-", "4847": "plate", "4848": "pajam", "4849": "struggled", "4850": "lap", "4851": "borrow", "4852": "zy", "4853": "too,\u201d", "4854": "Greg", "4855": "jaw", "4856": "shadows", "4857": "fet", "4858": "\u201cwe", "4859": "people,", "4860": "ified", "4861": "\u201cHarry!\u201d", "4862": "that!\u201d", "4863": "minutes,", "4864": "Hedwig\u2019s", "4865": "itude", "4866": "dev", "4867": "entirely", "4868": "ceeded", "4869": "ariet", "4870": "etr", "4871": "god", "4872": "haps,", "4873": "Pigwid", "4874": "Pigwidge", "4875": "Occlum", "4876": "teleph", "4877": "nut", "4878": "impro", "4879": "mumbled", "4880": "less.", "4881": "destroy", "4882": "Only", "4883": "screw", "4884": "zed", "4885": "dirty", "4886": "angrily,", "4887": "downstairs", "4888": "ement.", "4889": "forest,", "4890": "knocking", "4891": "intro", "4892": "introdu", "4893": "ou\u2019", "4894": "eagerly.", "4895": "ago.", "4896": "accept", "4897": "UM", "4898": "Me", "4899": "enchant", "4900": "pub", "4901": "grinned", "4902": "al.", "4903": "moun", "4904": "He-Who-Must-Not-Be-N", "4905": "arrival", "4906": "anger,", "4907": "shown", "4908": "picking", "4909": "chosen", "4910": "Tower", "4911": "pool", "4912": "ts,", "4913": "wiping", "4914": "len", "4915": "Chas", "4916": "vanced", "4917": "recognize", "4918": "convinced", "4919": "immediate", "4920": "idiot", "4921": "abbing", "4922": "Broomstick", "4923": "serp", "4924": "hens", "4925": "ustr", "4926": "Mag", "4927": "Though", "4928": "smerta", "4929": "Bart", "4930": "Crouch,", "4931": "adem", "4932": "Umbridge.", "4933": "shake", "4934": "blame", "4935": "move.", "4936": "Next", "4937": "sleeping", "4938": "Myster", "4939": "pocket.", "4940": "Out", "4941": "shape", "4942": "chief", "4943": "spoke.", "4944": "\u201cTo", "4945": "worri", "4946": "pup", "4947": "gang", "4948": "usual.", "4949": "notes", "4950": "parchment,", "4951": "argum", "4952": "wrenched", "4953": "gent", "4954": "eh?\u201d", "4955": "pper", "4956": "spoke,", "4957": "rage", "4958": "evil", "4959": "again;", "4960": "Minister,", "4961": "ooked", "4962": "\u201cDe", "4963": "Fore", "4964": "students,", "4965": "brightly", "4966": "cram", "4967": "hate", "4968": "lives", "4969": "setting", "4970": "snatched", "4971": "uddy", "4972": "much,", "4973": "nose,", "4974": "keeps", "4975": "comfortable", "4976": "\u201cPlease", "4977": "imagined", "4978": "dar", "4979": "Binn", "4980": "squeak", "4981": "gif", "4982": "ignoring", "4983": "Ron,\u201d", "4984": "doing?\u201d", "4985": "weap", "4986": "angu", "4987": "desire", "4988": "knowledge", "4989": "about?\u201d", "4990": "lung", "4991": "essay", "4992": "pitched", "4993": "Dobby,", "4994": "situ", "4995": "plenty", "4996": "hex", "4997": "weird", "4998": "remaining", "4999": "sight,", "5000": "thrust", "5001": "slightly,", "5002": "appreci", "5003": "regret", "5004": "fake", "5005": "refused", "5006": "rele", "5007": "now?\u201d", "5008": "tent,", "5009": "prison", "5010": "Divination", "5011": "orov", "5012": "orovitch", "5013": "Occlumen", "5014": "Arian", "5015": "attermo", "5016": "eyed", "5017": "daught", "5018": "rise", "5019": "\u201cis", "5020": "neath", "5021": "shaped", "5022": "blond", "5023": "father.", "5024": "nother", "5025": "compl", "5026": "suddenly.", "5027": "public", "5028": "astic", "5029": "bearing", "5030": "kitchen,", "5031": "bill", "5032": "demanded", "5033": "iry", "5034": "twin", "5035": "windows.", "5036": "easily", "5037": "CH", "5038": "ty,", "5039": "aging", "5040": "Hagrid?\u201d", "5041": "ED", "5042": "lined", "5043": "usual,", "5044": "\u201cCan\u2019t", "5045": "beautiful", "5046": "occurred", "5047": "able.", "5048": "ults", "5049": "pressing", "5050": "\u201cOr", "5051": "polite", "5052": "time,\u201d", "5053": "transp", "5054": "\u201cMe", "5055": "go!\u201d", "5056": "Herbo", "5057": "paused", "5058": "enjoying", "5059": "Thomas", "5060": "handle", "5061": "natur", "5062": "shield", "5063": "bol", "5064": "ading", "5065": "well-", "5066": "heal", "5067": "\u201cSir", "5068": "tori", "5069": "sched", "5070": "on!\u201d", "5071": "wonderful", "5072": "landing", "5073": "hic", "5074": "uci", "5075": "contents", "5076": "shudder", "5077": "super", "5078": "murdered", "5079": "accord", "5080": "ient", "5081": "hoenix", "5082": "memories", "5083": "source", "5084": "ilisk", "5085": "Horn", "5086": "carriage", "5087": "\u2019?\u201d", "5088": ".E", "5089": "Beauxbatons", "5090": "Regulus", "5091": "Cattermo", "5092": "happily", "5093": "behavi", "5094": "oning", "5095": "prick", "5096": "They\u2019re", "5097": "oh,", "5098": "watch.", "5099": "orange", "5100": "sixteen", "5101": "tapped", "5102": "asted", "5103": "evening,", "5104": "Oh", "5105": "shin", "5106": "stayed", "5107": "whipped", "5108": "ores", "5109": "annoy", "5110": "parchment.", "5111": "else,", "5112": "dunno", "5113": "respect", "5114": "needs", "5115": "born", "5116": "\u201cGot", "5117": "Harry?", "5118": "buried", "5119": "liver", "5120": "ine,", "5121": "foolish", "5122": "\u201cRon,", "5123": "Weasleys", "5124": "You-Know-Who\u2019s", "5125": "Scab", "5126": "lake,", "5127": "icent", "5128": "argu", "5129": "achi", "5130": "arkins", "5131": "class.", "5132": "exchanged", "5133": "eye,", "5134": "sprang", "5135": "whim", "5136": "tower", "5137": "me!", "5138": "protect", "5139": "Good", "5140": "blast", "5141": "thing.", "5142": "pillow", "5143": "proof", "5144": "staggered", "5145": "so.", "5146": "hedge", "5147": "mitted", "5148": "house-elves", "5149": "supporter", "5150": "auto", "5151": "Tra", "5152": "lia", "5153": "S.", "5154": "harm", "5155": "ben", "5156": "Creatures", "5157": "Phoenix", "5158": "resent", "5159": "Riddle\u2019s", "5160": "\u2019e", "5161": "presence", "5162": "Maraud", "5163": ".E.W.", "5164": "greatest", "5165": "Drive", "5166": "promise", "5167": "could,", "5168": "\u201cYou\u2019d", "5169": "something,", "5170": "seriously", "5171": "blan", "5172": "spider", "5173": "asing", "5174": "chocolate", "5175": "ing,\u201d", "5176": "swift", "5177": "worn", "5178": "boat", "5179": "swear", "5180": "\u201cWho\u2019s", "5181": "OUT", "5182": "squeaked", "5183": "\u201cYeh", "5184": "abou\u2019", "5185": "WI", "5186": "dragons", "5187": "cared", "5188": "treas", "5189": "twenty-", "5190": "anyway,", "5191": "Fla", "5192": "end.", "5193": "must\u2019ve", "5194": "cough", "5195": "laughed.", "5196": "hem", "5197": "Here", "5198": "threatening", "5199": "cure", "5200": "forest.", "5201": "lier", "5202": "poster", "5203": "eep", "5204": "pounding", "5205": "rush", "5206": "clue", "5207": "We\u2019ll", "5208": "-to-", "5209": "Lady", "5210": "ugging", "5211": "tears.", "5212": "eye.", "5213": "words,", "5214": "book.", "5215": "others.", "5216": "state", "5217": "soaring", "5218": "\u201cMaster", "5219": "meaning", "5220": "height", "5221": "Cl", "5222": "accompan", "5223": "circular", "5224": "comes", "5225": "purs", "5226": "agog", "5227": "correct", "5228": "Marauder\u2019s", "5229": "Map", "5230": "perhaps,", "5231": "skrew", "5232": "much.", "5233": "clothes", "5234": "acting", "5235": "lk", "5236": "bout", "5237": "heavi", "5238": "jacket", "5239": "nodding", "5240": "hated", "5241": "grin", "5242": "\u2019T", "5243": "const", "5244": "word.", "5245": "We\u2019re", "5246": "fingers.", "5247": "wildly", "5248": "Anyway,", "5249": "clen", "5250": "parents,", "5251": "though,\u201d", "5252": "sure,", "5253": "them?\u201d", "5254": "Percy\u2019s", "5255": "either.", "5256": "out,\u201d", "5257": "Hat", "5258": "Justin", "5259": "range", "5260": "Parkins", "5261": "unched", "5262": "loho", "5263": "stolen", "5264": "forcing", "5265": "uttering", "5266": "You\u2019ve", "5267": "steps.", "5268": "hesitated,", "5269": "ptain", "5270": "spinning", "5271": "happily.", "5272": "replaced", "5273": "conv", "5274": "solutely", "5275": "Forbidden", "5276": "survi", "5277": "bench", "5278": "grinning.", "5279": "antly", "5280": "var", "5281": "immense", "5282": "evidently", "5283": "Aragog", "5284": "Trelawney,", "5285": "frag", "5286": "TWENT", "5287": "Imperius", "5288": "Gregorovitch", "5289": "Nigellus", "5290": "be.", "5291": "jerked", "5292": "sill", "5293": "sticking", "5294": "powers", "5295": "baby", "5296": "work.", "5297": "crying", "5298": "hitting", "5299": "\u201cOh,\u201d", "5300": "\u201cWhere\u2019s", "5301": "tro", "5302": "waist", "5303": "susp", "5304": "quid", "5305": "Miner", "5306": "Minerva", "5307": "upside", "5308": "corner.", "5309": "gargo", "5310": "gargoy", "5311": "See", "5312": "IC", "5313": "magic,", "5314": "glo", "5315": "Ad", "5316": "neck.", "5317": "servant", "5318": "dear,\u201d", "5319": "ingred", "5320": "cushi", "5321": "dusty", "5322": "King", "5323": "Magic.", "5324": "No,", "5325": "tore", "5326": "sky.", "5327": "sneak", "5328": "properly", "5329": "come,", "5330": "teacher,", "5331": "sweeping", "5332": "thud", "5333": "Severus", "5334": "Beat", "5335": "Neither", "5336": "overheard", "5337": "signed", "5338": "rawled", "5339": "itted", "5340": "ness.", "5341": "appearing", "5342": "umping", "5343": "Moaning", "5344": "heaved", "5345": "defense", "5346": "larger", "5347": "faith", "5348": "stopping", "5349": "ait", "5350": "Harry!", "5351": "ies.", "5352": "continued,", "5353": "enchanted", "5354": "Secrets", "5355": "uries", "5356": "catching", "5357": "okay,", "5358": "temp", "5359": "Wormtail,", "5360": "cott", "5361": "Rosmerta", "5362": "quis", "5363": "Port", "5364": "diadem", "5365": "hus", "5366": "strangely", "5367": "whispering", "5368": "\u201cWhy?\u201d", "5369": "old,", "5370": "\u201cOnly", "5371": "vive", "5372": "underneath", "5373": "ginger", "5374": "bike", "5375": "bree", "5376": "dy", "5377": "wink", "5378": "deaf", "5379": "safely", "5380": "cep", "5381": "cracked", "5382": "oke", "5383": "mother,", "5384": "Someone", "5385": "faces.", "5386": "knot", "5387": "point,", "5388": "liquid", "5389": "parents\u2019", "5390": "frog", "5391": "limey,", "5392": "beating", "5393": "ure.", "5394": "speed", "5395": "Nimb", "5396": "plung", "5397": "curses", "5398": "an.", "5399": "yet,", "5400": "powder", "5401": "man.", "5402": "\u201cWhi", "5403": "paid", "5404": "three-", "5405": "there.\u201d", "5406": "up!\u201d", "5407": "younger", "5408": "pumpkin", "5409": "hill", "5410": "oak", "5411": "midair", "5412": "Zab", "5413": "Zabini", "5414": "ato", "5415": "Sir", "5416": "armchair", "5417": "interrupted", "5418": "hard,", "5419": "excitement", "5420": "duel", "5421": "right?", "5422": "beck", "5423": "decor", "5424": "foul", "5425": "fury", "5426": "lax", "5427": "Dean,", "5428": "froze", "5429": "suspected", "5430": "outstretched", "5431": "all.\u201d", "5432": "lix", "5433": "erupted", "5434": "leaves", "5435": "frighten", "5436": "omin", "5437": "ule", "5438": "uct", "5439": "horrifi", "5440": "osit", "5441": "brac", "5442": "slit", "5443": "precise", "5444": "tless", "5445": "sou", "5446": "\u201cSo,", "5447": "Lockhart\u2019s", "5448": "Gilder", "5449": "unken", "5450": "retreat", "5451": "issu", "5452": "accompanied", "5453": "reeve", "5454": "belief", "5455": "emerging", "5456": "success", "5457": "scan", "5458": "Still", "5459": "male", "5460": "plans", "5461": "wardrobe", "5462": "clip", "5463": "Trelawney\u2019s", "5464": "interview", "5465": "Bertha", "5466": "connection", "5467": "Crouch.", "5468": "Eaters,", "5469": "older", "5470": "shoo", "5471": "Dursleys\u2019", "5472": "asper", "5473": "gasped.", "5474": "\u201cAt", "5475": "cam", "5476": "bits", "5477": "wishing", "5478": "forehead.", "5479": "trembl", "5480": "faster", "5481": "purpose", "5482": "fail", "5483": "damp", "5484": "toast", "5485": "angled", "5486": "wiped", "5487": "barked", "5488": "boom", "5489": "Intern", "5490": "International", "5491": "please,", "5492": "ah", "5493": "ving,", "5494": "clenched", "5495": "could\u2019ve", "5496": "\u201c\u2019Course", "5497": "panting", "5498": "record", "5499": "thought.", "5500": "lling", "5501": "wide,", "5502": "nostri", "5503": "pled", "5504": "\u201cMum", "5505": "crowd,", "5506": "again.\u201d", "5507": "teeth.", "5508": "called,", "5509": "four-", "5510": "center", "5511": "\u201cMad", "5512": "reveal", "5513": "ued", "5514": "plant", "5515": "late,", "5516": "\u201cQu", "5517": "Captain", "5518": "Hermione,\u201d", "5519": "dra", "5520": "grind", "5521": "torn", "5522": "insides", "5523": "ancient", "5524": "llen", "5525": "tim", "5526": "centaurs", "5527": "dance", "5528": "\u201cLook,", "5529": "sir.", "5530": "unfortun", "5531": "sentence", "5532": "grounds,", "5533": "listened", "5534": "permission", "5535": "PE", "5536": "Creeve", "5537": "lyjuice", "5538": "orph", "5539": "righ", "5540": "dreadful", "5541": "Shack", "5542": "tournament", "5543": "Krum,", "5544": "Cedric\u2019s", "5545": "Mungo\u2019s", "5546": "ibbl", "5547": "Luna.", "5548": "fashi", "5549": "people.", "5550": "behavior", "5551": "sinking", "5552": "horrib", "5553": "pier", "5554": "handker", "5555": "handkerchief", "5556": "fut", "5557": "motor", "5558": "lamps", "5559": "woken", "5560": "pictures", "5561": "bore", "5562": "keeper", "5563": "mail", "5564": "dangling", "5565": "ignore", "5566": "inned", "5567": "walls,", "5568": "marks", "5569": "FOR", "5570": "store", "5571": "Owl", "5572": "\u201cLike", "5573": "More", "5574": "What\u2019s", "5575": "He-Who-Must-Not-Be-Named", "5576": "ages,", "5577": "bite", "5578": "\u201cShut", "5579": "athered", "5580": "disappear", "5581": "rounded", "5582": "\u201cHarry,\u201d", "5583": "beamed", "5584": "ope", "5585": "innig", "5586": "Whe", "5587": "sliding", "5588": "dragging", "5589": "cack", "5590": "waste", "5591": "pou", "5592": "ory,", "5593": "ucking", "5594": "bubble", "5595": "girls\u2019", "5596": "idea,\u201d", "5597": "conjured", "5598": "uffy", "5599": "anymore.", "5600": "TEEN", "5601": "chose", "5602": "fingers,", "5603": "dut", "5604": "hero", "5605": "betray", "5606": "O!\u201d", "5607": "resh", "5608": "fifteen", "5609": "nest", "5610": "swinging", "5611": "Ministry,", "5612": "basin", "5613": "concealed", "5614": "casting", "5615": "sensation", "5616": "gging", "5617": "bedside", "5618": "disgu", "5619": "yeah,\u201d", "5620": "symp", "5621": "confid", "5622": "basilisk", "5623": "Fudge\u2019s", "5624": "lack", "5625": "respond", "5626": "Quibbl", "5627": "Ariana", "5628": "HO", "5629": "mustache", "5630": "pretended", "5631": "ooping", "5632": "telephone", "5633": "normally", "5634": "yester", "5635": "name,", "5636": "cloak,", "5637": "ties", "5638": "heads.", "5639": "fond", "5640": "calmly.", "5641": "Yet", "5642": "bark", "5643": "direction.", "5644": "screwed", "5645": "tap", "5646": "beet", "5647": "died.", "5648": "metal", "5649": "rude", "5650": "squeezed", "5651": "ways,", "5652": "uit", "5653": "iron", "5654": "sea", "5655": "veled", "5656": "lump", "5657": "Maybe", "5658": "OUR", "5659": "sir!\u201d", "5660": "noise,", "5661": "poc", "5662": "Please", "5663": "happened?\u201d", "5664": "defe", "5665": "positively", "5666": "eyebrows.", "5667": "that.\u201d", "5668": "\u201cHagrid", "5669": "twitch", "5670": "Alley", "5671": "stack", "5672": "fork", "5673": "what,", "5674": "ths", "5675": "reflected", "5676": "subst", "5677": "SI", "5678": "steam", "5679": "arms,", "5680": "help,", "5681": "surprise.", "5682": "sixth", "5683": "uses", "5684": "er,\u201d", "5685": "\u201cReally", "5686": "delic", "5687": "Finnig", "5688": "tart", "5689": "filling", "5690": "singing", "5691": "finished,", "5692": "IGH", "5693": "softly,", "5694": "spat", "5695": "painting", "5696": "death,", "5697": "class,", "5698": "perched", "5699": "comment", "5700": "searching", "5701": "feeble", "5702": "rope", "5703": "illeg", "5704": "Hermione?\u201d", "5705": "absent", "5706": "high-pitched", "5707": "grat", "5708": "died,", "5709": "Com", "5710": "retri", "5711": "reass", "5712": "sul", "5713": "mal", "5714": "frame", "5715": "monster", "5716": "pite", "5717": "dressing", "5718": "trace", "5719": "imit", "5720": "opportunity", "5721": "butterbeer", "5722": "ela", "5723": "Cruci", "5724": "\u201cKreacher", "5725": "opin", "5726": "-green", "5727": "While", "5728": "silently", "5729": "boo", "5730": "clicked", "5731": "exasper", "5732": "examined", "5733": "leather", "5734": "luck,", "5735": "-colored", "5736": "thick,", "5737": "Slow", "5738": "surprise,", "5739": "training", "5740": "\u201cTake", "5741": "wheez", "5742": "Sure", "5743": "sau", "5744": "pudd", "5745": "gulp", "5746": "Dear", "5747": "works", "5748": "faded", "5749": "\u201cGive", "5750": "Have", "5751": "manage", "5752": "cin", "5753": "-hand", "5754": "Nimbus", "5755": "doors,", "5756": "maz", "5757": "rattling", "5758": "extraordinary", "5759": "stool", "5760": "\u201cHagrid,", "5761": "gloo", "5762": "sym", "5763": "talked", "5764": "Ac", "5765": "really,", "5766": "though.", "5767": "they?", "5768": "relieved", "5769": "Goyle,", "5770": "upper", "5771": "agged", "5772": "classes", "5773": "loy", "5774": "Off", "5775": "armor", "5776": "velvet", "5777": "pouring", "5778": "ripp", "5779": "for?\u201d", "5780": "twig", "5781": "board.", "5782": "way,\u201d", "5783": "done.", "5784": "relax", "5785": "Many", "5786": "ready.", "5787": "Boy", "5788": "hooded", "5789": "ively.", "5790": "logy", "5791": "mate", "5792": "truly", "5793": "loved", "5794": "DE", "5795": "Secret", "5796": "pit", "5797": "particular", "5798": "drank", "5799": "gno", "5800": "Gilderoy", "5801": "connected", "5802": "antly,", "5803": "distracted", "5804": "hollow", "5805": "now!\u201d", "5806": "explan", "5807": "Polyjuice", "5808": "strain", "5809": "flesh", "5810": "cul", "5811": "mn", "5812": "see,\u201d", "5813": "chin", "5814": "Black.", "5815": "illuminated", "5816": "usion", "5817": "Pigwidgeon", "5818": "Wink", "5819": "veela", "5820": "Kreacher,", "5821": "Requirement", "5822": "Mariet", "5823": "Marietta", "5824": "Slughorn.", "5825": "emerald", "5826": "building", "5827": "shooting", "5828": "swooped", "5829": "thin,", "5830": "sniff", "5831": "know.\u201d", "5832": "glasses.", "5833": "London", "5834": "balls", "5835": "parcel", "5836": "remembering", "5837": "Behind", "5838": "were,", "5839": "visited", "5840": "loc", "5841": "bomb", "5842": "\u201cif", "5843": "up.\u201d", "5844": "sheet", "5845": "glee", "5846": "Sor", "5847": "flatt", "5848": "sav", "5849": "Stud", "5850": "scra", "5851": "difficul", "5852": "\u201cListen,", "5853": "Are", "5854": "know?\u201d", "5855": "flashed", "5856": "others,", "5857": "lan", "5858": "Gryffindor,", "5859": "\u201cC\u2019m", "5860": "candle", "5861": "fed", "5862": "letting", "5863": "stories", "5864": "bending", "5865": "assist", "5866": "ski", "5867": "about,", "5868": "resist", "5869": "her,\u201d", "5870": "glimpse", "5871": "Mean", "5872": "\u201cOkay,", "5873": "\u201cTell", "5874": "arian", "5875": "iest", "5876": "bi", "5877": "are,\u201d", "5878": "bottles", "5879": "unexpected", "5880": "answered", "5881": "likes", "5882": "which,", "5883": "instructions", "5884": "otherwise", "5885": "windows,", "5886": "Dobby\u2019s", "5887": "rever", "5888": "shir", "5889": "ly;", "5890": "uded", "5891": "apprehens", "5892": "resem", "5893": "\u201cOkay,\u201d", "5894": "prospect", "5895": "date", "5896": "unconscious", "5897": "ingly.", "5898": "she?\u201d", "5899": "signs", "5900": "dete", "5901": "amongst", "5902": "curt", "5903": "affe", "5904": "posed", "5905": "curi", "5906": "pecto", "5907": "spot,", "5908": "Fleur\u2019s", "5909": "Lestrange", "5910": "Occlumency", "5911": "hudd", "5912": "things,", "5913": "good.", "5914": "Instead", "5915": ".\u2019", "5916": "heaven", "5917": "jumping", "5918": "be,", "5919": "sorry,\u201d", "5920": "furiously,", "5921": "ving.", "5922": "Y!\u201d", "5923": "UR", "5924": "Didn\u2019t", "5925": "confused", "5926": "AA", "5927": "ouncing", "5928": "empty.", "5929": "War", "5930": "School", "5931": "Witch", "5932": "ones,", "5933": "silent.", "5934": "Stand", "5935": "Leaky", "5936": "Sil", "5937": "gloomi", "5938": "root", "5939": "lightning", "5940": "ches,", "5941": "ice.", "5942": "quarters", "5943": "sigh", "5944": "lessly,", "5945": "there!\u201d", "5946": "prove", "5947": "good,\u201d", "5948": "awful", "5949": "lies", "5950": "times.", "5951": "who\u2019d", "5952": "lesson,", "5953": "wherever", "5954": "push", "5955": "ceiling,", "5956": "Like", "5957": "cutting", "5958": "inside,", "5959": "puzz", "5960": "dreams", "5961": "tapest", "5962": "along,", "5963": "nde", "5964": "Bludg", "5965": "seizing", "5966": "onder", "5967": "strength", "5968": "Flin", "5969": "crouched", "5970": "sobbing", "5971": "personal", "5972": "intment", "5973": "WE", "5974": "advis", "5975": "killing", "5976": "invent", "5977": "happily,", "5978": "respons", "5979": "marked", "5980": "false", "5981": "long-", "5982": "offic", "5983": "\u201cArthur", "5984": "Lockhart,", "5985": "necklace", "5986": "\u201cbecause", "5987": "bleeding", "5988": "one-", "5989": "ence,", "5990": "Riddle,", "5991": "focus", "5992": "infl", "5993": "defensive", "5994": "concl", "5995": "Stunning", "5996": "about.", "5997": "saying.", "5998": "unusual", "5999": "name.", "6000": "Could", "6001": "Professor,", "6002": "liev", "6003": "-s", "6004": "gently", "6005": "knees,", "6006": "untie", "6007": "vac", "6008": "tank", "6009": "time.\u201d", "6010": "KE", "6011": "DO", "6012": "low,", "6013": "seen,", "6014": "croaked", "6015": "shortly.", "6016": "fireplace", "6017": "package", "6018": "eaten", "6019": "sleep.", "6020": "outside.", "6021": "shadowy", "6022": "An\u2019", "6023": "world,", "6024": "\u201cit\u2019s", "6025": "friendly", "6026": "had,", "6027": "US", "6028": "ah,", "6029": "ubby", "6030": "\u201cAl", "6031": "hurtled", "6032": "gather", "6033": "Bar", "6034": "wizard\u2019s", "6035": "gathered", "6036": "ourselves", "6037": "account", "6038": "dry", "6039": "VEN", "6040": "Percy.", "6041": "appeared,", "6042": "oubled", "6043": "circl", "6044": "dislike", "6045": "vest", "6046": "searched", "6047": "short,", "6048": "sooner", "6049": "\u201cDidn\u2019t", "6050": "excitedly.", "6051": "year,\u201d", "6052": "staircase,", "6053": "scur", "6054": ".\u2019\u201d", "6055": "slumped", "6056": "hurting", "6057": "match,", "6058": "smirk", "6059": "Ron?\u201d", "6060": "ement,", "6061": "yelled.", "6062": "current", "6063": "encour", "6064": "exams", "6065": "noises", "6066": "popular", "6067": "trees.", "6068": "deep,", "6069": "nodded,", "6070": "Hog\u2019s", "6071": "serpent", "6072": "to,\u201d", "6073": "inner", "6074": "squealed", "6075": "bru", "6076": "oted", "6077": "shortly", "6078": "Apparate", "6079": "incredulous", "6080": "I,", "6081": "did,\u201d", "6082": "would\u2019ve", "6083": "cabin.", "6084": "returning", "6085": "you!", "6086": "__", "6087": "righ\u2019", "6088": "matters", "6089": "HER", "6090": "lane", "6091": "Crookshank", "6092": "frustr", "6093": "agini", "6094": "Bulg", "6095": "Barty", "6096": "Doloho", "6097": "Dolohov", "6098": "Dol", "6099": "involved", "6100": "ctor", "6101": "mysterious", "6102": "tie", "6103": "None", "6104": "walls.", "6105": "stretch", "6106": "finally,", "6107": "seve", "6108": "severe", "6109": "distinctly", "6110": "survive", "6111": "Well", "6112": "two.", "6113": "Get", "6114": "furiously", "6115": "snig", "6116": "bored", "6117": "ward,", "6118": "glass.", "6119": "HAT", "6120": "unting", "6121": "swim", "6122": "addressed", "6123": "sneered", "6124": "shelves", "6125": "mutter", "6126": "gentle", "6127": "kindly", "6128": "anymore,", "6129": "uest", "6130": "ridic", "6131": "pain.", "6132": "DI", "6133": "miles", "6134": "go,\u201d", "6135": "Cauldron", "6136": "ence.", "6137": "gled", "6138": "arch", "6139": "ch,", "6140": "bew", "6141": "event", "6142": "hole.", "6143": "back,\u201d", "6144": "trapped", "6145": "\u201cBet", "6146": "silk", "6147": "sparks", "6148": "hard.", "6149": "she\u2019ll", "6150": "\u201cHang", "6151": "blood,", "6152": "gliding", "6153": "flight", "6154": "udged", "6155": "Flet", "6156": "uncertain", "6157": "blood.", "6158": "pajamas", "6159": "possible,", "6160": "topp", "6161": "shim", "6162": "her?\u201d", "6163": "net", "6164": "wrong,", "6165": "tips", "6166": "peace", "6167": "squinting", "6168": "trap", "6169": "disappro", "6170": "goalpost", "6171": "club", "6172": "practicing", "6173": "Its", "6174": "seen.", "6175": "\u201cJ", "6176": "possession", "6177": "reflection", "6178": "ime", "6179": "fast,", "6180": "mud", "6181": "\u201cNice", "6182": "in,\u201d", "6183": "shade", "6184": "mistaken", "6185": "victim", "6186": "forgive", "6187": "thresh", "6188": "Forest", "6189": "frowning.", "6190": "demon", "6191": "eting", "6192": "arrest", "6193": "whisper.", "6194": "cook", "6195": "wizards,", "6196": "charge", "6197": "spare", "6198": "continuing", "6199": "regular", "6200": "damage", "6201": "antid", "6202": "tentative", "6203": "accus", "6204": "various", "6205": "author", "6206": "firmly", "6207": "covering", "6208": "snake,", "6209": "T.", "6210": "Riddle.", "6211": "penetr", "6212": "prot", "6213": "pul", "6214": "Pad", "6215": "harsh", "6216": "Bagman,", "6217": "edi", "6218": "magaz", "6219": "Pensieve", "6220": "Inquis", "6221": "Zach", "6222": "Zachari", "6223": "Zacharias", "6224": "home,", "6225": "shocked", "6226": "awned", "6227": "bead", "6228": "trembled", "6229": "course.", "6230": "yourself,", "6231": "iece", "6232": "mother.", "6233": "eggs", "6234": "plates", "6235": "thirty", "6236": "ug.", "6237": "roaring", "6238": "again,\u201d", "6239": "anyway?\u201d", "6240": "\u201cWas", "6241": "passed,", "6242": "least,", "6243": "rushed", "6244": "grab", "6245": "spiders", "6246": "trip", "6247": "shelf", "6248": "books.", "6249": "arrived,", "6250": "pel", "6251": "une", "6252": "kettle", "6253": "tin\u2019", "6254": "rage.", "6255": "cart", "6256": "anyway.", "6257": "painful", "6258": "cerer", "6259": "NOT", "6260": "IM", "6261": "protective", "6262": "Thousand", "6263": "going,", "6264": "honor", "6265": "lops", "6266": "Dumbledore,\u201d", "6267": "difficulty", "6268": "twisting", "6269": "up?\u201d", "6270": "families", "6271": "gripped", "6272": "comb", "6273": "okay,\u201d", "6274": "been,", "6275": "grunt", "6276": "Frog", "6277": "Granger,", "6278": "lake.", "6279": "vy", "6280": "doorway", "6281": "dormitory,", "6282": "chicken", "6283": "bare", "6284": "Binns", "6285": "Flitwick,", "6286": "now?", "6287": "Harry;", "6288": "Patil", "6289": "branches", "6290": "Oliver", "6291": "\u201cFine", "6292": "edged", "6293": "Filch\u2019s", "6294": "elbow", "6295": "stands", "6296": "Weasleys\u2019", "6297": "stood,", "6298": "cially", "6299": "past,", "6300": "aside,", "6301": "anti", "6302": "stron", "6303": "asha", "6304": "ashamed", "6305": "loose", "6306": "alongside", "6307": "fine,\u201d", "6308": "served", "6309": "theless,", "6310": "speak,", "6311": "claim", "6312": "backward,", "6313": "know!\u201d", "6314": "eved", "6315": "rapidly", "6316": "cused", "6317": "tingu", "6318": "approaching", "6319": "released", "6320": "sphere", "6321": "progress", "6322": "leaf", "6323": "summon", "6324": "mild", "6325": "ert", "6326": "quired", "6327": "dementors,", "6328": "experien", "6329": "obsess", "6330": "Mont", "6331": "Crouch\u2019s", "6332": "giants", "6333": "thestral", "6334": "neck,", "6335": "street.", "6336": "liar", "6337": "noticing", "6338": "him!", "6339": "stars", "6340": "watched,", "6341": "Would", "6342": "These", "6343": "udging", "6344": "sir?\u201d", "6345": "great,", "6346": "sobbed", "6347": "breeze", "6348": "spend", "6349": "cousin", "6350": "hushed", "6351": "counting", "6352": "visitor", "6353": "vig", "6354": "could.", "6355": "come.", "6356": "RO", "6357": "m,", "6358": "stupid,", "6359": "friends,", "6360": "letter,", "6361": "slamming", "6362": "quiet.", "6363": "greenhouse", "6364": "pieces", "6365": "slipping", "6366": "reaching", "6367": "skidd", "6368": "armed", "6369": "ue,", "6370": "Ru", "6371": "hungry", "6372": "yeh,", "6373": "not?\u201d", "6374": "days,", "6375": "sor", "6376": "BLE", "6377": "do.\u201d", "6378": "Hogwarts,\u201d", "6379": "clambered", "6380": "barrier", "6381": "nowhere", "6382": "rules", "6383": "xture", "6384": "boxes", "6385": "furi", "6386": "wheeled", "6387": "boys\u2019", "6388": "too.\u201d", "6389": "ss,", "6390": "drifted", "6391": "tipped", "6392": "ack.", "6393": "stunned", "6394": "seat,", "6395": "Prophet,", "6396": "coolly.", "6397": "lurking", "6398": "aid", "6399": "-white", "6400": "legged", "6401": "\u201cPotter,", "6402": "accidentally", "6403": "Arts,", "6404": "pers", "6405": "later.", "6406": "team,", "6407": "turns", "6408": "Malfoy,\u201d", "6409": "dart", "6410": "anger.", "6411": "screams", "6412": "Seeker", "6413": "Wood,", "6414": "Tower.", "6415": "chest,", "6416": "bellowed,", "6417": "a!\u201d", "6418": "view.", "6419": "socks", "6420": "guilty", "6421": "bitterly.", "6422": "performed", "6423": "pocket,", "6424": "erial", "6425": "suspended", "6426": "possible.", "6427": "THIR", "6428": "easier", "6429": "grump", "6430": "help.", "6431": "Infer", "6432": "gree", "6433": "brother,", "6434": "carpet", "6435": "darted", "6436": "She\u2019s", "6437": "shoulders.", "6438": "uous", "6439": "\u201cDoes", "6440": "avoiding", "6441": "swirling", "6442": "invit", "6443": "chain", "6444": "thread", "6445": "turned,", "6446": "swer", "6447": "demonstr", "6448": "compe", "6449": "extingu", "6450": "wri", "6451": "loss", "6452": "web", "6453": "proved", "6454": "absence", "6455": "defi", "6456": "Without", "6457": "ific", "6458": "witness", "6459": "oubtedly", "6460": "Montague", "6461": "offer", "6462": "Tournament", "6463": "Nagini", "6464": "Wormtail\u2019s", "6465": "\u201cAc", "6466": "ensure", "6467": "Fleur,", "6468": "Bellatrix\u2019s", "6469": "LI", "6470": "passed.", "6471": "stumbled", "6472": "s!", "6473": "admir", "6474": "twink", "6475": "blew", "6476": "yet?\u201d", "6477": "pig", "6478": "listening.", "6479": "cried,", "6480": "frant", "6481": "relief,", "6482": "roof", "6483": "mistress", "6484": "ON\u2019T", "6485": "scratching", "6486": "sorts", "6487": "UD", "6488": "dreamed", "6489": "cake", "6490": "informed", "6491": "E!\u201d", "6492": "stole", "6493": "field,", "6494": "tonight.", "6495": "hut", "6496": "\u201cStop", "6497": "tling", "6498": "umbre", "6499": "umbrell", "6500": "ces.", "6501": "ACK", "6502": "POT", "6503": "esc", "6504": "ounce", "6505": "isc", "6506": "crammed", "6507": "Galleon", "6508": "wing.", "6509": "uffling", "6510": "\u201cWhich", "6511": "same.", "6512": "happier", "6513": "indeed,", "6514": "adding", "6515": "King\u2019s", "6516": "Cross", "6517": "laughing.", "6518": "div", "6519": "went.", "6520": "cuse", "6521": "\u201cHello,", "6522": "Bill\u2019s", "6523": "brothers", "6524": "lantern", "6525": "dot", "6526": "hat.", "6527": "chat", "6528": "ready,", "6529": "beast", "6530": "trunks", "6531": "another,", "6532": "protected", "6533": "th.", "6534": "lesson.", "6535": "thie", "6536": "dive", "6537": "decent", "6538": "this.\u201d", "6539": "lim", "6540": "gall", "6541": "nightm", "6542": "-sized", "6543": "towering", "6544": "alive,", "6545": "\u201cWill", "6546": "legs,", "6547": "feared", "6548": "\u201cSo,\u201d", "6549": "concerned", "6550": "Lo", "6551": "yawn", "6552": "trees,", "6553": "struggle", "6554": "ram", "6555": "wine", "6556": "\u201cSever", "6557": "Pomfrey,", "6558": "rad", "6559": "hello", "6560": "him:", "6561": "bones", "6562": "satisfact", "6563": "dazz", "6564": "okay?\u201d", "6565": "proceeded", "6566": "ance.", "6567": "quib", "6568": "suspicious", "6569": "satisfied", "6570": "Sk", "6571": "obsc", "6572": "sprout", "6573": "arrang", "6574": "surve", "6575": "descri", "6576": "orphan", "6577": "Sum", "6578": "weekend", "6579": "job,", "6580": "unmistak", "6581": "Dung", "6582": "formed", "6583": "ountain", "6584": "Horntail", "6585": "Mysteries", "6586": "graveyard", "6587": "Kreacher\u2019s", "6588": "Inferi", "6589": "blinked", "6590": "mouthed", "6591": "angrily", "6592": "ice,", "6593": "repor", "6594": "rumors", "6595": "\u201cHis", "6596": "steadily", "6597": "patting", "6598": "soon,", "6599": "racing", "6600": "smaller", "6601": "Auntie", "6602": "Another", "6603": "chim", "6604": "shuffled", "6605": "plainly", "6606": "hissing", "6607": "collapsed", "6608": "shaken", "6609": "glasses,", "6610": "boy!\u201d", "6611": "noise.", "6612": "smile,", "6613": "behind.", "6614": "Frid", "6615": "timid", "6616": "bags", "6617": "storm", "6618": "nearer,", "6619": "glinting", "6620": "tas", "6621": "sharply,", "6622": "exploded", "6623": "Halloween", "6624": "realizing", "6625": "aven\u2019t", "6626": "poking", "6627": "FI", "6628": "fluttered", "6629": "grunted", "6630": "pouch", "6631": "parted", "6632": "bloke", "6633": "instrum", "6634": "seek", "6635": "\u201cV", "6636": "sunlight", "6637": "too?\u201d", "6638": "Slytherin,", "6639": "ingredi", "6640": "ingredients", "6641": "mering", "6642": "misty", "6643": "legs.", "6644": "seat.", "6645": "scar.", "6646": "gog", "6647": "Chocolate", "6648": "bewitched", "6649": "lugg", "6650": "silent,", "6651": "hat,", "6652": "eagerly", "6653": "potato", "6654": "who,", "6655": "remains", "6656": "Peeves,", "6657": "zooming", "6658": "ress.", "6659": "shaking.", "6660": "ambit", "6661": "Over", "6662": "clearing", "6663": "students.", "6664": "vestig", "6665": "MI", "6666": "vibr", "6667": "face-to-", "6668": "slightest", "6669": "y?\u201d", "6670": "field.", "6671": "repeated,", "6672": "ashes", "6673": "whimper", "6674": "fetch", "6675": "version", "6676": "Joh", "6677": "John", "6678": "blocked", "6679": "murmur", "6680": "hint", "6681": "belonged", "6682": "kissing", "6683": "discussing", "6684": "anxiously.", "6685": "Cup.", "6686": "growl", "6687": "grimly.", "6688": "ahead,", "6689": "ward.", "6690": "\u201cHarry!", "6691": "squinted", "6692": "think,\u201d", "6693": "\u201cCertain", "6694": "traveled", "6695": "faithful", "6696": "Express", "6697": "chap", "6698": "ducked", "6699": "flower", "6700": "risen", "6701": "solved", "6702": "brandishing", "6703": "irk", "6704": "mental", "6705": "gripping", "6706": "attacking", "6707": "impatiently,", "6708": "ential", "6709": "instead.", "6710": "explanation", "6711": "ian", "6712": "blasted", "6713": "Macmill", "6714": "symbol", "6715": "descended", "6716": "ish.", "6717": "pages", "6718": "Ridd", "6719": "chan", "6720": "incid", "6721": "oneydu", "6722": "orders", "6723": "Law", "6724": "Azkaban.", "6725": "do!\u201d", "6726": "TWENTY-", "6727": "Minister.", "6728": "astonished", "6729": "Merope", "6730": "Xenophili", "6731": "Deathly", "6732": "blon", "6733": "blonde", "6734": "husband", "6735": "boy.", "6736": "week,", "6737": "midnight", "6738": "icke", "6739": "everyone\u2019s", "6740": "Dumbledore?\u201d", "6741": "h!\u201d", "6742": "shone", "6743": "slept", "6744": "prodd", "6745": "brass", "6746": "skinn", "6747": "today,", "6748": "ant,", "6749": "ordered", "6750": "\u201cOut", "6751": "go.\u201d", "6752": "miserable", "6753": "strained", "6754": "unknown", "6755": "family.", "6756": "holidays", "6757": "wandering", "6758": "gruff", "6759": "relat", "6760": "letter.", "6761": "quivering", "6762": "-old", "6763": "screamed,", "6764": "darkly.", "6765": "banging", "6766": "began,", "6767": "ale", "6768": "outside,", "6769": "mug", "6770": "sages", "6771": "DOR", "6772": "everything.", "6773": "Dumbledore.\u201d", "6774": "destroyed", "6775": "didn\u2019", "6776": "Run", "6777": "itting", "6778": "Book", "6779": "pipe", "6780": "tot", "6781": "snowy", "6782": "plunged", "6783": "cost", "6784": "enough.", "6785": "blinking", "6786": "savage", "6787": "mixture", "6788": "Alle", "6789": "tract", "6790": "girl,", "6791": "jerk", "6792": "is?\u201d", "6793": "share", "6794": "Dumbledore!\u201d", "6795": "chamber", "6796": "Scabber", "6797": "loom", "6798": "studying", "6799": "are.", "6800": "dwell", "6801": "anna", "6802": "\u201cMo", "6803": "Looking", "6804": "direction,", "6805": "poured", "6806": "crit", "6807": "argument", "6808": "rows", "6809": "mounted", "6810": "quiet,", "6811": "aving", "6812": "tapestry", "6813": "spite", "6814": "mping", "6815": "aying", "6816": "agging", "6817": "bursting", "6818": "\u201cDun", "6819": "breathlessly.", "6820": "\u201cHi,", "6821": "all,\u201d", "6822": "tit", "6823": "whoever", "6824": "family,", "6825": "however", "6826": "dram", "6827": "dramat", "6828": "choose", "6829": "d-", "6830": "Hang", "6831": "Norbert", "6832": "swo", "6833": "Tower,", "6834": "stomach.", "6835": "dawn", "6836": "\u201cThanks", "6837": "Draco,", "6838": "roots", "6839": "examine", "6840": "\u201cEn", "6841": "willing", "6842": "takes", "6843": "gate", "6844": "summer,", "6845": "believing", "6846": "-like", "6847": "ortal", "6848": "nod", "6849": "Errol", "6850": "Fred\u2019s", "6851": "below,", "6852": "\u201cExcellent", "6853": "vern", "6854": "Willow", "6855": "her!\u201d", "6856": "suf", "6857": "umed", "6858": "impressive", "6859": "Squib", "6860": "uncomfort", "6861": "used,", "6862": "worthy", "6863": "Parse", "6864": "Parselt", "6865": "Parseltongue", "6866": "urge", "6867": "stubb", "6868": "hastily,", "6869": "repro", "6870": "gargoyle", "6871": "giggle", "6872": "outline", "6873": "trunk,", "6874": "Sne", "6875": "Ext", "6876": "article", "6877": "Honeydu", "6878": "host", "6879": "bowler", "6880": "deliber", "6881": "resum", "6882": "traitor", "6883": "Ministry.", "6884": "Jor", "6885": "Portkey", "6886": "Rob", "6887": "iffe", "6888": "cave", "6889": "Half-", "6890": "engam", "6891": "engamot", "6892": "Bellatrix,", "6893": "Felix", "6894": "sister,", "6895": "bunch", "6896": "same,", "6897": "Ted", "6898": "Brit", "6899": "twitched", "6900": "dark.", "6901": "boy\u2019s", "6902": "streaming", "6903": "Dudley.", "6904": "friend,", "6905": "spending", "6906": "crashed", "6907": "remark", "6908": "knuck", "6909": "death.", "6910": "yet.", "6911": "ives", "6912": "fli", "6913": "Tell", "6914": "mustn\u2019t", "6915": "duck", "6916": "speeding", "6917": "\u201cso", "6918": "sla", "6919": "ras", "6920": "stronger", "6921": "undered", "6922": "First", "6923": "necessary", "6924": "scribbled", "6925": "idea,", "6926": "outta", "6927": "blazing", "6928": "LD", "6929": "QU", "6930": "music", "6931": "buzz", "6932": "back.\u201d", "6933": "noticed,", "6934": "Right", "6935": "fascin", "6936": "depths", "6937": "crumpled", "6938": "acted", "6939": "overhead", "6940": "\u201cThanks,\u201d", "6941": "Jordan", "6942": "sand", "6943": "akes,", "6944": "AD", "6945": "\u201cUn", "6946": "Let\u2019s", "6947": "luggage", "6948": "\u201cOoo", "6949": "FF", "6950": "steak", "6951": "hip", "6952": "arrange", "6953": "IGHT", "6954": "insisted", "6955": "worm", "6956": "stretching", "6957": "frantic", "6958": "brooms", "6959": "\u201cKeep", "6960": "then!\u201d", "6961": "defend", "6962": "slipp", "6963": "team.", "6964": "umbling", "6965": "swayed", "6966": "entered.", "6967": "evening.", "6968": "there?", "6969": "bloody", "6970": "Seamus,", "6971": "Gryffindor\u2019s", "6972": "Flint", "6973": "\u201cLeave", "6974": "desperately.", "6975": "health", "6976": "placing", "6977": "tree,", "6978": "it:", "6979": "horribly", "6980": "daring", "6981": "Herbology", "6982": "drained", "6983": "Astron", "6984": "Bane", "6985": "white-", "6986": "around;", "6987": "midst", "6988": "doing.", "6989": "unlike", "6990": "feelings", "6991": "chapter", "6992": "elf,", "6993": "shattered", "6994": "community", "6995": "official", "6996": "everything,", "6997": "convic", "6998": "ener", "6999": "HAR", "7000": "angle", "7001": "eyeing", "7002": "seize", "7003": "remove", "7004": "disbelief", "7005": "threshold", "7006": "details", "7007": "ament", "7008": "recently", "7009": "prov", "7010": "Squ", "7011": "terrified.", "7012": "laugh,", "7013": "unlikely", "7014": "-year-old", "7015": "Apparently", "7016": "guessed", "7017": "abandoned", "7018": "inctive", "7019": "Sneak", "7020": "Sneakos", "7021": "contempt", "7022": "Firebolt,", "7023": "arily.", "7024": "winged", "7025": "curiosit", "7026": "sought", "7027": "Patronum", "7028": "obey", "7029": "undoubtedly", "7030": "examination", "7031": "bodies", "7032": "N.E.W.", "7033": "N.E.W.T.", "7034": "cio", "7035": "Apparition", "7036": "Bulgarian", "7037": "flask", "7038": "atus", "7039": "eda", "7040": "Goblet", "7041": "Advanced", "7042": "Eaters.", "7043": "Wizengamot", "7044": "Smith", "7045": "Horcrux,", "7046": "Cattermole", "7047": "Hallows", "7048": "discover", "7049": "mix", "7050": "wn", "7051": "contrary,", "7052": "promised", "7053": "Drive.", "7054": "half-moon", "7055": "stif", "7056": "edal", "7057": "\u201cVoldemort", "7058": "patted", "7059": "heavily.", "7060": "swallow", "7061": "bushy", "7062": "blanket", "7063": "climbing", "7064": "-black", "7065": "ggy", "7066": "Petunia.", "7067": "worried.", "7068": "leg.", "7069": "busines", "7070": "bby", "7071": "Sep", "7072": "Septem", "7073": "uni", "7074": "Turn", "7075": "Friday", "7076": "bathroom.", "7077": "beds", "7078": "for,", "7079": "drops", "7080": "\u201cAn\u2019", "7081": "entering", "7082": "married", "7083": "cruel", "7084": "goin\u2019", "7085": "kick", "7086": "wizards.", "7087": "handful", "7088": "punct", "7089": "shame", "7090": "magic.", "7091": "advice", "7092": "excitement.", "7093": "weed", "7094": "gold,", "7095": "them:", "7096": "glowing", "7097": "closely.", "7098": "passageway", "7099": "Father", "7100": "answer,", "7101": "\u201cNothing,\u201d", "7102": "cauldron,", "7103": "brightly.", "7104": "heap", "7105": "You\u2019ll", "7106": "board,", "7107": "hairy", "7108": "crooked", "7109": "Flamel", "7110": "organ", "7111": "reckons", "7112": "Weasley,\u201d", "7113": "in?\u201d", "7114": "Goyle\u2019s", "7115": "something?\u201d", "7116": "magnificent", "7117": "think.", "7118": "arrived.", "7119": "screamed.", "7120": "floated", "7121": "ty.", "7122": "pati", "7123": "Hufflepuffs", "7124": "Longbottom,", "7125": "caretak", "7126": "odd,", "7127": "Our", "7128": "loud,", "7129": "impressed", "7130": "days.", "7131": "untid", "7132": "began.", "7133": "shimmering", "7134": "clear,", "7135": "otting", "7136": "beckoned", "7137": "gasped,", "7138": "ropes", "7139": "valu", "7140": "basket", "7141": "Engl", "7142": "move,", "7143": "chill", "7144": "matter?\u201d", "7145": "cheerful", "7146": "son.", "7147": "Snitch.", "7148": "pal", "7149": "He,", "7150": "ume", "7151": "choked", "7152": "loyal", "7153": "Astrono", "7154": "Astronomy", "7155": "\u201cThey\u2019ll", "7156": "themselves,", "7157": "closer.", "7158": "straightening", "7159": "lves", "7160": "coward", "7161": "croak", "7162": "shivering", "7163": "fish", "7164": "rigid", "7165": "right!\u201d", "7166": "\u201cRead", "7167": "safety", "7168": "bind", "7169": "swam", "7170": "blankly.", "7171": "Slytherin\u2019s", "7172": "yelling", "7173": "corners", "7174": "wizard.", "7175": "imper", "7176": "bulging", "7177": "Ron!\u201d", "7178": "skill", "7179": "\u201cHarry?\u201d", "7180": "clatter", "7181": "dock", "7182": "Floo", "7183": "dimly", "7184": "vaguely", "7185": "grace", "7186": "no!\u201d", "7187": "confident", "7188": "sides", "7189": "chand", "7190": "uced", "7191": "opened,", "7192": "reluct", "7193": "request", "7194": "labe", "7195": "daresay", "7196": "according", "7197": "automat", "7198": "owled", "7199": "arranged", "7200": "pelli", "7201": "again?\u201d", "7202": "stubborn", "7203": "extinguished", "7204": "ais", "7205": "volo", "7206": "thman", "7207": "Azkaban,", "7208": "controll", "7209": "alive.", "7210": "Magno", "7211": "Magnolia", "7212": "\u2019ave", "7213": "despite", "7214": "kneeling", "7215": "Cad", "7216": "inj", "7217": "exception", "7218": "indignantly.", "7219": "situation", "7220": "Remus", "7221": "obli", "7222": "indiffe", "7223": "Karkaroff,", "7224": "compre", "7225": "magazine", "7226": "Dolores", "7227": "icha", "7228": "ichael", "7229": "Scrimgeour,", "7230": "Half-Blood", "7231": "wrest", "7232": "kiss", "7233": "excitedly", "7234": "disturb", "7235": "sister.", "7236": "drive", "7237": "daughter", "7238": "hooting", "7239": "unny", "7240": "drifting", "7241": "street,", "7242": "tall,", "7243": "sparkling", "7244": "\u201cAfter", "7245": "long.", "7246": "bac", "7247": "fast.", "7248": "cream", "7249": "py", "7250": "mmering", "7251": "sneaking", "7252": "forbidden", "7253": "Everybody", "7254": "question.", "7255": "library,", "7256": "stuffing", "7257": "ear,", "7258": "\u201cit", "7259": "toe", "7260": "Monday", "7261": "out!\u201d", "7262": "Four", "7263": "shocked.", "7264": "read:", "7265": "craft", "7266": "VER", "7267": "beard.", "7268": "gamekeeper", "7269": "slug", "7270": "teles", "7271": "Lord,\u201d", "7272": "stones", "7273": "surprised.", "7274": "trembling.", "7275": "\u201cBlimey,", "7276": "ourish", "7277": "out.\u201d", "7278": "happens", "7279": "\u201cWould", "7280": "ss.", "7281": "arming", "7282": "poked", "7283": "Houses", "7284": "introduce", "7285": "trunk.", "7286": "confess", "7287": "history", "7288": "Cup,", "7289": "jolt", "7290": "scroll", "7291": "asy", "7292": "ION", "7293": "classe", "7294": "cauldron.", "7295": "learning", "7296": "\u201cAnyway,", "7297": "grass.", "7298": "POTTER", "7299": "cris", "7300": "mind,\u201d", "7301": "ndeed,", "7302": "Professor,\u201d", "7303": "understand,", "7304": "better,", "7305": "desperately", "7306": "pain,", "7307": "saving", "7308": "ORD", "7309": "seated", "7310": "oping", "7311": "contained", "7312": "far,", "7313": "things.", "7314": "rene", "7315": "leaping", "7316": "\u201cIt\u2019ll", "7317": "schedu", "7318": "Ire", "7319": "Ireland", "7320": "bush", "7321": "illegal", "7322": "greeted", "7323": "swollen", "7324": "fangs", "7325": "nis", "7326": "happiness", "7327": "true,", "7328": "punishment", "7329": "immediately.", "7330": "se,", "7331": "cursed", "7332": "fever", "7333": "case.", "7334": "self-", "7335": "nostrils", "7336": "assured", "7337": "cree", "7338": "grief", "7339": "face;", "7340": "ter.", "7341": "mittee", "7342": "guest", "7343": "scattered", "7344": "regard", "7345": "torted", "7346": "sole", "7347": "goble", "7348": "again!\u201d", "7349": "ominous", "7350": "rushing", "7351": "brightly,", "7352": "slide", "7353": "wreck", "7354": "absolutely", "7355": "suffered", "7356": "Angelina,", "7357": "tone,", "7358": "unted", "7359": "incant", "7360": "abruptly.", "7361": "Myrtle\u2019s", "7362": "tracted", "7363": "sele", "7364": "withdrew", "7365": "Lord\u2019s", "7366": "great-", "7367": "investig", "7368": "Ministry\u2019s", "7369": "impris", "7370": "pause,", "7371": "March", "7372": "Arithman", "7373": "utterly", "7374": "Thick", "7375": "hesitated", "7376": "calmly,", "7377": "Knight", "7378": "advant", "7379": "canv", "7380": "string", "7381": "plin", "7382": "predict", "7383": "nair", "7384": "cottage", "7385": "Summon", "7386": "ruck", "7387": "Cedric,", "7388": "court", "7389": "Parkinson", "7390": "veil", "7391": "Tonks.", "7392": "endable", "7393": "Bones", "7394": "Hep", "7395": "Carrow", "7396": "Potion-M", "7397": "elic", "7398": "zib", "7399": "four,", "7400": "concentrate", "7401": "cloaks", "7402": "cloak.", "7403": "improve", "7404": "angry.", "7405": "beard,", "7406": "spectacles", "7407": "flicke", "7408": "\u201cExactly", "7409": "tucked", "7410": "milk", "7411": "bigger", "7412": "remember,", "7413": "Dursleys.", "7414": "ented", "7415": "LEY", "7416": "sport", "7417": "ray", "7418": "accep", "7419": "oon", "7420": "skin,", "7421": "prompt", "7422": "tearing", "7423": "fruit", "7424": "skir", "7425": "fell,", "7426": "gives", "7427": "pale,", "7428": "on-", "7429": "TS", "7430": "se.", "7431": "then.", "7432": "reasons", "7433": "Hogwarts?\u201d", "7434": "require", "7435": "THER", "7436": "tiny,", "7437": "ampire", "7438": "bbled", "7439": "broomsticks", "7440": "underground", "7441": "other\u2019s", "7442": "House,", "7443": "Hufflepuff,", "7444": "one.\u201d", "7445": "umst", "7446": "wands,", "7447": "creep", "7448": "results", "7449": "Everything", "7450": "\u201cEveryone", "7451": "Hedwig,", "7452": "ugust", "7453": "ilt", "7454": "\u201cHey,", "7455": "\u201cStup", "7456": "judge", "7457": "thumb", "7458": "stained", "7459": "brains", "7460": "complic", "7461": "week.", "7462": "wand-", "7463": "down,\u201d", "7464": "moaned", "7465": "animal", "7466": "narrowly", "7467": "broom.", "7468": "afternoon,", "7469": "aver", "7470": "tily.", "7471": "streaked", "7472": "mingled", "7473": "Cle", "7474": "scowl", "7475": "fireplace,", "7476": "hole,", "7477": "bars", "7478": "panted,", "7479": "tugging", "7480": "guarding", "7481": "freed", "7482": "hour,", "7483": "run,", "7484": "winning", "7485": "cold.", "7486": "begun", "7487": "school,\u201d", "7488": "\u201cNeville", "7489": "blocking", "7490": "Imp", "7491": "dinner.", "7492": "repli", "7493": "shapes", "7494": "summer.", "7495": "insist", "7496": "shoved", "7497": "Sorcerer", "7498": "currently", "7499": "followed.", "7500": "s\u2019pose", "7501": "pity", "7502": "\u201cWe\u2019d", "7503": "humans", "7504": "potion.", "7505": "will,\u201d", "7506": "concentrating", "7507": "palm", "7508": "-shaped", "7509": "Mas", "7510": "enjoyed", "7511": "lled", "7512": "earnest", "7513": "Decree", "7514": "eration", "7515": "better.", "7516": "agg", "7517": "feat", "7518": "reappeared", "7519": "chur", "7520": "feeb", "7521": "ouet", "7522": "despair", "7523": "decision", "7524": "shrugged.", "7525": "Creevey", "7526": "develo", "7527": "menac", "7528": "potions", "7529": "thri", "7530": "polished", "7531": "abruptly", "7532": "roared,", "7533": "occasionally", "7534": "ened,", "7535": "Nick,", "7536": "rack", "7537": "shrugged", "7538": "preferred", "7539": "huddled", "7540": "pelliarm", "7541": "ners", "7542": "Shi", "7543": "hesitated.", "7544": "momentarily", "7545": "lowering", "7546": "unnatur", "7547": "attempts", "7548": "Riddles", "7549": "chart", "7550": "casual", "7551": "Minister\u2019s", "7552": "supporters", "7553": "gat", "7554": "pron", "7555": "conceal", "7556": "annoyed", "7557": "tempor", "7558": "revealed", "7559": "owners", "7560": "heat", "7561": "wedding", "7562": "hast", "7563": "maintain", "7564": "Chang", "7565": "Davi", "7566": "otes", "7567": "possibility", "7568": "eyelid", "7569": "inhabit", "7570": "invited", "7571": "brut", "7572": "Krum.", "7573": "replied", "7574": "vad", "7575": "tortured", "7576": "merpeople", "7577": "Shackle", "7578": "Shacklebolt", "7579": "Felic", "7580": "Hepzib", "7581": "Delumin", "7582": "beaded", "7583": "worrying", "7584": "hugged", "7585": "birds", "7586": "dared", "7587": "pave", "7588": "brick", "7589": "irritably.", "7590": "ched,", "7591": "future", "7592": "sir.\u201d", "7593": "cars", "7594": "kissed", "7595": "say?\u201d", "7596": "watery", "7597": "news,", "7598": "ideas", "7599": "thanks,\u201d", "7600": "click", "7601": "sharply", "7602": "shiny", "7603": "mered", "7604": "bouncing", "7605": "while.", "7606": "Potter?", "7607": "clapping", "7608": "mold", "7609": "ragged", "7610": "drowned", "7611": "fear.", "7612": "Hogwarts.\u201d", "7613": "pockets", "7614": "world.", "7615": "Merlin", "7616": "Ter", "7617": "scut", "7618": "incredible", "7619": "scared.", "7620": "fists", "7621": "battered", "7622": "question,", "7623": "Van", "7624": "grateful", "7625": "HIM", "7626": "whirled", "7627": "RON", "7628": "howling", "7629": "truth.", "7630": "tapp", "7631": "\u201cSe", "7632": "Prophet.", "7633": "ARE", "7634": "sell", "7635": "shabby", "7636": "ble.", "7637": "I?", "7638": "instantly", "7639": "plump", "7640": "Sick", "7641": "sin", "7642": "pinned", "7643": "circumst", "7644": "slimy", "7645": "neatly", "7646": "worry,", "7647": "August", "7648": "jeans", "7649": "thanks", "7650": "icol", "7651": "carefully,", "7652": "bothered", "7653": "heart,", "7654": "stood.", "7655": "award", "7656": "yourselves", "7657": "anxiously", "7658": "Hanna", "7659": "Gryffindor.", "7660": "Potter!", "7661": "treac", "7662": "funer", "7663": "vanished,", "7664": "directed", "7665": "themselves.", "7666": "toppled", "7667": "lic", "7668": "gift", "7669": "pairs", "7670": "clouds", "7671": "bounded", "7672": "broomstick.", "7673": "swaying", "7674": "laz", "7675": "unned.", "7676": "grasped", "7677": "ant.", "7678": "classroom.", "7679": "smiled.", "7680": "asleep,", "7681": "password", "7682": "way!\u201d", "7683": "flushed", "7684": "score", "7685": "yet,\u201d", "7686": "announced", "7687": "sprinting", "7688": "ET", "7689": "match.", "7690": "flashing", "7691": "ahead.", "7692": "compared", "7693": "story,", "7694": "bread", "7695": "chess", "7696": "lovely", "7697": "eer", "7698": "understand.", "7699": "carved", "7700": "touching", "7701": "Sorcerer\u2019s", "7702": "ety", "7703": "Severus,", "7704": "to?\u201d", "7705": "used.", "7706": "\u201cAh,\u201d", "7707": "crouching", "7708": "lone", "7709": "espe", "7710": "spy", "7711": "closer,", "7712": "chains", "7713": "fiercely.", "7714": "\u201che", "7715": "home.", "7716": "fourteen", "7717": "will,", "7718": "wing,", "7719": "NOW", "7720": "night,\u201d", "7721": "flames.", "7722": "repeated.", "7723": "Nevertheless,", "7724": "friends.", "7725": "washed", "7726": "\u201cOur", "7727": "squir", "7728": "\u201cGinny", "7729": "back!\u201d", "7730": "Committee", "7731": "indeed.", "7732": "retrieve", "7733": "\u201cWhat\u2019re", "7734": "flown", "7735": "paying", "7736": "uncomfortable", "7737": "series", "7738": "popping", "7739": "sar", "7740": "police", "7741": "Whomping", "7742": "venom", "7743": "ug,", "7744": "UP", "7745": "rous", "7746": "deserted.", "7747": "pure-", "7748": "ske", "7749": "\u201cShall", "7750": "tomb", "7751": "Bill.", "7752": "\u201cWait", "7753": "avoided", "7754": "strike", "7755": "nap", "7756": "enthusiastic", "7757": "Creature", "7758": "\u201cDumbledore\u2019s", "7759": "vert", "7760": "glimpsed", "7761": "ally.", "7762": "bleed", "7763": "sunken", "7764": "\u201cPerhaps", "7765": "rish", "7766": "yn", "7767": "Molly", "7768": "total", "7769": "ementor", "7770": "Animag", "7771": "awoke", "7772": "grindy", "7773": "Diggory,", "7774": "mead", "7775": "godfather", "7776": "jinxes", "7777": "intr", "7778": "Jorkins", "7779": "examin", "7780": "camps", "7781": "campsite", "7782": "fountain", "7783": "nded", "7784": "hell", "7785": "Skeeter,", "7786": "niffl", "7787": "THIRT", "7788": "Extendable", "7789": "Bellatrix.", "7790": "Horace", "7791": "onsense", "7792": "ces,", "7793": "by.", "7794": "nerve", "7795": "park", "7796": "dee", "7797": "quiver", "7798": "flicked", "7799": "clothes,", "7800": "noble", "7801": "rumbling", "7802": "tu", "7803": "curiously", "7804": "bon", "7805": "meanwhile,", "7806": "counted", "7807": "remote", "7808": "wail", "7809": "doors.", "7810": "smart", "7811": "next,", "7812": "holidays,", "7813": "hats", "7814": "breakfast.", "7815": "swimming", "7816": "UT", "7817": "s:", "7818": "yesterday", "7819": "dden", "7820": "Through", "7821": "Sun", "7822": "shut.", "7823": "tomorrow,", "7824": "chilly", "7825": "pause.", "7826": "taste", "7827": "Inside", "7828": "flickering", "7829": "Finally,", "7830": "bewildered", "7831": "swore", "7832": "blown", "7833": "worse.", "7834": "tapping", "7835": "Yeh", "7836": "black,", "7837": "Prote", "7838": "steep", "7839": "had.", "7840": "shop,", "7841": "foo", "7842": "they,", "7843": "thanks,", "7844": "tink", "7845": "indly", "7846": "Ollivander,", "7847": "Up", "7848": "pleased.", "7849": "foot.", "7850": "\u201cPo", "7851": "talking,", "7852": "collect", "7853": "boss", "7854": "cliff", "7855": "down!\u201d", "7856": "transparent", "7857": "candles", "7858": "tables,", "7859": "weakly.", "7860": "bounced", "7861": "laughed,", "7862": "ch.", "7863": "zo", "7864": "might\u2019ve", "7865": "earlier", "7866": "players", "7867": "tells", "7868": "darting", "7869": "whoo", "7870": "me?", "7871": "hours,", "7872": "knob", "7873": "valuable", "7874": "alous", "7875": "straining", "7876": "fluttering", "7877": "io", "7878": "advan", "7879": "heart.", "7880": "trouble.", "7881": "painted", "7882": "serve", "7883": "Weasleys,", "7884": "still.", "7885": "to.\u201d", "7886": "tree.", "7887": "flatly.", "7888": "tens", "7889": "material", "7890": "midair,", "7891": "langu", "7892": "ringing", "7893": "cheering", "7894": "remember?\u201d", "7895": "admi", "7896": "ulted", "7897": "resign", "7898": "ution", "7899": "secrets", "7900": "pearly", "7901": "have,", "7902": "landing,", "7903": "men,", "7904": "ades", "7905": "spreading", "7906": "WILL", "7907": "offering", "7908": "face-to-face", "7909": "minded", "7910": "been.", "7911": "turned.", "7912": "underage", "7913": "permitted", "7914": "lopsided", "7915": "fancy", "7916": "anking", "7917": "ach,", "7918": "mask", "7919": "thief", "7920": "devoted", "7921": "pride", "7922": "resembled", "7923": "ANG", "7924": "Dean.", "7925": "HARRY", "7926": "secure", "7927": "\u201cWeas", "7928": "m.", "7929": "supported", "7930": "meth", "7931": "ghostly", "7932": "widen", "7933": "master,", "7934": "corridors,", "7935": "three,", "7936": "ustered", "7937": "mirac", "7938": "ile", "7939": "attitude", "7940": "holidays.", "7941": "strew", "7942": "shrugging.", "7943": "Heads", "7944": "weapon", "7945": "foot,", "7946": "deny", "7947": "uncontroll", "7948": "educ", "7949": "Because", "7950": "serene", "7951": "pausing", "7952": "represent", "7953": "hose", "7954": "Honeydukes", "7955": "apprehensive", "7956": "advantage", "7957": "Sy", "7958": "natural", "7959": "not!\u201d", "7960": "Yea", "7961": "\u2014\u2014", "7962": "creaked", "7963": "\u201cExpecto", "7964": "memory,", "7965": "Cho,", "7966": "apparent", "7967": "pace", "7968": "react", "7969": "rucksack", "7970": "gates", "7971": "Irish", "7972": "Cruciatus", "7973": "vada", "7974": "Cedric.", "7975": "ookwood", "7976": "goblin,", "7977": "barm", "7978": "Michael", "7979": "shuddered", "7980": "pecu", "7981": "drove", "7982": "mirror.", "7983": "why,", "7984": "swooping", "7985": "o\u2019clock,", "7986": "ork", "7987": "whisper,", "7988": "Dedal", "7989": "ets", "7990": "He\u2019ll", "7991": "ride", "7992": "bund", "7993": "\u201cHe\u2019ll", "7994": "mante", "7995": "mantelp", "7996": "Ten", "7997": "myst", "7998": "rule", "7999": "leg,", "8000": "hopefully", "8001": "car.", "8002": "Pi", "8003": "sweater", "8004": "wrong.", "8005": "doubted", "8006": "\u201cDad", "8007": "shoes", "8008": "that\u2019ll", "8009": "FOUR", "8010": "ges,", "8011": "\u201cAbout", "8012": "heads,", "8013": "\u201cDon\u2019", "8014": "myself,", "8015": "umbrella", "8016": "Vol", "8017": "ridiculous", "8018": "venge", "8019": "Bagshot", "8020": "ew", "8021": "standard", "8022": "them?", "8023": "ford", "8024": "flaming", "8025": "ges.", "8026": "\u201cStand", "8027": "nervous.", "8028": "Those", "8029": "measure", "8030": "inspe", "8031": "\u201cExcuse", "8032": "trolley", "8033": "painfully", "8034": "\u201cFred", "8035": "bangs", "8036": "impressed.", "8037": "grass,", "8038": "river", "8039": "parents.", "8040": "moment\u2019s", "8041": "Hannah", "8042": "cheers", "8043": "teams", "8044": "ga", "8045": "dinner,", "8046": "Quirrell\u2019s", "8047": "YOUR", "8048": "vil", "8049": "circling", "8050": "quills", "8051": "critic", "8052": "spilled", "8053": "widely", "8054": "all!\u201d", "8055": "snatching", "8056": "minutes.", "8057": "clang", "8058": "Professor?\u201d", "8059": "phy", "8060": "something.\u201d", "8061": "Indeed,", "8062": "reward", "8063": "Bludgers", "8064": "\u201cPre", "8065": "tack", "8066": "her.\u201d", "8067": "knees.", "8068": "something,\u201d", "8069": "have,\u201d", "8070": "yelp", "8071": "Rest", "8072": "hour.", "8073": "deepest", "8074": "\u201cRon!\u201d", "8075": "shed", "8076": "enem", "8077": "thoughtfully.", "8078": "feed", "8079": "runn", "8080": "soo", "8081": "creeping", "8082": "heard,", "8083": "hoisted", "8084": "\u201cPro", "8085": "Second", "8086": "deadly", "8087": "precisely", "8088": "four-poster", "8089": "survived", "8090": "cage.", "8091": "equal", "8092": "warning,", "8093": "You-Know-Who,", "8094": "plum", "8095": "disturbed", "8096": "tiv", "8097": "gnome", "8098": "travel", "8099": "tily", "8100": "O.W.L.s", "8101": "blurred", "8102": "derer", "8103": "out?\u201d", "8104": "stock", "8105": "thundering", "8106": "apart.", "8107": "skidded", "8108": "houet", "8109": "hovering", "8110": "nature", "8111": "biz", "8112": "bizar", "8113": "bizarre", "8114": "chande", "8115": "am,", "8116": "incredulously.", "8117": "result", "8118": "care.", "8119": "Squad", "8120": "scanned", "8121": "insane", "8122": "night.\u201d", "8123": "rewd", "8124": "realiz", "8125": "prof", "8126": "white,", "8127": "duty", "8128": "separate", "8129": "thinking.", "8130": "seriously.", "8131": "strewn", "8132": "raised.", "8133": "chunk", "8134": "dig", "8135": "scream.", "8136": "greater", "8137": "Sneakoscope", "8138": "whereabout", "8139": "malic", "8140": "Cadog", "8141": "grindylow", "8142": "capable", "8143": "betrayed", "8144": "was,\u201d", "8145": "arrog", "8146": "ecut", "8147": "\u2018the", "8148": "istered", "8149": "ability", "8150": "Krum\u2019s", "8151": "Amo", "8152": "mni", "8153": "mnioc", "8154": "soci", "8155": "period", "8156": "illing", "8157": "breed", "8158": "Maxime,", "8159": "experienced", "8160": "crecy", "8161": "Eater,", "8162": "little,", "8163": "Shield", "8164": "Mundungus,", "8165": "Luna\u2019s", "8166": "awl", "8167": "Scrimgeour.", "8168": "Chosen", "8169": "Thicknes", "8170": "Drive,", "8171": "wheel", "8172": "\u201cSorry,\u201d", "8173": "spot.", "8174": "imagining", "8175": "Britain", "8176": "tea.", "8177": "buck", "8178": "flickered", "8179": "coldly,", "8180": "piercing", "8181": "glum", "8182": "spectacles.", "8183": "asleep.", "8184": "mantelpiece", "8185": "television", "8186": "presents", "8187": "then.\u201d", "8188": "frantically", "8189": "anything,\u201d", "8190": "glass,", "8191": "<MASK>"}, "merges": [[56, 53], [57, 62], [68, 85], [66, 53], [49, 62], [63, 69], [53, 52], [63, 62], [49, 66], [86, 55], [53, 66], [49, 68], [68, 63], [68, 56], [49, 67], [57, 67], [89, 52], [53, 62], [63, 66], [60, 60], [57, 52], [63, 54], [60, 53], [67, 68], [57, 68], [66, 73], [56, 49], [63, 71], [67, 49], [60, 73], [93, 110], [50, 53], [67, 53], [29, 115], [61, 53], [71, 99], [55, 56], [49, 51], [56, 100], [63, 63], [81, 67], [113, 105], [73, 90], [60, 52], [70, 53], [63, 68], [56, 57], [53, 67], [6, 83], [92, 53], [66, 57], [70, 95], [66, 63], [49, 60], [71, 53], [111, 52], [49, 55], [71, 57], [49, 104], [98, 96], [51, 56], [49, 52], [121, 68], [69, 68], [57, 66], [57, 51], [69, 62], [90, 68], [102, 68], [60, 57], [8, 83], [131, 61], [69, 64], [59, 53], [69, 66], [63, 88], [21, 83], [54, 103], [71, 56], [61, 57], [64, 53], [41, 85], [68, 95], [55, 53], [81, 68], [88, 52], [90, 128], [49, 73], [124, 59], [69, 67], [142, 98], [62, 53], [62, 52], [49, 50], [29, 53], [67, 63], [50, 60], [69, 61], [85, 66], [39, 92], [93, 52], [54, 53], [122, 59], [62, 130], [87, 66], [82, 30], [67, 8], [2, 83], [51, 63], [60, 173], [62, 112], [67, 6], [57, 92], [29, 95], [49, 86], [52, 63], [51, 53], [164, 134], [198, 202], [53, 61], [87, 73], [64, 64], [67, 56], [86, 52], [90, 177], [57, 104], [49, 61], [60, 63], [68, 53], [139, 88], [62, 63], [50, 148], [87, 61], [62, 169], [82, 44], [137, 61], [68, 91], [90, 121], [98, 94], [61, 63], [49, 88], [68, 57], [54, 220], [111, 129], [67, 85], [55, 63], [52, 53], [69, 108], [71, 85], [112, 62], [51, 59], [67, 67], [49, 59], [64, 63], [53, 68], [66, 49], [136, 73], [181, 91], [50, 187], [163, 63], [71, 172], [85, 52], [65, 69], [99, 68], [86, 97], [105, 53], [182, 242], [114, 8], [52, 105], [57, 60], [163, 96], [50, 63], [66, 105], [56, 63], [51, 171], [25, 251], [260, 160], [116, 102], [51, 49], [89, 68], [53, 72], [57, 54], [69, 52], [51, 92], [86, 59], [93, 68], [73, 6], [82, 46], [90, 66], [89, 73], [124, 52], [62, 49], [64, 60], [73, 53], [103, 68], [60, 54], [91, 6], [180, 119], [97, 63], [59, 195], [132, 67], [79, 83], [92, 55], [71, 103], [98, 100], [122, 53], [100, 68], [56, 96], [150, 53], [63, 136], [50, 73], [91, 8], [69, 60], [71, 171], [63, 64], [87, 88], [70, 102], [154, 158], [118, 6], [106, 54], [68, 94], [90, 67], [87, 149], [61, 153], [178, 152], [52, 234], [124, 61], [64, 95], [55, 66], [52, 95], [57, 147], [141, 199], [114, 6], [89, 55], [60, 49], [67, 64], [159, 62], [71, 131], [194, 91], [63, 128], [44, 53], [69, 88], [107, 73], [67, 250], [55, 130], [59, 91], [102, 52], [93, 209], [85, 146], [127, 66], [56, 101], [54, 54], [53, 64], [92, 169], [53, 60], [51, 68], [66, 311], [168, 68], [34, 66], [63, 189], [37, 66], [61, 73], [51, 89], [226, 119], [69, 104], [81, 129], [87, 62], [58, 232], [82, 22], [98, 269], [71, 185], [57, 55], [68, 321], [67, 51], [61, 160], [70, 63], [68, 66], [135, 147], [61, 64], [117, 53], [93, 59], [54, 63], [54, 160], [285, 103], [29, 141], [106, 368], [369, 257], [345, 370], [50, 107], [178, 107], [90, 147], [23, 148], [73, 132], [98, 66], [233, 62], [81, 88], [82, 40], [143, 73], [88, 96], [71, 101], [98, 222], [219, 53], [94, 6], [55, 60], [117, 280], [276, 165], [150, 59], [53, 136], [56, 112], [81, 104], [30, 68], [49, 158], [40, 390], [272, 90], [69, 117], [194, 94], [96, 53], [166, 73], [85, 88], [94, 8], [54, 290], [176, 71], [81, 52], [99, 67], [64, 88], [200, 103], [64, 68], [108, 210], [49, 149], [51, 60], [61, 50], [57, 129], [325, 99], [69, 55], [82, 35], [53, 377], [68, 107], [96, 197], [118, 8], [98, 89], [71, 63], [154, 147], [60, 91], [93, 61], [378, 222], [206, 91], [49, 54], [109, 53], [95, 67], [51, 85], [233, 88], [61, 89], [52, 338], [70, 94], [49, 64], [51, 212], [360, 293], [103, 62], [118, 125], [70, 91], [117, 204], [86, 62], [96, 56], [57, 74], [107, 68], [88, 53], [51, 107], [37, 130], [88, 146], [73, 8], [51, 66], [322, 145], [60, 287], [230, 94], [82, 36], [184, 6], [98, 375], [116, 367], [50, 66], [104, 6], [67, 97], [34, 138], [81, 61], [60, 109], [53, 241], [57, 88], [82, 41], [193, 119], [49, 170], [156, 8], [59, 94], [193, 61], [466, 366], [69, 145], [142, 104], [417, 327], [113, 73], [122, 68], [151, 314], [49, 129], [105, 52], [63, 55], [253, 218], [51, 246], [54, 49], [43, 324], [204, 279], [71, 96], [490, 491], [60, 68], [166, 88], [146, 53], [108, 66], [343, 8], [92, 114], [56, 6], [93, 94], [219, 292], [357, 91], [64, 66], [299, 102], [52, 172], [52, 100], [111, 206], [54, 66], [60, 112], [113, 71], [213, 104], [109, 6], [452, 167], [67, 165], [431, 167], [156, 6], [54, 149], [54, 68], [63, 50], [107, 236], [25, 53], [57, 53], [71, 264], [56, 208], [49, 245], [57, 135], [95, 6], [53, 301], [176, 136], [22, 177], [122, 56], [126, 6], [282, 223], [156, 389], [56, 99], [527, 174], [40, 85], [445, 91], [68, 110], [278, 93], [141, 53], [116, 525], [64, 137], [109, 145], [135, 91], [69, 336], [53, 70], [60, 248], [82, 179], [97, 128], [190, 68], [29, 486], [116, 68], [54, 60], [40, 537], [132, 6], [111, 149], [141, 150], [97, 355], [109, 8], [238, 86], [109, 67], [108, 101], [34, 86], [82, 25], [224, 308], [89, 59], [61, 478], [57, 61], [86, 53], [89, 201], [67, 91], [68, 67], [100, 56], [104, 112], [54, 349], [69, 53], [477, 73], [64, 107], [71, 49], [203, 6], [59, 406], [46, 90], [256, 52], [85, 185], [224, 108], [207, 171], [116, 263], [299, 107], [57, 306], [237, 94], [92, 201], [124, 60], [518, 108], [468, 421], [67, 109], [67, 254], [61, 496], [68, 425], [96, 68], [55, 275], [67, 111], [74, 185], [60, 94], [109, 125], [142, 604], [54, 297], [67, 61], [64, 91], [107, 519], [49, 206], [95, 8], [288, 52], [419, 63], [165, 590], [71, 270], [82, 29], [68, 138], [68, 374], [69, 235], [90, 117], [99, 330], [27, 170], [186, 494], [99, 53], [89, 67], [97, 66], [52, 132], [343, 191], [553, 617], [92, 6], [82, 376], [57, 363], [82, 34], [92, 68], [69, 50], [68, 49], [30, 467], [52, 365], [67, 326], [53, 93], [164, 147], [54, 212], [68, 102], [64, 349], [145, 94], [71, 138], [55, 107], [52, 66], [71, 153], [71, 208], [62, 315], [88, 382], [154, 53], [137, 236], [268, 68], [186, 339], [62, 68], [508, 102], [23, 53], [100, 53], [509, 636], [210, 53], [93, 168], [61, 232], [50, 91], [24, 66], [585, 73], [176, 91], [85, 125], [54, 86], [33, 157], [673, 86], [589, 399], [268, 52], [28, 53], [34, 51], [72, 68], [52, 102], [38, 69], [67, 283], [103, 168], [88, 108], [64, 148], [90, 52], [88, 122], [67, 157], [96, 91], [55, 57], [263, 119], [677, 683], [70, 100], [56, 159], [548, 664], [99, 59], [127, 6], [28, 446], [108, 53], [67, 159], [186, 239], [353, 177], [356, 62], [50, 109], [51, 273], [103, 52], [61, 86], [439, 165], [82, 33], [64, 49], [35, 695], [71, 123], [88, 71], [51, 159], [102, 201], [95, 62], [322, 107], [88, 211], [184, 8], [69, 121], [54, 208], [55, 383], [28, 92], [723, 141], [724, 143], [56, 185], [82, 166], [283, 59], [678, 725], [217, 8], [186, 71], [247, 53], [274, 223], [89, 221], [30, 62], [68, 396], [129, 67], [60, 64], [51, 91], [644, 103], [117, 68], [682, 52], [88, 61], [386, 464], [145, 594], [151, 55], [117, 676], [100, 246], [213, 170], [61, 396], [60, 665], [71, 66], [540, 94], [51, 143], [119, 89], [82, 24], [316, 8], [69, 147], [85, 93], [89, 344], [61, 90], [176, 679], [61, 96], [108, 413], [139, 104], [28, 110], [766, 336], [767, 208], [768, 103], [257, 168], [181, 187], [67, 209], [247, 57], [86, 328], [288, 59], [67, 745], [71, 143], [347, 169], [313, 209], [53, 170], [158, 337], [61, 92], [49, 71], [98, 450], [67, 59], [652, 112], [50, 137], [95, 94], [193, 363], [52, 57], [42, 62], [109, 73], [162, 61], [54, 209], [217, 6], [23, 60], [63, 119], [132, 8], [157, 92], [277, 290], [82, 28], [100, 167], [56, 622], [50, 173], [53, 59], [58, 63], [29, 100], [64, 67], [88, 119], [117, 102], [215, 223], [107, 67], [57, 114], [55, 484], [51, 103], [42, 415], [816, 770], [54, 57], [86, 67], [61, 99], [705, 117], [291, 110], [203, 8], [51, 57], [319, 71], [127, 380], [565, 822], [522, 447], [24, 56], [88, 68], [631, 67], [453, 73], [103, 61], [151, 62], [50, 88], [85, 738], [88, 138], [448, 91], [267, 168], [64, 408], [158, 68], [66, 112], [267, 680], [51, 248], [111, 280], [340, 197], [92, 97], [151, 68], [54, 470], [53, 49], [40, 68], [418, 649], [67, 94], [63, 235], [82, 26], [67, 843], [163, 73], [100, 91], [37, 95], [88, 236], [67, 164], [50, 95], [119, 6], [116, 55], [68, 73], [256, 73], [67, 96], [51, 73], [646, 91], [67, 153], [49, 74], [71, 734], [112, 60], [122, 656], [207, 152], [43, 716], [61, 100], [93, 114], [581, 109], [552, 125], [55, 91], [30, 350], [116, 94], [366, 576], [247, 391], [175, 152], [61, 208], [108, 93], [137, 116], [67, 60], [53, 532], [245, 67], [52, 52], [64, 270], [108, 267], [126, 8], [61, 559], [247, 432], [60, 686], [174, 91], [316, 6], [52, 134], [51, 93], [256, 98], [27, 839], [609, 143], [67, 95], [92, 67], [63, 117], [272, 850], [120, 218], [51, 221], [57, 373], [138, 287], [26, 96], [265, 165], [51, 153], [34, 146], [34, 852], [51, 225], [773, 239], [53, 278], [56, 73], [135, 331], [316, 108], [96, 94], [409, 236], [67, 426], [85, 62], [206, 94], [25, 365], [688, 238], [554, 167], [124, 68], [698, 73], [71, 92], [67, 62], [97, 64], [791, 451], [471, 292], [55, 416], [204, 411], [200, 132], [59, 210], [25, 267], [259, 218], [64, 93], [197, 67], [184, 125], [51, 90], [34, 559], [50, 174], [339, 117], [116, 655], [166, 62], [258, 128], [102, 222], [165, 170], [240, 71], [761, 98], [86, 81], [151, 52], [54, 924], [151, 226], [90, 145], [291, 102], [53, 53], [137, 104], [52, 266], [69, 135], [61, 148], [34, 275], [392, 6], [52, 204], [64, 150], [108, 337], [89, 168], [22, 67], [56, 103], [358, 93], [182, 64], [85, 407], [485, 107], [135, 51], [230, 128], [57, 49], [638, 254], [190, 467], [26, 39], [49, 119], [55, 69], [162, 355], [67, 92], [153, 67], [564, 94], [261, 6], [114, 189], [86, 201], [876, 92], [55, 134], [58, 53], [37, 239], [67, 133], [381, 63], [240, 189], [50, 130], [67, 276], [708, 473], [64, 248], [98, 909], [415, 95], [51, 626], [55, 94], [318, 95], [55, 88], [144, 125], [57, 50], [40, 997], [61, 91], [193, 128], [276, 119], [87, 117], [174, 69], [60, 96], [108, 501], [139, 102], [261, 125], [489, 189], [138, 832], [648, 330], [297, 68], [441, 8], [712, 958], [157, 6], [183, 8], [51, 558], [186, 104], [964, 60], [554, 1026], [54, 107], [107, 271], [107, 55], [63, 61], [102, 117], [52, 137], [945, 327], [68, 199], [146, 52], [22, 66], [159, 67], [67, 71], [67, 510], [864, 89], [440, 117], [54, 93], [476, 94], [151, 59], [597, 305], [33, 706], [61, 274], [93, 73], [200, 94], [73, 239], [181, 275], [108, 270], [93, 62], [68, 135], [489, 164], [82, 39], [485, 545], [707, 148], [195, 6], [127, 161], [796, 187], [681, 1070], [112, 94], [68, 546], [64, 279], [50, 383], [67, 139], [687, 246], [335, 67], [40, 60], [145, 63], [304, 293], [60, 86], [135, 61], [28, 63], [40, 53], [54, 94], [54, 248], [50, 146], [168, 189], [52, 291], [54, 122], [68, 240], [888, 221], [41, 29], [64, 112], [815, 257], [1100, 103], [54, 273], [520, 295], [57, 189], [64, 199], [844, 107], [131, 121], [66, 182], [720, 442], [231, 146], [341, 6], [459, 56], [24, 212], [107, 49], [54, 934], [28, 66], [29, 143], [94, 67], [1083, 1109], [541, 67], [138, 587], [113, 119], [261, 8], [67, 703], [618, 112], [68, 237], [61, 93], [22, 62], [55, 149], [505, 91], [183, 6], [341, 8], [97, 1093], [82, 27], [405, 8], [61, 103], [298, 218], [1113, 237], [274, 134], [64, 56], [44, 258], [199, 91], [114, 94], [660, 91], [56, 94], [30, 394], [68, 153], [53, 54], [138, 892], [112, 91], [67, 81], [92, 52], [66, 122], [107, 484], [240, 858], [51, 111], [44, 292], [109, 161], [371, 6], [619, 475], [565, 802], [49, 301], [224, 129], [67, 315], [67, 107], [224, 189], [51, 841], [650, 141], [108, 473], [108, 240], [69, 170], [56, 273], [657, 86], [130, 53], [358, 718], [70, 57], [1129, 60], [1018, 86], [186, 340], [92, 8], [63, 129], [109, 434], [414, 408], [580, 99], [278, 104], [30, 54], [102, 628], [459, 500], [67, 69], [154, 186], [244, 107], [277, 172], [66, 209], [60, 130], [139, 805], [449, 167], [64, 94], [455, 112], [68, 71], [60, 966], [158, 411], [658, 94], [1198, 52], [1015, 102], [619, 59], [351, 6], [224, 444], [223, 67], [117, 67], [88, 62], [835, 237], [203, 125], [93, 135], [116, 328], [44, 929], [51, 96], [1170, 315], [57, 72], [71, 338], [342, 305], [54, 143], [103, 110], [82, 402], [70, 89], [469, 223], [51, 88], [51, 131], [152, 328], [856, 114], [67, 154], [258, 165], [151, 49], [263, 758], [50, 141], [102, 53], [57, 132], [974, 1187], [469, 134], [577, 73], [732, 108], [754, 91], [51, 442], [465, 64], [116, 108], [108, 134], [167, 94], [117, 60], [25, 1103], [67, 149], [954, 129], [233, 189], [492, 647], [61, 291], [250, 49], [64, 130], [932, 573], [25, 1050], [85, 49], [127, 350], [29, 22], [265, 51], [108, 391], [54, 88], [278, 56], [238, 236], [62, 95], [59, 102], [40, 51], [213, 122], [393, 973], [100, 218], [971, 749], [102, 91], [972, 73], [54, 482], [64, 85], [82, 495], [50, 341], [231, 337], [362, 6], [86, 6], [67, 279], [149, 52], [67, 998], [56, 109], [111, 301], [85, 270], [67, 238], [95, 73], [1126, 102], [668, 965], [1002, 151], [1292, 986], [300, 6], [928, 114], [82, 23], [163, 432], [910, 500], [1257, 327], [33, 1232], [282, 134], [1286, 169], [108, 172], [207, 279], [135, 373], [89, 81], [859, 868], [91, 984], [178, 114], [22, 60], [215, 117], [417, 1041], [348, 6], [139, 380], [820, 167], [139, 464], [319, 720], [82, 37], [629, 59], [918, 211], [86, 91], [50, 69], [258, 119], [197, 6], [1173, 69], [1023, 138], [61, 592], [235, 91], [448, 53], [333, 8], [601, 187], [562, 68], [51, 174], [138, 134], [62, 285], [54, 95], [30, 407], [598, 715], [90, 373], [61, 442], [22, 104], [68, 592], [22, 848], [140, 218], [272, 557], [32, 687], [699, 146], [35, 63], [142, 55], [24, 1308], [37, 135], [73, 94], [27, 103], [700, 504], [515, 237], [197, 8], [465, 430], [102, 67], [265, 211], [956, 94], [205, 380], [61, 159], [67, 131], [371, 125], [129, 170], [60, 401], [67, 247], [66, 100], [598, 136], [62, 132], [51, 94], [483, 564], [157, 8], [201, 411], [139, 501], [60, 172], [39, 983], [66, 103], [562, 221], [95, 1047], [111, 104], [277, 122], [190, 54], [515, 104], [455, 69], [86, 167], [52, 470], [59, 208], [225, 659], [231, 170], [492, 488], [29, 112], [1001, 340], [53, 1104], [141, 91], [403, 6], [52, 959], [174, 246], [55, 240], [82, 118], [50, 159], [117, 136], [277, 199], [108, 547], [67, 119], [763, 167], [107, 8], [492, 145], [277, 89], [428, 67], [41, 123], [188, 150], [320, 130], [562, 305], [119, 239], [54, 356], [789, 107], [51, 105], [1079, 56], [53, 280], [51, 154], [23, 210], [213, 211], [96, 57], [627, 71], [970, 306], [67, 182], [936, 314], [254, 792], [36, 62], [36, 42], [86, 68], [1402, 138], [86, 8], [331, 94], [108, 95], [566, 338], [226, 147], [284, 6], [22, 68], [109, 91], [31, 232], [41, 56], [49, 69], [162, 68], [111, 438], [51, 157], [60, 101], [388, 89], [59, 172], [7, 1141], [1099, 95], [245, 6], [66, 89], [915, 433], [74, 53], [109, 133], [50, 362], [690, 301], [889, 67], [840, 91], [694, 546], [68, 86], [476, 782], [63, 51], [254, 145], [67, 478], [55, 95], [117, 96], [895, 994], [174, 6], [88, 55], [615, 6], [326, 67], [256, 185], [53, 55], [107, 6], [176, 73], [312, 993], [61, 95], [108, 137], [482, 114], [168, 108], [41, 989], [410, 8], [27, 1466], [32, 195], [219, 923], [493, 125], [68, 92], [144, 6], [44, 448], [55, 871], [61, 172], [451, 93], [940, 125], [60, 105], [41, 88], [409, 68], [591, 114], [67, 1222], [54, 450], [153, 66], [176, 93], [388, 99], [66, 92], [40, 62], [67, 106], [607, 67], [176, 235], [59, 215], [67, 637], [764, 67], [85, 128], [190, 350], [440, 573], [30, 35], [1401, 108], [93, 67], [145, 308], [57, 98], [29, 103], [104, 57], [943, 218], [1182, 62], [98, 391], [88, 99], [612, 137], [59, 1525], [947, 1520], [71, 545], [24, 258], [92, 59], [62, 182], [99, 246], [357, 94], [26, 35], [942, 73], [195, 8], [512, 94], [52, 1014], [54, 315], [752, 287], [614, 67], [63, 893], [34, 73], [64, 57], [1503, 572], [212, 108], [179, 146], [384, 6], [1017, 1429], [143, 271], [441, 6], [143, 6], [333, 6], [112, 6], [884, 91], [397, 125], [1346, 183], [54, 416], [67, 732], [64, 413], [485, 102], [550, 125], [213, 684], [32, 1108], [1417, 213], [105, 94], [97, 61], [49, 336], [1247, 737], [33, 854], [56, 270], [64, 96], [111, 808], [809, 1011], [834, 94], [420, 8], [207, 148], [88, 659], [231, 93], [119, 8], [119, 1136], [159, 94], [139, 350], [976, 67], [23, 141], [63, 81], [567, 6], [54, 150], [40, 63], [1573, 1574], [243, 6], [86, 1566], [661, 104], [1498, 825], [962, 170], [51, 1380], [821, 6], [81, 127], [950, 62], [514, 6], [107, 159], [61, 105], [67, 155], [1269, 183], [88, 193], [354, 94], [63, 108], [268, 54], [386, 104], [283, 8], [361, 1057], [204, 64], [1098, 26], [969, 186], [53, 99], [143, 8], [215, 662], [95, 196], [434, 67], [97, 110], [1153, 63], [36, 66], [174, 94], [481, 94], [272, 132], [1492, 185], [1078, 240], [1265, 913], [875, 91], [502, 125], [215, 893], [1007, 158], [29, 622], [265, 927], [53, 108], [56, 1598], [1165, 337], [265, 1482], [82, 303], [93, 64], [224, 438], [51, 148], [118, 133], [160, 52], [40, 797], [320, 66], [88, 235], [108, 88], [7, 1487], [1288, 158], [207, 130], [61, 109], [1235, 447], [231, 447], [67, 161], [52, 69], [55, 135], [113, 186], [66, 151], [28, 383], [1088, 73], [477, 271], [331, 91], [27, 1604], [127, 62], [284, 62], [63, 206], [67, 174], [419, 130], [55, 62], [668, 178], [1674, 116], [176, 878], [55, 99], [207, 173], [1258, 70], [95, 191], [833, 987], [71, 250], [207, 1643], [139, 60], [178, 1181], [141, 63], [52, 718], [504, 1174], [193, 1365], [67, 277], [584, 1652], [615, 133], [361, 199], [1006, 1570], [471, 56], [54, 319], [25, 1624], [41, 1533], [1071, 132], [603, 475], [88, 67], [27, 470], [497, 977], [110, 94], [153, 114], [107, 248], [207, 135], [356, 55], [694, 68], [1385, 72], [138, 180], [82, 79], [879, 94], [635, 73], [50, 1656], [1068, 114], [54, 210], [580, 626], [1588, 436], [1522, 1710], [64, 159], [101, 6], [755, 6], [108, 157], [145, 318], [86, 94], [225, 114], [397, 6], [52, 135], [243, 8], [82, 216], [153, 780], [51, 656], [64, 187], [637, 50], [127, 407], [672, 748], [51, 115], [348, 67], [67, 140], [44, 1681], [265, 68], [64, 135], [99, 56], [297, 93], [361, 1339], [127, 8], [230, 181], [26, 241], [50, 321], [88, 357], [33, 69], [96, 135], [265, 1374], [108, 830], [414, 148], [238, 1167], [127, 133], [690, 264], [59, 176], [213, 102], [71, 275], [91, 1349], [1691, 1451], [1266, 70], [985, 102], [67, 1218], [471, 123], [129, 60], [1045, 430], [244, 117], [395, 125], [181, 94], [201, 254], [367, 108], [897, 138], [229, 125], [73, 7], [88, 165], [603, 104], [969, 1591], [693, 1552], [119, 68], [49, 189], [207, 112], [207, 854], [885, 114], [176, 225], [434, 108], [25, 63], [1006, 421], [41, 292], [152, 6], [237, 91], [51, 825], [361, 69], [398, 380], [405, 6], [136, 67], [1724, 105], [193, 104], [67, 634], [910, 56], [70, 153], [182, 610], [492, 95], [300, 125], [29, 1763], [522, 89], [24, 1260], [36, 35], [98, 713], [358, 66], [504, 482], [145, 572], [384, 8], [735, 1782], [740, 8], [1463, 73], [51, 99], [64, 547], [63, 67], [50, 96], [52, 151], [1040, 71], [37, 137], [50, 356], [634, 279], [36, 39], [764, 1012], [1596, 1753], [1831, 72], [855, 66], [288, 128], [66, 291], [1835, 820], [335, 8], [1508, 68], [51, 383], [61, 149], [53, 73], [335, 6], [436, 1395], [1810, 37], [1844, 1484], [142, 128], [255, 125], [829, 1836], [837, 838], [570, 141], [422, 8], [60, 621], [708, 93], [61, 146], [1224, 748], [64, 523], [756, 797], [624, 6], [1351, 119], [752, 109], [102, 94], [86, 51], [49, 72], [425, 436], [71, 1066], [620, 8], [211, 94], [801, 275], [193, 60], [409, 870], [526, 6], [455, 187], [1449, 739], [100, 67], [7, 50], [440, 237], [204, 95], [162, 329], [975, 68], [215, 669], [1114, 438], [90, 62], [88, 503], [1421, 415], [86, 793], [57, 91], [70, 103], [44, 1521], [589, 119], [70, 138], [53, 167], [108, 135], [763, 145], [55, 102], [1325, 91], [318, 135], [93, 842], [219, 258], [116, 170], [153, 6], [36, 176], [388, 408], [113, 168], [55, 199], [787, 189], [422, 6], [1412, 91], [1024, 528], [515, 340], [50, 93], [107, 146], [90, 50], [180, 92], [117, 838], [523, 71], [916, 912], [787, 1267], [211, 64], [575, 94], [53, 141], [1826, 1276], [49, 87], [381, 85], [1608, 1673], [68, 88], [54, 266], [348, 8], [127, 394], [401, 114], [66, 94], [353, 104], [138, 61], [648, 475], [70, 1915], [313, 446], [56, 318], [270, 308], [66, 157], [1597, 1478], [283, 6], [1490, 315], [62, 103], [64, 225], [66, 1578], [135, 818], [256, 72], [86, 221], [93, 57], [1534, 862], [22, 35], [116, 510], [646, 94], [66, 69], [410, 6], [190, 394], [183, 389], [51, 149], [119, 88], [568, 67], [50, 1309], [361, 578], [31, 990], [54, 1426], [526, 8], [1052, 114], [23, 63], [310, 6], [457, 6], [67, 263], [217, 1572], [44, 275], [99, 167], [139, 394], [116, 237], [57, 121], [318, 110], [67, 176], [61, 102], [1828, 264], [787, 158], [50, 143], [710, 312], [289, 6], [150, 382], [219, 403], [107, 89], [54, 1044], [634, 860], [921, 252], [74, 59], [1990, 178], [1991, 89], [1237, 67], [215, 6], [440, 235], [67, 151], [86, 1347], [98, 137], [300, 8], [64, 258], [132, 263], [60, 571], [833, 306], [67, 614], [92, 132], [344, 67], [51, 830], [67, 418], [181, 578], [463, 94], [620, 6], [1921, 68], [50, 1727], [119, 67], [916, 340], [1651, 239], [1242, 95], [642, 114], [69, 382], [804, 67], [103, 73], [102, 2003], [52, 713], [58, 520], [112, 67], [63, 1450], [175, 86], [22, 1992], [648, 59], [1310, 952], [1240, 197], [51, 178], [951, 138], [480, 8], [556, 6], [877, 67], [506, 6], [55, 713], [1781, 1031], [117, 301], [709, 173], [692, 6], [1089, 211], [397, 8], [120, 6], [1617, 1581], [134, 6], [54, 167], [932, 117], [135, 50], [256, 494], [22, 39], [263, 399], [50, 99], [37, 93], [26, 66], [424, 59], [62, 574], [782, 98], [119, 264], [153, 8], [40, 392], [481, 67], [117, 236], [151, 145], [308, 197], [54, 137], [693, 913], [1168, 92], [243, 355], [360, 60], [313, 172], [51, 132], [566, 105], [64, 99], [1664, 107], [71, 94], [107, 1066], [1765, 306], [54, 571], [332, 8], [68, 743], [67, 142], [245, 8], [1162, 1795], [53, 1084], [37, 96], [32, 365], [56, 182], [50, 135], [818, 72], [944, 91], [64, 89], [56, 1564], [979, 1305], [213, 53], [414, 99], [1507, 545], [1668, 55], [54, 1143], [1387, 846], [457, 95], [1943, 2058], [1476, 55], [247, 210], [35, 130], [320, 109], [52, 1601], [186, 93], [90, 191], [593, 8], [109, 155], [39, 2085], [1382, 91], [319, 758], [743, 199], [116, 73], [244, 61], [465, 110], [52, 860], [63, 60], [33, 26], [208, 53], [690, 438], [90, 60], [508, 73], [162, 739], [254, 91], [1090, 433], [61, 983], [174, 8], [152, 8], [96, 159], [434, 235], [238, 597], [67, 20], [1637, 197], [1628, 133], [371, 8], [699, 430], [790, 91], [650, 269], [1796, 98], [98, 1283], [25, 49], [201, 104], [52, 103], [1630, 109], [1019, 57], [1268, 1087], [168, 273], [64, 8], [119, 133], [1625, 314], [82, 661], [312, 57], [829, 428], [803, 7], [1389, 114], [2150, 2151], [64, 103], [968, 91], [238, 108], [67, 105], [86, 108], [59, 132], [894, 150], [629, 95], [212, 129], [712, 312], [61, 49], [1650, 92], [100, 221], [1527, 92], [284, 67], [89, 72], [855, 72], [420, 6], [137, 60], [1024, 95], [1255, 197], [319, 158], [54, 159], [193, 136], [975, 330], [353, 88], [566, 63], [463, 375], [64, 1398], [194, 67], [579, 125], [70, 86], [668, 173], [2193, 207], [62, 833], [150, 330], [178, 50], [137, 117], [82, 372], [547, 107], [7, 26], [2088, 93], [2202, 304], [267, 52], [544, 1960], [334, 389], [1738, 94], [61, 141], [67, 1044], [319, 418], [137, 473], [193, 64], [22, 1904], [2147, 164], [726, 114], [54, 362], [506, 67], [502, 161], [211, 91], [629, 312], [70, 591], [109, 49], [518, 61], [50, 103], [2008, 1483], [1568, 114], [51, 135], [59, 62], [52, 1585], [109, 192], [62, 81], [701, 8], [25, 57], [62, 94], [64, 6], [68, 450], [67, 802], [37, 1043], [2238, 1263], [1425, 95], [2210, 246], [43, 1289], [52, 1912], [523, 128], [213, 108], [73, 133], [950, 580], [52, 446], [265, 1403], [200, 55], [57, 252], [278, 49], [698, 271], [1340, 94], [1185, 91], [56, 69], [593, 6], [288, 117], [465, 61], [451, 878], [56, 130], [701, 6], [463, 199], [22, 206], [1156, 363], [553, 1405], [129, 6], [98, 86], [1299, 67], [410, 67], [772, 91], [138, 91], [2266, 496], [674, 6], [91, 168], [7, 400], [493, 6], [672, 382], [162, 201], [207, 66], [709, 239], [56, 746], [221, 8], [102, 145], [312, 1576], [535, 6], [453, 94], [49, 128], [26, 72], [51, 1932], [1962, 67], [64, 151], [61, 94], [100, 6], [542, 6], [180, 60], [1048, 91], [1629, 94], [570, 2149], [54, 834], [439, 270], [413, 6], [50, 318], [116, 472], [41, 63], [806, 1321], [1752, 824], [98, 159], [542, 8], [1755, 488], [51, 319], [288, 110], [188, 53], [37, 967], [82, 101], [154, 363], [39, 2222], [312, 1179], [90, 196], [362, 133], [361, 232], [67, 192], [51, 110], [170, 8], [1717, 91], [33, 53], [710, 107], [2200, 1821], [117, 93], [174, 56], [122, 246], [1958, 114], [555, 96], [35, 112], [1541, 306], [207, 299], [577, 454], [535, 8], [459, 54], [895, 153], [1879, 326], [213, 532], [1227, 128], [213, 49], [231, 1418], [94, 114], [49, 848], [50, 50], [145, 977], [1068, 154], [118, 161], [138, 416], [54, 2244], [240, 105], [61, 1899], [29, 2328], [51, 305], [1998, 96], [631, 196], [991, 185], [1278, 1262], [740, 6], [27, 66], [1213, 444], [103, 314], [1512, 1393], [62, 1897], [277, 96], [99, 250], [332, 6], [53, 56], [70, 49], [333, 1315], [509, 234], [418, 388], [70, 150], [313, 90], [936, 1390], [22, 2048], [50, 447], [346, 389], [809, 2355], [154, 174], [142, 235], [44, 923], [506, 8], [39, 53], [102, 55], [653, 8], [890, 105], [631, 191], [109, 21], [225, 218], [2107, 138], [1184, 264], [601, 1615], [117, 2007], [74, 102], [190, 67], [269, 73], [288, 98], [1065, 94], [1114, 411], [265, 64], [121, 1610], [2117, 1152], [89, 53], [50, 112], [915, 95], [845, 7], [2256, 168], [320, 105], [58, 1805], [62, 134], [179, 125], [41, 66], [588, 95], [28, 135], [167, 61], [562, 574], [49, 360], [743, 1142], [273, 62], [359, 8], [1042, 67], [61, 365], [64, 220], [1505, 1209], [113, 271], [360, 150], [167, 1305], [1211, 1091], [81, 204], [2145, 813], [149, 88], [522, 1987], [1140, 173], [711, 6], [320, 149], [520, 1393], [40, 158], [129, 68], [377, 6], [426, 6], [62, 293], [154, 438], [1023, 382], [52, 225], [68, 6], [52, 146], [82, 1442], [263, 69], [127, 21], [1742, 809], [1200, 94], [601, 153], [1416, 326], [51, 100], [674, 8], [1216, 145], [325, 464], [154, 129], [524, 67], [1354, 662], [282, 435], [55, 356], [174, 1145], [127, 155], [297, 878], [468, 2384], [82, 80], [60, 296], [50, 153], [64, 269], [81, 83], [172, 116], [2452, 128], [1261, 109], [52, 232], [54, 221], [238, 60], [963, 67], [71, 575], [1162, 314], [116, 576], [521, 92], [1725, 91], [529, 94], [62, 91], [544, 312], [178, 667], [489, 1887], [482, 2019], [2259, 532], [1277, 125], [226, 129], [2213, 108], [1069, 315], [141, 132], [231, 138], [34, 63], [33, 2484], [27, 2470], [128, 95], [962, 746], [1878, 645], [50, 281], [269, 94], [50, 209], [55, 73], [100, 92], [497, 287], [700, 1193], [158, 73], [139, 237], [413, 8], [37, 60], [282, 669], [167, 707], [729, 6], [57, 158], [462, 8], [359, 6], [51, 285], [1049, 574], [105, 91], [2043, 174], [54, 69], [601, 942], [68, 696], [1261, 1441], [214, 218], [1007, 430], [497, 318], [640, 1370], [53, 107], [653, 6], [1405, 104], [1679, 73], [1856, 201], [137, 235], [68, 651], [1481, 231], [2096, 98], [431, 2354], [381, 68], [2418, 2437], [642, 67], [2441, 1891], [1756, 647], [861, 107], [134, 8], [1497, 172], [1670, 1822], [25, 100], [265, 1096], [238, 67], [2087, 1506], [55, 185], [66, 109], [1230, 430], [96, 281], [90, 488], [2554, 432], [50, 89], [1920, 95], [505, 8], [24, 159], [53, 129], [308, 67], [70, 1424], [612, 63], [86, 72], [25, 1708], [781, 94], [143, 1150], [340, 114], [237, 132], [109, 389], [1584, 73], [258, 2553], [1184, 91], [41, 1043], [1695, 568], [102, 806], [108, 1571], [2363, 568], [1840, 1378], [231, 2519], [85, 161], [212, 235], [507, 1333], [1071, 53], [403, 8], [670, 91], [68, 204], [884, 94], [536, 218], [40, 41], [1884, 91], [258, 2394], [497, 2375], [386, 380], [57, 138], [2307, 174], [34, 2505], [612, 2159], [621, 1974], [1698, 67], [68, 142], [2345, 91], [53, 96], [67, 224], [1748, 86], [2454, 114], [919, 67], [1721, 580], [364, 94], [153, 252], [54, 199], [806, 86], [1803, 133], [50, 149], [284, 133], [353, 62], [70, 101], [344, 8], [25, 146], [181, 568], [2055, 2571], [44, 8], [1051, 746], [116, 104], [88, 655], [39, 26], [1511, 235], [67, 73], [51, 706], [85, 597], [905, 6], [2194, 1959], [2201, 278], [95, 125], [890, 211], [255, 161], [1802, 114], [937, 93], [46, 1431], [449, 125], [53, 74], [167, 1945], [714, 117], [899, 114], [514, 133], [1127, 373], [240, 100], [786, 8], [97, 71], [119, 161], [188, 293], [66, 96], [156, 20], [304, 6], [67, 102], [681, 2435], [373, 68], [57, 317], [8, 2631], [268, 1799], [23, 2608], [255, 392], [205, 350], [634, 1424], [205, 407], [55, 132], [2623, 98], [264, 150], [71, 428], [92, 81], [40, 165], [129, 196], [672, 432], [1824, 168], [168, 1086], [2684, 49], [2056, 62], [556, 125], [373, 61], [108, 96], [109, 488], [507, 1008], [927, 91], [55, 137], [66, 318], [885, 252], [54, 275], [288, 475], [86, 305], [1740, 112], [68, 965], [52, 523], [384, 67], [2075, 1903], [67, 331], [2214, 1623], [35, 103], [92, 91], [150, 138], [34, 93], [2091, 91], [391, 94], [1779, 689], [86, 285], [693, 109], [88, 532], [200, 6], [1452, 608], [71, 105], [212, 146], [1493, 94], [2195, 138], [82, 8], [786, 67], [1427, 1480], [154, 463], [57, 170], [642, 98], [422, 67], [1323, 775], [2568, 117], [796, 267], [2557, 2064], [536, 226], [1702, 2051], [853, 107], [224, 92], [1069, 53], [139, 407], [743, 208], [63, 56], [419, 1557], [756, 89], [1444, 128], [1523, 2626], [89, 6], [1221, 102], [477, 454], [141, 578], [1128, 2685], [2264, 93], [225, 6], [88, 60], [144, 161], [1814, 293], [448, 94], [82, 2242], [36, 2744], [180, 6], [99, 1145], [23, 159], [66, 421], [817, 6], [516, 215], [66, 199], [107, 337], [812, 196], [68, 1684], [34, 182], [62, 248], [777, 67], [104, 73], [1788, 66], [1428, 94], [103, 6], [1936, 94], [86, 497], [829, 93], [692, 8], [1002, 226], [2779, 2038], [2559, 102], [544, 2688], [88, 64], [1192, 94], [190, 62], [388, 146], [333, 67], [67, 391], [66, 141], [313, 112], [70, 210], [339, 94], [1438, 114], [2167, 2469], [64, 447], [119, 627], [148, 53], [268, 51], [351, 161], [2423, 211], [304, 8], [116, 185], [58, 981], [1415, 94], [51, 137], [74, 74], [82, 81], [66, 1735], [143, 53], [41, 112], [347, 188], [320, 153], [221, 6], [51, 546], [2000, 97], [57, 95], [254, 94], [54, 324], [24, 63], [845, 245], [2220, 401], [409, 1179], [1090, 95], [1049, 2308], [88, 201], [1690, 109], [36, 36], [174, 133], [58, 69], [591, 252], [162, 342], [361, 627], [211, 287], [86, 414], [165, 68], [2032, 86], [212, 1167], [751, 6], [426, 8], [1589, 1995], [119, 155], [50, 296], [1599, 114], [56, 1569], [955, 6], [335, 91], [1095, 91], [53, 102], [54, 291], [44, 403], [49, 333], [226, 64], [1938, 68], [1546, 2761], [544, 1276], [144, 8], [61, 439], [779, 8], [861, 605], [71, 662], [207, 1150], [60, 146], [1172, 67], [138, 428], [476, 61], [922, 463], [696, 281], [452, 948], [96, 167], [2243, 68], [27, 318], [406, 67], [2239, 73], [68, 143], [71, 240], [801, 239], [434, 95], [877, 573], [118, 192], [35, 57], [39, 63], [388, 109], [418, 55], [35, 391], [24, 111], [1033, 8], [378, 1076], [747, 67], [1494, 116], [99, 2765], [609, 124], [1080, 96], [213, 1519], [60, 404], [54, 151], [73, 91], [2665, 104], [85, 60], [333, 91], [310, 8], [1924, 838], [1925, 132], [61, 408], [32, 96], [2904, 523], [1671, 975], [1067, 235], [779, 6], [29, 63], [1448, 91], [55, 439], [313, 99], [1986, 91], [102, 1218], [51, 271], [581, 438], [1094, 264], [28, 88], [231, 1147], [480, 125], [1885, 422], [918, 2642], [70, 1500], [56, 124], [696, 296], [54, 114], [24, 157], [67, 568], [107, 626], [25, 337], [54, 594], [354, 67], [186, 53], [213, 93], [714, 1047], [2314, 737], [231, 2682], [2158, 1420], [556, 8], [386, 350], [144, 133], [41, 425], [230, 6], [130, 68], [88, 129], [182, 86], [1528, 2331], [89, 94], [785, 73], [258, 1197], [917, 66], [167, 62], [154, 330], [82, 261], [156, 133], [62, 571], [22, 41], [51, 185], [97, 1136], [2959, 842], [141, 88], [50, 240], [103, 55], [1182, 67], [2212, 73], [67, 195], [92, 133], [85, 67], [86, 2068], [88, 54], [34, 1874], [1397, 94], [108, 141], [109, 197], [918, 990], [2318, 114], [2300, 73], [497, 621], [103, 67], [151, 521], [440, 907], [1733, 91], [25, 105], [694, 1704], [2777, 655], [54, 510], [204, 153], [214, 425], [302, 114], [548, 105], [34, 1863], [2991, 57], [1511, 1328], [266, 54], [70, 281], [547, 427], [364, 6], [98, 149], [2769, 73], [146, 91], [258, 107], [136, 94], [73, 95], [159, 55], [1128, 73], [861, 427], [308, 6], [2252, 56], [980, 449], [779, 67], [100, 59], [51, 101], [711, 125], [335, 191], [86, 145], [231, 426], [55, 1087], [1189, 51], [98, 103], [43, 26], [414, 686], [85, 6], [26, 301], [2248, 95], [320, 365], [729, 8], [920, 1239], [56, 275], [64, 69], [93, 55], [344, 6], [116, 96], [36, 27], [60, 281], [141, 92], [624, 8], [1839, 326], [392, 8], [50, 271], [859, 1576], [889, 196], [1896, 252], [598, 153], [55, 990], [54, 96], [106, 645], [541, 6], [685, 305], [53, 312], [278, 576], [91, 94], [284, 8], [889, 191], [68, 968], [452, 197], [640, 1335], [73, 185], [493, 8], [88, 320], [783, 225], [162, 98], [2930, 1937], [148, 167], [837, 1329], [176, 1104], [588, 613], [1354, 858], [1447, 1475], [657, 2179], [36, 41], [378, 234], [200, 8], [96, 749], [381, 797], [40, 26], [131, 55], [386, 394], [521, 908], [515, 592], [483, 742], [58, 2573], [2798, 716], [174, 192], [96, 296], [44, 2400], [25, 135], [129, 8], [1133, 8], [60, 2065], [2589, 91], [151, 374], [549, 6], [1788, 108], [2430, 132], [1517, 28], [1430, 201], [56, 250], [61, 182], [64, 132], [37, 63], [306, 101], [67, 2125], [119, 192], [1095, 94], [1774, 94], [1445, 151], [104, 63], [93, 167], [446, 94], [93, 6], [1095, 132], [119, 415], [2456, 197], [917, 49], [2686, 523], [32, 1118], [90, 659], [37, 53], [268, 2951], [2377, 64], [1080, 411], [1272, 6], [572, 6], [351, 133], [274, 245], [877, 95], [207, 63], [2404, 212], [2416, 627], [800, 6], [398, 350], [489, 1031], [1926, 865], [60, 124], [440, 67], [22, 159], [1351, 2442], [2610, 201], [58, 95], [608, 6], [313, 1076], [238, 103], [1210, 201], [289, 8], [635, 2476], [297, 306], [64, 172], [1537, 41], [108, 621], [154, 519], [33, 967], [33, 287], [74, 311], [58, 1171], [1331, 91], [867, 100], [1413, 221], [207, 1076], [149, 2560], [445, 67], [885, 317], [403, 133], [54, 109], [71, 2964], [2089, 89], [1223, 380], [247, 3108], [1268, 2197], [3168, 433], [2086, 91], [105, 153], [1317, 94], [98, 383], [230, 138], [698, 454], [612, 88], [2918, 73], [45, 102], [138, 94], [772, 94], [1677, 64], [621, 91], [59, 86], [57, 628], [801, 63], [129, 212], [68, 427], [82, 144], [127, 192], [44, 103], [706, 86], [128, 49], [1523, 264], [28, 2809], [1048, 281], [1116, 1014], [230, 2666], [113, 129], [1221, 94], [130, 197], [1465, 1820], [2606, 174], [873, 67], [44, 99], [476, 162], [60, 90], [2815, 1399], [313, 2491], [611, 6], [776, 6], [272, 273], [111, 464], [53, 104], [4, 6], [356, 246], [875, 281], [110, 6], [54, 254], [287, 578], [362, 8], [921, 317], [899, 317], [108, 138], [71, 91], [835, 1922], [764, 191], [64, 545], [459, 1450], [64, 102], [267, 94], [153, 470], [2574, 2021], [50, 101], [1085, 6], [93, 271], [1133, 6], [157, 1513], [308, 8], [256, 271], [51, 1426], [134, 73], [876, 632], [588, 218], [40, 504], [1969, 170], [2146, 153], [514, 8], [7, 34], [903, 135], [1263, 207], [268, 176], [1107, 114], [1362, 314], [899, 252], [60, 67], [2767, 129], [61, 174], [1033, 6], [99, 475], [94, 94], [212, 1328], [288, 108], [879, 91], [581, 444], [950, 659], [1762, 102], [660, 296], [1792, 125], [247, 470], [1911, 94], [2155, 2053], [157, 355], [2281, 125], [181, 854], [188, 6], [64, 542], [34, 365], [3178, 299], [3278, 131], [440, 87], [2825, 57], [906, 6], [903, 546], [1017, 114], [710, 399], [54, 240], [2123, 91], [99, 91], [541, 8], [88, 1040], [53, 8], [2299, 1929], [64, 326], [1984, 8], [268, 358], [201, 91], [1249, 6], [50, 1283], [991, 285], [54, 211], [979, 1378], [51, 594], [1860, 94], [238, 117], [205, 394], [66, 222], [840, 94], [41, 36], [60, 291], [992, 6], [1602, 167], [1869, 103], [1542, 94], [82, 127], [2937, 114], [3152, 1694], [146, 1655], [312, 793], [1499, 865], [25, 339], [462, 6], [403, 161], [85, 394], [35, 2018], [101, 7], [52, 211], [2165, 264], [921, 114], [361, 187], [2898, 610], [288, 330], [151, 2395], [1319, 8], [1877, 881], [507, 2572], [50, 86], [134, 125], [361, 172], [1096, 129], [41, 135], [817, 125], [52, 349], [120, 8], [436, 6], [1909, 122], [1080, 239], [107, 191], [67, 777], [67, 1329], [231, 1481], [381, 56], [71, 396], [937, 96], [764, 196], [33, 33], [414, 211], [1707, 53], [3129, 1416], [709, 966], [789, 1937], [1106, 8], [1338, 8], [86, 57], [122, 1418], [1183, 341], [103, 94], [1575, 145], [53, 128], [681, 1571], [785, 86], [33, 1181], [96, 416], [2829, 293], [37, 56], [520, 2923], [52, 49], [328, 892], [156, 161], [33, 813], [151, 451], [3206, 314], [974, 101], [809, 415], [567, 8], [1052, 317], [1166, 125], [89, 215], [294, 6], [50, 873], [704, 167], [215, 100], [2348, 94], [861, 1407], [353, 500], [2625, 73], [422, 138], [64, 264], [2368, 793], [52, 453], [129, 191], [135, 336], [60, 159], [1115, 1587], [156, 192], [3340, 607], [972, 271], [67, 632], [97, 506], [1046, 125], [282, 393], [50, 178], [1036, 6], [116, 457], [577, 271], [158, 6], [514, 161], [111, 2726], [1106, 6], [62, 266], [279, 94], [825, 62], [180, 473], [2776, 69], [434, 805], [288, 546], [952, 73], [1634, 91], [1860, 645], [156, 155], [824, 138], [2001, 165], [67, 3215], [55, 93], [451, 89], [110, 8], [231, 51], [1116, 94], [2680, 104], [111, 494], [180, 1497], [64, 209], [907, 70], [219, 929], [401, 6], [1392, 973], [64, 210], [968, 94], [381, 671], [186, 576], [3116, 327], [1275, 6], [181, 269], [61, 275], [24, 797], [64, 196], [459, 62], [1088, 52], [138, 67], [97, 6], [2542, 73], [335, 196], [205, 161], [82, 32], [786, 6], [154, 2480], [514, 192], [137, 55], [602, 6], [27, 53], [1018, 819], [186, 170], [231, 54], [649, 1867], [476, 1445], [86, 70], [98, 49], [39, 1476], [1274, 125], [571, 99], [385, 6], [2492, 432], [419, 112], [313, 234], [2634, 54], [1175, 91], [23, 73], [52, 149], [118, 155], [1443, 450], [71, 484], [59, 105], [64, 1389], [777, 6], [68, 151], [2421, 105], [2115, 95], [401, 8], [337, 94], [1368, 94], [521, 114], [2183, 189], [2731, 1468], [119, 1011], [510, 780], [67, 197], [409, 2221], [53, 315], [320, 91], [777, 8], [328, 6], [284, 94], [1686, 6], [2891, 98], [1774, 404], [61, 571], [40, 56], [608, 8], [46, 273], [1381, 8], [231, 154], [211, 871], [1348, 669], [174, 81], [2093, 150], [154, 119], [849, 8], [916, 104], [226, 91], [96, 6], [3358, 159], [166, 149], [1547, 107], [109, 20], [1734, 91], [1384, 67], [772, 67], [2343, 1210], [1148, 1445], [570, 61], [85, 501], [358, 1235], [361, 122], [70, 105], [57, 59], [672, 138], [22, 862], [274, 435], [213, 107], [88, 66], [381, 1222], [2078, 91], [377, 133], [667, 341], [178, 252], [312, 1189], [2620, 68], [803, 6], [138, 54], [134, 108], [1340, 387], [193, 1366], [461, 6], [50, 1564], [1607, 67], [1862, 170], [39, 30], [1760, 132], [57, 182], [207, 1726], [971, 1246], [1550, 521], [657, 482], [2885, 1011], [178, 2853], [268, 201], [67, 715], [93, 2458], [3577, 113], [58, 211], [54, 99], [300, 161], [180, 50], [190, 407], [108, 718], [2676, 506], [558, 6], [1240, 948], [362, 161], [558, 8], [125, 6], [61, 61], [381, 967], [818, 95], [52, 2679], [979, 117], [727, 62], [570, 1631], [66, 232], [598, 241], [1595, 91], [612, 319], [34, 103], [603, 59], [231, 60], [907, 591], [313, 101], [1688, 846], [57, 186], [550, 88], [98, 174], [645, 117], [1399, 129], [775, 6], [1175, 94], [87, 52], [124, 610], [3207, 1140], [717, 6], [463, 234], [1950, 25], [265, 277], [98, 73], [835, 592], [139, 315], [34, 95], [170, 6], [2651, 91], [1813, 211], [33, 173], [24, 103], [60, 93], [165, 788], [36, 51], [1957, 51], [2647, 427], [27, 96], [113, 444], [2656, 94], [86, 215], [71, 93], [789, 89], [612, 93], [2855, 868], [138, 385], [1801, 53], [57, 128], [2535, 191], [200, 2398], [2216, 1273], [154, 444], [257, 94], [215, 133], [783, 62], [130, 574], [2090, 3193], [151, 150], [145, 428], [216, 167], [52, 1339], [1177, 67], [135, 132], [328, 8], [1102, 98], [2988, 280], [113, 235], [33, 8], [268, 2164], [36, 55], [2669, 422], [28, 1087], [1358, 523], [3374, 3479], [504, 686], [194, 8], [451, 473], [505, 6], [1813, 96], [158, 574], [139, 93], [1853, 572], [119, 60], [1196, 67], [229, 60], [465, 66], [3593, 201], [92, 161], [32, 967], [3687, 312], [55, 297], [97, 146], [146, 70], [96, 131], [26, 62], [86, 1622], [2350, 93], [33, 146], [555, 746], [1387, 2577], [49, 267], [69, 231], [1358, 416], [36, 2668], [2396, 221], [22, 135], [206, 486], [3705, 3401], [3546, 3061], [37, 3671], [418, 881], [58, 267], [1000, 8], [186, 248], [641, 114], [1852, 73], [3300, 306], [887, 6], [180, 235], [25, 338], [49, 312], [49, 6], [107, 1769], [181, 208], [555, 1744], [320, 453], [58, 273], [428, 8], [3191, 1061], [117, 714], [36, 44], [86, 422], [64, 734], [29, 26], [960, 8], [68, 383], [96, 326], [409, 64], [2800, 153], [35, 3578], [1164, 8], [137, 146], [4, 8], [1618, 73], [60, 1918], [58, 239], [113, 52], [800, 8], [53, 6], [999, 125], [789, 274], [1677, 610], [1750, 94], [1253, 396], [36, 54], [148, 749], [1052, 252], [1067, 981], [1168, 881], [2168, 221], [628, 68], [1253, 237], [62, 1456], [49, 570], [688, 2161], [3702, 3666], [700, 405], [1988, 197], [1894, 95], [2233, 2192], [2555, 3642], [1683, 252], [1045, 64], [353, 67], [367, 333], [320, 3719], [1679, 813], [39, 46], [1117, 112], [1079, 1145], [52, 89], [3630, 176], [3692, 3192], [116, 211], [291, 94], [44, 101], [52, 570], [195, 133], [627, 139], [1185, 281], [2485, 91], [2683, 92], [412, 6], [35, 1557], [174, 161], [89, 62], [3190, 128], [82, 184], [82, 498], [3201, 197], [267, 1064], [1085, 8], [67, 273], [1119, 6], [345, 998], [425, 158], [1036, 8], [747, 6], [787, 146], [64, 86], [33, 1152], [41, 44], [406, 3774], [1865, 94], [240, 64], [752, 432], [68, 2563], [28, 29], [52, 91], [1648, 223], [2790, 427], [61, 199], [68, 150], [7, 541], [265, 2156], [1354, 100], [49, 148], [2757, 95], [33, 239], [629, 51], [71, 109], [711, 8], [954, 444], [469, 669], [320, 290], [1138, 6], [2919, 197], [3639, 917], [85, 21], [208, 703], [24, 383], [28, 959], [207, 267], [1602, 540], [1322, 3646], [469, 435], [2644, 1019], [952, 2713], [211, 808], [294, 8], [71, 748], [238, 2511], [193, 96], [2134, 94], [57, 64], [1092, 114], [1789, 8], [186, 1784], [783, 59], [41, 258], [7, 3325], [1127, 488], [70, 296], [69, 51], [1117, 8], [2882, 1246], [71, 86], [1882, 739], [463, 89], [165, 108], [991, 254], [2135, 197], [23, 2963], [2819, 1086], [3668, 680], [790, 1061], [274, 669], [131, 3706], [726, 95], [34, 1610], [783, 396], [342, 67], [1749, 134], [1505, 117], [1195, 67], [223, 6], [60, 387], [52, 318], [672, 575], [1449, 1371], [39, 311], [138, 6], [188, 133], [50, 232], [774, 8], [2477, 66], [618, 484], [2725, 1061], [256, 189], [957, 6], [761, 659], [505, 94], [44, 210], [461, 67], [849, 6], [614, 6], [583, 6], [1814, 150], [52, 94], [333, 94], [1054, 114], [54, 89], [1671, 165], [688, 1078], [1148, 1179], [1957, 451], [55, 55], [67, 547], [1702, 3761], [108, 149], [1696, 119], [151, 792], [339, 737], [414, 182], [70, 2748], [3610, 57], [1875, 442], [154, 91], [22, 8], [46, 1863], [109, 421], [1340, 404], [142, 186], [1639, 67], [44, 131], [1367, 225], [42, 177], [30, 40], [1869, 1647], [51, 662], [238, 64], [29, 3558], [1855, 8], [541, 196], [1850, 571], [1743, 70], [135, 430], [64, 122], [3357, 330], [416, 114], [741, 3187], [1028, 125], [182, 50], [51, 454], [3016, 91], [815, 88], [199, 94], [55, 2316], [418, 114], [1707, 805], [300, 367], [566, 1103], [247, 138], [2733, 114], [114, 7], [3658, 116], [3477, 297], [972, 454], [33, 141], [1875, 278], [1493, 91], [1501, 6], [1397, 62], [1020, 6], [1425, 613], [289, 161], [137, 93], [1362, 61], [866, 67], [50, 568], [24, 92], [30, 41], [1190, 6], [335, 282], [2513, 94], [116, 1867], [2596, 312], [51, 542], [326, 6], [200, 133], [92, 73], [208, 339], [7, 106], [1101, 6], [82, 203], [1084, 293], [609, 149], [567, 67], [1226, 574], [1839, 1474], [102, 3924], [3967, 1894], [86, 2071], [887, 8], [237, 73], [54, 305], [436, 125], [426, 67], [388, 572], [2176, 591], [3457, 984], [3976, 1171], [22, 40], [34, 665], [1499, 1435], [40, 2133], [81, 40], [463, 101], [74, 94], [2082, 1773], [158, 102], [200, 161], [1199, 2173], [96, 1246], [916, 2357], [234, 8], [902, 6], [208, 150], [97, 8], [266, 297], [2329, 145], [157, 133], [2719, 67], [244, 125], [1386, 1938], [50, 297], [2380, 341], [61, 2578], [268, 2192], [263, 148], [3423, 846], [2760, 842], [34, 3799], [93, 813], [30, 61], [243, 91], [66, 124], [67, 1358], [59, 100], [1028, 6], [3281, 444], [1986, 94], [212, 55], [851, 134], [102, 3186], [55, 232], [703, 1647], [1210, 488], [733, 6], [30, 161], [29, 146], [514, 125], [51, 2496], [2477, 1506], [64, 391], [27, 60], [253, 6], [53, 145], [339, 91], [419, 392], [68, 159], [409, 1336], [1101, 67], [1045, 930], [2602, 94], [2440, 67], [68, 8], [71, 1118], [109, 2], [88, 917], [388, 94], [3112, 433], [388, 112], [851, 8], [755, 161], [39, 204], [2265, 197], [851, 89], [1698, 196], [313, 151], [2689, 578], [2536, 301], [30, 67], [226, 170], [733, 8], [224, 89], [541, 191], [455, 182], [60, 99], [24, 273], [2791, 542], [3780, 2383], [807, 1623], [23, 3781], [1242, 528], [1359, 1726], [60, 2388], [752, 1174], [1465, 714], [7, 35], [55, 319], [1117, 6], [40, 3420], [1134, 103], [168, 170], [754, 94], [264, 252], [67, 245], [2296, 2797], [378, 112], [1504, 295], [98, 6], [68, 134], [2086, 94], [263, 900], [919, 3925], [2396, 305], [1074, 125], [2992, 119], [159, 61], [4128, 2534], [8, 3927], [678, 4000], [803, 8], [258, 610], [88, 1078], [371, 133], [254, 67], [1190, 8], [2875, 430], [107, 196], [23, 26], [1368, 59], [492, 613], [154, 808], [109, 394], [3437, 3654], [364, 8], [2818, 91], [661, 367], [98, 3101], [119, 99], [581, 128], [620, 67], [331, 6], [1021, 67], [54, 413], [401, 317], [1089, 805], [1163, 308], [265, 291], [93, 117], [2001, 610], [153, 317], [109, 271], [1528, 532], [674, 125], [3136, 103], [165, 51], [1684, 472], [403, 155], [212, 117], [1249, 133], [319, 105], [229, 407], [920, 608], [1317, 8], [27, 220], [1079, 500], [34, 92], [98, 483], [230, 8], [555, 391], [3436, 250], [181, 871], [398, 394], [66, 637], [765, 133], [116, 3825], [194, 6], [108, 3651], [181, 159], [3990, 4151], [206, 296], [188, 8], [3364, 153], [1279, 114], [114, 133], [167, 1378], [50, 138], [3725, 1478], [609, 1535], [2228, 3608], [935, 125], [231, 987], [69, 138], [1422, 6], [25, 4129], [1322, 73], [165, 780], [1107, 7], [143, 112], [59, 2196], [1311, 8], [50, 2288], [50, 375], [2292, 575], [806, 158], [109, 454], [98, 961], [524, 94], [119, 236], [3728, 792], [2323, 3223], [30, 39], [234, 6], [2613, 158], [3076, 183], [611, 8], [64, 981], [1370, 196], [1966, 98], [3899, 199], [117, 947], [588, 528], [176, 60], [3756, 56], [796, 275], [829, 1410], [54, 174], [1173, 578], [1094, 572], [615, 192], [640, 6], [1176, 2121], [585, 271], [3019, 222], [210, 2946], [381, 537], [2558, 174], [2387, 3269], [69, 132], [66, 601], [2067, 2398], [108, 2994], [70, 248], [56, 3559], [253, 8], [34, 26], [97, 57], [200, 387], [1265, 3284], [489, 2128], [2372, 1031], [193, 165], [67, 212], [1935, 94], [64, 2467], [7, 3417], [692, 125], [3244, 152], [87, 170], [313, 408], [2374, 94], [638, 758], [566, 1601], [37, 356], [992, 8], [153, 95], [108, 146], [4278, 3568], [2059, 67], [521, 252], [117, 1804], [63, 73], [507, 1689], [600, 6], [82, 582], [113, 60], [2280, 2883], [57, 103], [26, 2504], [1752, 200], [63, 70], [2265, 948], [2880, 168], [4294, 104], [3118, 590], [268, 361], [1941, 6], [139, 68], [154, 64], [481, 387], [2223, 252], [171, 218], [588, 433], [248, 92], [1617, 3143], [61, 3241], [2466, 2677], [694, 110], [86, 1147], [4258, 449], [1048, 860], [507, 4054], [875, 296], [877, 853], [108, 6], [51, 112], [358, 2050], [388, 501], [41, 26], [322, 66], [1036, 67], [721, 94], [300, 133], [89, 2073], [712, 421], [51, 124], [714, 427], [642, 191], [37, 627], [3225, 52], [595, 6], [1210, 55], [274, 359], [1823, 421], [1427, 61], [95, 157], [258, 4160], [409, 1804], [71, 100], [1319, 6], [23, 297], [43, 3544], [4343, 628], [2517, 290], [61, 2743], [3840, 64], [3602, 672], [3279, 2383], [122, 85], [660, 94], [57, 2110], [67, 57], [2673, 2619], [403, 192], [358, 450], [2693, 89], [89, 570], [595, 8], [1801, 439], [282, 1739], [1756, 488], [58, 3523], [607, 6], [135, 55], [3628, 242], [56, 93], [615, 223], [495, 125], [3857, 355], [855, 241], [2000, 2914], [88, 1207], [2513, 91], [1203, 8], [1092, 168], [2962, 129], [116, 1056], [834, 91], [544, 1659], [1830, 8], [2706, 1368], [54, 375], [2115, 613], [1649, 1947], [50, 637], [67, 1435], [836, 94], [2935, 67], [73, 192], [2592, 67], [427, 168], [23, 341], [34, 1972], [660, 281], [354, 6], [3320, 122], [4397, 273], [1300, 6], [28, 2347], [1012, 6], [157, 741], [201, 107], [116, 111], [1226, 411], [534, 8], [86, 132], [1094, 86], [217, 155], [1534, 50], [960, 6], [1660, 64], [1612, 133], [58, 122], [27, 1708], [348, 196], [776, 8], [210, 6], [2961, 91], [176, 2524], [62, 92], [2866, 112], [3530, 422], [56, 92], [550, 3107], [265, 3246], [1838, 252], [644, 926], [49, 49], [1101, 8], [328, 170], [212, 853], [2208, 3419], [769, 67], [951, 6], [1404, 91], [381, 390], [1675, 6], [779, 191], [1189, 109], [1165, 2569], [3369, 107], [875, 94], [2014, 1903], [90, 647], [2832, 793], [52, 578], [145, 93], [111, 232], [26, 40], [1094, 1153], [2036, 197], [1184, 326], [3295, 591], [1597, 176], [3670, 4346], [1119, 125], [3177, 243], [399, 608], [2090, 1148], [179, 407], [1110, 8], [52, 1535], [2763, 92], [51, 183], [1545, 114], [145, 621], [217, 133], [108, 225], [36, 500], [71, 209], [51, 306], [2739, 91], [7, 97], [1355, 8], [3029, 181], [1750, 91], [66, 130], [1217, 1273], [50, 349], [49, 8], [156, 21], [68, 3219], [765, 8], [873, 6], [264, 67], [24, 2743], [71, 60], [54, 318], [859, 2915], [1582, 6], [2498, 133], [263, 411], [3153, 91], [320, 151], [510, 95], [221, 114], [894, 73], [3736, 473], [824, 153], [520, 3039], [268, 4431], [2083, 66], [3667, 95], [783, 2166], [34, 151], [4506, 230], [1811, 26], [211, 3117], [176, 1975], [116, 93], [1094, 159], [4403, 463], [2010, 94], [56, 105], [176, 96], [150, 73], [82, 42], [693, 197], [945, 1041], [88, 2071], [4014, 506], [67, 269], [33, 3929], [46, 557], [1562, 2650], [233, 530], [2225, 91], [861, 2894], [35, 392], [821, 133], [23, 66], [22, 24], [134, 133], [331, 67], [1261, 399], [1192, 91], [3656, 442], [231, 64], [1451, 3248], [4540, 232], [4541, 7], [4542, 2106], [4543, 7], [4544, 661], [4545, 4108], [53, 926], [100, 8], [1802, 107], [780, 8], [976, 196], [107, 7], [263, 64], [2066, 91], [153, 73], [1486, 6], [1055, 189], [2439, 138], [1230, 64], [4330, 73], [206, 281], [3335, 1947], [204, 1910], [217, 20], [108, 4333], [618, 57], [2342, 94], [40, 111], [138, 95], [3114, 159], [178, 317], [2836, 239], [785, 349], [143, 1841], [63, 192], [1444, 72], [609, 95], [970, 339], [3928, 327], [1234, 6], [1293, 6], [1348, 223], [85, 339], [50, 1150], [123, 573], [585, 454], [4053, 165], [7, 157], [4098, 117], [123, 67], [22, 33], [50, 1213], [99, 6], [374, 6], [2233, 3035], [451, 136], [231, 3049], [459, 176], [434, 1328], [353, 56], [1110, 6], [1634, 296], [240, 662], [174, 155], [1595, 94], [1116, 4191], [2585, 73], [57, 557], [104, 454], [3494, 4234], [3601, 399], [29, 124], [88, 358], [1611, 174], [790, 444], [1419, 8], [100, 500], [93, 454], [1416, 1474], [1138, 8], [1409, 2234], [3871, 86], [2535, 196], [2990, 715], [150, 68], [64, 170], [1116, 1735], [4627, 3963], [4628, 2517], [4629, 568], [4510, 2224], [555, 275], [4009, 125], [2909, 576], [60, 290], [59, 95], [856, 317], [329, 645], [455, 1744], [181, 112], [434, 191], [3621, 1142], [3218, 3622], [650, 234], [51, 240], [108, 211], [2808, 575], [289, 133], [747, 196], [1748, 819], [1469, 67], [2062, 138], [804, 196], [3194, 908], [105, 57], [56, 442], [2311, 430], [1199, 819], [31, 706], [52, 871], [4109, 170], [2079, 114], [67, 287], [306, 114], [1086, 132], [928, 252], [58, 93], [709, 53], [1696, 2014], [2834, 3230], [96, 132], [86, 3154], [265, 4449], [811, 6], [178, 101], [3339, 605], [263, 1626], [1465, 1447], [24, 225], [4245, 114], [440, 853], [1074, 6], [3371, 602], [4576, 1823], [25, 4130], [34, 4578], [57, 2319], [108, 716], [64, 273], [514, 155], [180, 133], [141, 450], [1000, 6], [54, 138], [1382, 132], [195, 155], [24, 89], [1499, 331], [3935, 95], [325, 350], [515, 3430], [428, 191], [476, 1403], [231, 108], [3944, 401], [125, 8], [103, 221], [111, 61], [1234, 8], [313, 401], [116, 1846], [92, 155], [82, 87], [113, 454], [1272, 8], [1334, 6], [2252, 500], [614, 191], [230, 132], [23, 95], [511, 6], [642, 8], [428, 6], [106, 3471], [4612, 145], [217, 1247], [1926, 98], [520, 2221], [52, 1352], [1288, 1267], [164, 104], [818, 91], [4563, 66], [1310, 150], [4734, 986], [811, 8], [804, 6], [139, 161], [86, 1226], [40, 164], [117, 61], [109, 1236], [482, 197], [55, 860], [34, 122], [270, 150], [256, 3915], [4282, 2848], [1670, 279], [111, 704], [661, 4684], [4043, 2156], [1790, 168], [87, 497], [1720, 132], [953, 8], [139, 1784], [67, 21], [67, 765], [549, 8], [1303, 94], [61, 2996], [71, 160], [999, 8], [201, 60], [1059, 6], [1203, 91], [24, 49], [200, 52], [2808, 94], [584, 380], [302, 6], [361, 89], [42, 35], [862, 68], [138, 686], [895, 73], [335, 94], [4105, 98], [1020, 252], [100, 133], [1865, 91], [235, 102], [1630, 563], [1725, 94], [515, 4066], [320, 210], [2903, 416], [1963, 252], [2040, 98], [61, 237], [4733, 408], [819, 105], [1338, 6], [61, 3200], [1363, 64], [231, 894], [353, 66], [104, 271], [59, 73], [492, 528], [1951, 8], [231, 2458], [68, 210], [46, 7], [1493, 53], [27, 4505], [37, 1891], [905, 8], [4747, 270], [346, 1436], [602, 3968], [2120, 91], [2079, 252], [3555, 496], [145, 124], [729, 125], [367, 136], [1529, 8], [27, 86], [752, 291], [107, 439], [3348, 1150], [1334, 8], [3813, 105], [49, 238], [29, 1975], [388, 311], [699, 138], [41, 131], [149, 108], [28, 57], [7, 2847], [1107, 6], [22, 28], [3779, 1371], [3527, 91], [96, 103], [2998, 1761], [108, 422], [2866, 2025], [463, 3011], [59, 819], [63, 52], [2358, 8], [3991, 7], [277, 401], [710, 3579], [2602, 91], [319, 64], [2224, 842], [74, 73], [283, 133], [28, 1472], [58, 783], [1740, 2025], [186, 68], [82, 139], [616, 6], [266, 1886], [1400, 192], [144, 192], [1071, 557], [1808, 125], [109, 3700], [231, 70], [3231, 114], [3296, 91], [1948, 239], [239, 66], [230, 52], [111, 3455], [4275, 2718], [4873, 168], [3633, 3922], [3548, 1140], [62, 148], [634, 137], [61, 251], [812, 191], [3350, 73], [1430, 114], [358, 713], [74, 91], [3487, 865], [1896, 317], [310, 1513], [204, 2061], [1775, 6], [2636, 94], [1432, 137], [4891, 1659], [90, 81], [2566, 252], [1686, 8], [122, 1374], [42, 34], [34, 53], [2284, 264], [64, 637], [1935, 91], [138, 8], [761, 62], [179, 4546], [1213, 1890], [318, 528], [207, 234], [64, 2711], [1084, 2664], [2810, 95], [64, 594], [68, 196], [142, 1197], [60, 102], [24, 536], [1224, 739], [1924, 1329], [4037, 739], [2299, 401], [4655, 130], [2197, 94], [4393, 1262], [907, 64], [929, 67], [232, 66], [34, 141], [1443, 222], [4577, 638], [23, 270], [1291, 6], [146, 204], [817, 8], [603, 158], [181, 990], [1163, 8], [35, 1742], [1640, 94], [1546, 1436], [1757, 8], [36, 148], [603, 165], [1227, 1148], [1653, 8], [471, 63], [288, 135], [64, 157], [55, 318], [1326, 8], [188, 132], [1530, 6], [3030, 182], [71, 4056], [55, 153], [2371, 161], [206, 95], [1653, 6], [66, 542], [548, 254], [316, 20], [1161, 6],
[...]
