{"vocab":{"939":"inside","2805":"shake","2257":"ined","3842":"intellig","4954":"fisher","3284":"pizza","3781":"tied","5804":"owl.","6180":"ucky.","5716":"ow!\"","1640":"cars","6535":"shrugged","8032":"\"One,","3861":"fed","3437":"balloon.","1663":"icy","514":"\"I","4995":"cap","6597":"amazing!\"","3573":"empty","4324":"ccoli","3760":"bridge","5430":"Ben,\"","2002":"past","2762":"collect","2522":"replied","688":"this","4553":"ate,","769":"\"O","6423":"Sarah,","4237":"theart","880":"con","4761":"weigh","4157":"saying","2765":"Together,","6748":"festival","4749":"nodded,","6806":"wheels.","6021":"solved","2752":"cream.","2356":"ship","716":"love","562":"dog","7005":"his.","4802":"running.","5619":"shrug","80":"o","284":"ver","323":"ant","4113":"relieved.","6345":"equip","7402":"toe","3639":"unlock","2713":"vegetable","6090":"uce.","2557":"outside,","2983":"sna","6326":"surprise!","4227":"meas","3071":"tie","7691":"kicking","940":"it's","707":"pick","3098":"mommy,","4788":"brother,","5979":"Tin","6375":"..","8015":"Jill,","3139":"realised","6019":"bananas","7835":"sorting","121":"í","7354":"\"Mama","7683":"bad.\"","515":"cit","5114":"mattre","392":"ry","1029":"cho","3512":"reg","6672":"perched","3490":"print","5488":"herself,","4729":"playground.","1363":"wrong","4762":"pru","330":"they","1399":"contin","702":"eat","2532":"ski","2946":"times,","300":"Lil","2059":"cake.","7420":"universe","4739":"rubber","7254":"Leo.","2612":"light.","7701":"\"Hello!","7466":"money,","8086":"control","5856":"choice","3401":"queen","306":"ad","5178":"mask","5056":"are.","6891":"lawn","7648":"grat","977":"ught","586":"wo","3986":"univer","5846":"digg","871":"ished","758":"self","4831":"run,","5332":"bathe","6640":"bene","5961":"papers","6044":"rake","3467":"mixed","3325":"terri","4100":"-aid","6141":"temple","6462":"pepp","2661":"well","411":"could","6594":"sugar.","343":"ent","4099":"screw","5254":"seat.","1134":"cut","3035":"Tim,","3491":"Jam","2829":"jumping","5086":"teacher.","1024":"less","4501":"offe","6233":"half.","3319":"job,","6403":"key,","1929":"belong","1000":"shiny","4517":"ucked","1097":"ring","1584":"gl","264":"il","7414":"lemonade","2349":"y,\"","2414":"could.","2024":"gentle","585":"Max","1425":"tight","1515":"carefully","5564":"OK?\"","5671":"\"Help,","6154":"gaz","5688":"vanished","5354":"keeping","4376":"shield","4994":"camera","7863":"hugging","6299":"back!","1426":"doing","3003":"Leo","5535":"bee.","1372":"children","2289":"epend","7478":"write.","7073":"weapon","5765":"olive","6616":"mattress","7265":"bags.","1975":"ten","3403":"honey","5458":"restaurant","6433":"field,","3752":"mistake.","2489":"whenever","4155":"filth","1833":"?”","6190":"Katie","806":"Can","1302":"ies","7685":"hide-and-seek","1803":"school","4242":"cage.","1850":"ation","7930":"fish!","2406":"cute","7966":"touch.","351":"not","4759":"lam","5045":"cardboard","373":"ed.","4412":"delicious!","5072":"two,","7533":"jelly.","5367":"ornament","8106":"started.","7816":"andy.","4615":"Flo","4943":"sunglas","6286":"tape.","7787":"careful!\"","4822":"doll,","653":"cre","4533":"tax","5309":"balls.","5930":"pe,","524":"excit","4854":"go.\"","7172":"squirrel,","2157":"strong.","7427":"discovering","1962":"taking","211":"的","1058":"sure","608":"thought","881":"door","2209":"shell","3020":"incred","6568":"fuel","4218":"guitar","7562":"hats.","4554":"ambul","5596":"loop","6590":"suffer","4036":"aler","4968":"help!\"","4697":"ingredients","5477":"adventure,","6215":"Ollie","7294":"hole,","8066":"theater.","1984":"driver","6211":"pretend.","5655":"\"Wow!\"","5682":"appy","6760":"shower","2081":"I'll","2793":"sandwi","42":"H","1353":"bar","463":"felt","6145":"plays","6524":"asking.","8108":"sleeping.","7539":"tool.","5205":"secret.","1656":"bran","172":"❤","6550":"rust","3465":"scarf","6737":"sliding","4487":"Jess","2041":"blocks.","4702":"seal","5587":"kitt","3865":"given","4478":"is:","4570":"lend","1391":"finished","7331":"whistling","4057":"send","865":"Luc","7591":"\"Ready,","7882":"puzzles.","6752":"wanting","5833":"soil","5968":"pants","7994":"barks.","5567":"crown.","6873":"wonderful.","567":"der","1281":"climb","3024":"measure","233":"𝑐","3083":"dolph","7748":"worry,\"","246":"ed","6431":"butterflies.","3508":"sou","2237":"organ","5082":"loudly.","5270":"exerc","757":"nt","8056":"dull.","1159":"sees","3462":"Your","7278":"slippery.","113":"ß","7234":"task.","7287":"massage","3884":"hurts","155":"—","669":"says","744":"shin","3555":"\"Re","7636":"Floppy","4847":"Later,","2639":"save","3411":"fresh","3299":"zi","5817":"sailing","7551":"drawings.","3553":"stumbled","888":"called","4088":"obedient","3260":"depend","3693":"ster.","4094":"ador","5569":"splashing","4431":"corner.","2862":"osaur","162":"„","3251":"hose","5780":"floor,","671":"gave","7488":"aded","7504":"practicing","7542":"seen!","5748":"truth","667":"home","356":"ittle","876":"orn","5510":"Luckily,","3609":"vase","4795":"els","4707":"fan","7768":"pitch","2413":"night.","2163":"road","2570":"leaves.","8085":"librarian","2385":"oven","6267":"pot,","5974":"wizard","3033":"problem","77":"l","4776":"ducks.","4977":"mitten","4215":"starts","6293":"ased","7812":"there,\"","1292":"cry","4584":"vend","6962":"underne","1102":"pain","4070":"run.","4772":"questions.","5731":"kindness.","3315":"mighty","7674":"pearl","7704":"homes.","6088":"notebook","4446":"bees","7498":"purse.","2843":"gathered","4758":"Maggie","94":"}","7048":"breaking","5962":"soccer","980":"brave","594":"took","4893":"ostrich","6171":"Jane's","7410":"Afterwards,","2261":"spin","3063":"okay?\"","6757":"Hanna","3552":"chair.","507":"look","5734":"hits","1256":"cake","1609":"worry,","875":"surpris","1894":"val","1163":"\"It's","1316":"closer","3905":"dreaming","3484":"zy.","3056":"suggest","3730":"cars,","304":"with","714":"uc","6486":"palm","6641":"cheek.","8149":"zoo,","4360":"nods","7419":"greedy.","5078":"barking","1110":"help.","4356":"port","4035":"attra","4171":"otter","6871":"cutting","4676":"waffle","5449":"scissors.","3008":"mic","4234":"mug","1380":"mat","1891":"forget","7095":"friend!","1195":"ati","6106":"page","1088":"fir","8132":"odd","3335":"Whe","1223":"world","1038":"swe","1901":"good.","717":"off","7958":"thro","8011":"offer.","4563":"Th","3320":"couch","2869":"kitten","6244":"clapped.","2877":"wagged","1822":"agreed","2383":"loom","4430":"organize","3890":"pian","1556":"itten","5016":"yet","3651":"moder","7935":"panic.","3987":"ass,","6065":"palace","2919":"ball,","7276":"polit","457":"low","72":"g","1090":"tin","6636":"holiday","4964":"slipper","6969":"waited,","633":"ink","471":"bir","1637":"fast.","7967":"costume.","1406":"far","7165":"Sant","5092":"Pen","5696":"rabbit,","4955":"carrots.","6281":"says:","6707":"friend!\"","1284":"first","3331":"once","4602":"tools","2462":"cheese","917":"won","1715":"age.","3923":"fruits","8119":"yawn","470":"ure","6096":"cabinet","3409":"itter","7249":"hammer.","1795":"feels","4899":"exciting.","3380":"dough","6027":"size","886":"real","7644":"printer","2989":"money.","3506":"cle.","275":"He","2159":"accidentally","3717":"soap","6224":"petals","7689":"nervous,","2721":"birds.","1345":"mor","1006":"tal","4158":"ath","1844":"pop","140":"ᴏ","2427":"Jan","3395":"choose","7374":"strum","5528":"flower,","66":"a","174":"。","1321":"ign","4924":"handle","1211":"better.","4246":"treats.","3138":"pump","6553":"hair,","6976":"carpet.","2423":"remind","3352":"now.\"","6839":"sip","3549":"iest","6479":"Thom","1804":"brown","6981":"\"Or","3518":"amond","4912":"m,","3924":"better.\"","958":"tree.","4145":"gain","1577":"kids","1423":"needed","7510":"do!","4313":"finger.","6464":"low,","2268":"war","517":"scar","5923":"foot.","3507":"ny,","1687":"Be","6105":"inky","1980":"hit","3540":"birthday.","1996":"Le","3591":"chose","6996":"choice.","823":"nice","4253":"sle","8052":"student","5482":"harbor","670":"ite","3695":"gum","7559":"grown-ups","1378":"while","3681":"noisy","8035":"tongue.","2495":"Little","6470":"Tom,\"","7645":"exploring,","4423":"eggs","1471":"lost","3740":"name.","4410":"cookie.","7927":"partic","644":"rd","5786":"three,","6917":"paws.","3363":"lli","168":"€","2686":"surprised.","2794":"fig","2966":"ucky","1994":"fing","4575":"listening","440":"You","1919":"side,","3456":"batter","6417":"lt","6984":"marching","721":"And","6442":"overjoy","4450":"-old","2757":"knowing","247":"and","5227":"tucked","1274":"ple","3992":"soft.","4228":"anyone.","8038":"ah,","887":"arm","1778":"go.","1655":"family.","7116":"see?\"","3797":"Inside,","112":"É","4097":"tion","5499":"vegetables.","4348":"ile.","5060":"First","3603":"salad","6714":"bake.","1143":"deli","5784":"OK,","7796":"success.","5557":"automob","7579":"\"Uh","8":"&","4039":"jungle.","83":"r","3119":"t,","5057":"oyster","763":"bea","1632":"gg","3791":"tears","2774":"warm.","4871":"nowhere","4281":"aroo","1736":"alth","1888":"d.","2906":"medic","2404":"fun!\"","7736":"pole.","3799":"tur","7799":"Nick","2373":"castle.","3754":"dy,","7820":"pected","3574":"nice,","5942":"wre","2239":"gone","4722":"Miss","7711":"patted","4653":"bandage","5584":"Rachel","3460":"try.","3488":"blanket.","1913":"hor","6309":"Ma","6784":"it?","4243":"radi","4781":"bucket.","7980":"items","242":"<|endoftext|>","5925":"lake,","2366":"bottle","5708":"punish","8151":"olly,","6561":"lia","755":"ving","2736":"over.","2997":"note","3013":"dol","5756":"hood","5620":"somed","5770":"office.","1698":"park,","2376":"ast","2942":"lemon","5129":"him!","5986":"microphone","6624":"thrilled","6686":"Mam","3100":"borrow","1455":"Go","2342":"hole.","1600":"whis","2091":"ps","2106":"\"Of","2840":"\"Where","3202":"sword","3782":"sweet.","774":"pu","3719":"picking","4918":"langu","7438":"Chirpy","3989":"\"There","6596":"ided","5627":"up.\"","319":"go","4123":"afterno","5203":"shouts.","407":"ind","4516":"journ","6093":"harder.","6377":"menu","5828":"pole","509":"came","4985":"today,","90":"y","1469":"Gr","7209":"chance.","3077":"Max's","7330":"ends","7630":"please,\"","6638":"Spike","1200":"th.","4397":"movie","8020":"wall,","4532":"fine","5038":"panda","7334":"struck","3689":"peanut","738":"park.","5875":"card.","1592":"ny.","6042":"provide","4362":"coins","3713":"rose","6791":"\"Will","6391":"child.","814":"rong","2979":"dish","6724":"robe.","5281":"mustache","4987":"\"Anna,","365":"sm","3606":"stretch","4047":"dirt.","3953":"above","1934":"clapped","1315":"down.","5030":"gging","7340":"dresses","7380":"more.\"","7977":"is,","6591":"porch","6212":"pit","6312":"watches","1212":"uch","1059":"bow","5074":"marry","5873":"cups","3494":"different.","4870":"hock","5883":"shade","3102":"keeper","237":"🍞","6077":"boxes.","3517":"Hel","6087":"gasped.","7850":"mun","4558":"locked","6167":"time!","2167":"Now,","1443":"Finally,","2302":"first,","1651":"wing","4843":"Clara","6539":"bathrobe","6762":"telephone","749":"oug","2924":"saved","1326":"years","4188":"knife","3826":"treats","318":"that","7887":"truly","3394":"\"Wow","3833":"charm","3856":"sorts","8081":"wreck","4856":"cozy.","7622":"permission","761":"learned","4938":"staff","6487":"Moral","4667":"fly,","3362":"claim","7934":"Mira","2885":"midd","7246":"Jenna","1676":"hands.","7446":"tugged","7688":"worked!","6239":"want.\"","468":"see","212":"童","1578":"ced","2825":"admir","7114":"Jen.","4545":"bracelet","824":"mom.","1553":"train","1987":"ance","2450":"neckla","7789":"enjoy.","8144":"spoons","1892":"stone","2123":"instead","1754":"done","3998":"siz","4054":"comfortable.","2637":"sup","673":"sun","4120":"understand?\"","7111":"change.","7978":"heart,","4790":"Lilly","1993":"again,","1967":"mail","483":"ame","565":"bb","5840":"jealous.","6751":"subway","7599":"result","1404":"ike","1066":"ward","3705":"lla","5157":"strong,","3245":"guit","6603":"you?","4419":"Papa","3611":"door,","6010":"today.\"","6821":"illy,","5053":"voice,","1255":"There","1431":"\"That's","130":"ɪ","7292":"juicy.","5983":"bravely","4919":"answered,","593":"here","3180":"toug","5379":"hall","6736":"digging","7567":"goo","6607":"aser.","1339":"window","2550":"stir","3091":"forest,","2859":"comfortable","3900":"arms.","7281":"sugar,","5547":"were.","4803":"chor","1041":"watched","4371":"garage.","2304":"minut","5026":"either.","7584":"flashlight.","2371":"step","4713":"rolling","7117":"hive.","4365":"paid","2852":"noises.","6214":"lice.","2771":"party.","5385":"louder.","3502":"life.","706":"es.","2332":"pan","2478":"stri","5084":"harmless","1845":"him,","4659":"leaned","4119":"wind.","1917":"leaves","6272":"driver.","7436":"engine.","3524":"joined","7695":"reef.","3586":"imagin","7222":"ceiling.","8171":"tray.","4846":"want.","1808":"tu","7207":"scale.","401":"ill","3323":"cudd","4949":"sneak","5265":"scolded","6610":"piece.","1726":"Grandma","6898":"answered.","1788":"balloon","7107":"permit","7649":"master","1774":"oup","2396":"ilt","3130":"exam","4136":"left.","5834":"up!","957":"being","1276":"sweet","1893":"Anna.","3117":"cher","840":"\"You","4293":"cooked","6084":"nature.","1416":"\"H","505":"ing.","2468":"wore","2488":"twins.","4169":"bur","7960":"tempt","5737":"teaching","4026":"flour","4203":"bounced","3449":"showing","4765":"ever!\"","5661":"hockey","1566":"listened","6639":"accompl","348":"tim","4294":"apple.","5288":"symbol","7877":"dared","4621":"learnt","3528":"reli","2275":"higher","6208":"sofa.","2229":"matter","1781":"her,","6072":"lets","481":"ong","3448":"Ellie","2715":"bag.","5002":"happiness","1925":"shop","5344":"trap","7552":"filthy.","6478":"stubborn.","2783":"spla","3103":"figure","6488":"Josh","7350":"\"Stop!","4522":"cact","7465":"going?\"","73":"h","7617":"pipe.","4275":"find.","4012":"pho","7855":"Fox","2953":"sunshine.","8100":"fields.","5997":"scary,","6457":"passport","1348":"ered","4137":"ordinary","2270":"That's","1307":"min","921":"nodd","3618":"shone","3894":"Joey","2592":"bel","3648":"soon,","218":"艾","934":"head","1741":"grass.","6287":"trophy","1764":"stuck","574":"Anna","2615":"crying.","4095":"pressed","1674":"special.","4381":"kitchen,","7557":"petal","7329":"possible.","6344":"can,","3643":"tank","2023":"cir","5852":"bird!\"","725":"hugged","4138":"fur.","7134":"maze","855":"house","6798":"pan.","5154":"walk,","4357":"freez","3623":"bounce","5677":"eraser","3018":"become","5920":"football","5248":"throwing","1262":"goodbye","4862":"leaf.","6783":"sail.","5936":"sizes.","1999":"longer","2306":"Jenny","3522":"toy,","4979":"break.","7193":"closely.","2278":"mom's","297":"she","4118":"ended","4811":"picnic.","7409":"va","208":"田","165":" ","2994":"splashed","1047":"strong","5218":"feathers.","4458":"laughed,","6618":"whatever","6608":"Snowy","573":"than","5622":"amazing!","6926":"umbrella.","48":"N","8136":"cheer.","4122":"Bet","2284":"puzz","4096":"smaller","1957":"hugs","4701":"lawy","2536":"Rex","3579":"camer","8115":"removed","7538":"chair,","5541":"impatient","2784":"wolf","6079":"butterfly,","3674":"square","7899":"mice","6116":"frowned.","4465":"owner.","4857":"shouldn't","2026":"place.","4682":"cauli","5992":"coins.","3645":"adv","5609":"Ben!\"","2491":"pile","525":"\"W","1466":"squirrel","6644":"inside!","6833":"jokes.","5330":"sham","5307":"fearful","7718":"home?\"","3218":"closer,","8047":"cake!\"","3649":"gift.","7491":"story:","106":"°","4308":"closet.","4160":"did,","4587":"trip.","6894":"rug.","6933":"Bob,","2223":"watching","1192":"Then,","2737":"anyone","1503":"cover","2608":"sour","5825":"lime","1241":"pretend","2811":"issor","5296":"sack.","796":"even","3660":"solve","5582":"bill","6149":"shooting","1084":"illy","6880":"patiently","7775":"reaching","5322":"back.\"","631":"br","7903":"confused,","1856":"listen.","1543":"friends,","3775":"cran","5166":"pinch","6758":"evening,","1013":"I'm","5280":"grill","6367":"ordered","6998":"longer.","1816":"comfor","5054":"fauce","6896":"numbers.","2222":"flower.","1007":"sound","1706":"it!\"","5058":"iness.","4971":"grocer","1447":"met","2664":"Give","2125":"urt","5096":"follows","5117":"played,","4092":"hook","765":"better","478":"s,","845":"tree","7856":"Billy,","5371":"hand,","1250":"cold","7749":"flap","681":"box","3541":"treat.","7130":"serious.","1360":"chil","3559":"dust","7060":"drive.","955":"lie","501":"park","5665":"gun.","4603":"sprink","7786":"plenty","4662":"cricket","253":"it","3341":"teeth","5966":"sage.","5239":"rr","6157":"obey","91":"z","5077":"fish,","5668":"delay","6346":"afternoon","2708":"go,","2149":"suc","916":"feeling","6354":"attached","4715":"better,","5603":"crawling","96":"","4199":"tory","4863":"forth","371":"friend","5598":"shovel","7018":"shoulder.","3105":"amazed.","3414":"pi","1251":"ready","6360":"Mor","7306":"parents,","2514":"hum","1683":"shar","4492":"feathers","1098":"inside.","7328":"printed","3454":"Whenever","3854":"ction","3186":"four","7702":"nuts.","4258":"helicop","7251":"proudly.","597":"ma","1717":"sometimes","7859":"bunny,","5206":"slept","3135":"plate","7313":"Kitt","6851":"Amy's","3250":"pray","4618":"quarrel","1351":"At","405":"ec","3870":"smo","2444":"nearby","340":"ok","3795":"patter","2296":"fun,","571":"Sara","4967":"statue","1481":"away,","7381":"oh","3086":"lid","1841":"paint","6311":"x-ray","3027":"life","746":"exp","1787":"\"Mom,","2981":"often","3404":"sandwich","5572":"library","7890":"unexpected","8058":"nightmare","6043":"tornado","5779":"Grandma.","5148":"screen","355":"ther","5611":"refrigerator","346":"et","6337":"Uncle","7308":"Mon","2913":"words.","834":"hard","3527":"hoop","3629":"acorn","3650":"coun","3487":"Mia,","230":"﻿","2314":"beach.","2065":"wand","5555":"elephant.","3125":"supp","1761":"bas","5008":"streng","3430":"arm.","5824":"wood.","4848":"me,\"","7770":"Bobo.","1737":"stepped","2189":"dinner.","5387":"weep","1209":"tra","2610":"disappo","7218":"sorry,\"","7815":"Day","6396":"\"OK,\"","8061":"harbor.","6598":"Mommy!\"","4638":"ation,","4905":"\"Your","7765":"regretted","5644":"bigail","7125":"clean,","6285":"nice!\"","2518":"tool","6642":"melted","7867":"Hi","4496":"couldn't.","821":"fam","2525":"spoon","3349":"az","4091":"separ","3920":"suit","3554":"on’t","4257":"lly.","1161":"three","527":"who","699":"open","1189":"outside.","4650":"intelligent","5913":"advice.","7348":"happens.","3615":"cries.","5595":"sandwich.","4610":"meadow.","792":"beaut","536":"when","1244":"Fin","1992":"ses","1533":"climbed","2888":"sca","3318":"grumpy","3471":"instead.","2775":"taste","4185":"trump","3360":"obed","4372":"didn’t","3287":"safel","4406":"ade.","4764":"Instead","5243":"bin","4668":"riding","5552":"calend","7520":"slides.","3739":"ver,","3866":"collec","396":"them","250":"re","5754":"improve","6504":"villag","6756":"heat","3568":"sink","7158":"fearful.","249":"in","5125":"led.","4834":"machine.","5091":"tutor","3228":"Grandpa","539":"qu","1092":"leep","3140":"yog","4688":"hoping","5713":"scooped","7569":"sneezed","6541":"planted","390":"ag","3872":"compassion","7362":"see.\"","4198":"somewhere","7781":"Carl","5435":"poked","942":"aybe","3249":"frighten","7862":"cereal.","4774":"visited","6536":"vic","2559":"stra","7752":"disgusting.","3747":"ocean.","5508":"vac","6924":"softly","8091":"chickens.","7637":"suit.","5347":"woods,","2579":"crying","2992":"here.","2577":"forever.","8039":"gem.","1740":"di","4191":"twirled","6841":"great.","4535":"dolls,","2400":"respect","3954":"obj","6698":"catching","6627":"giggled.","1648":"Max.","7028":"rhythm","3161":"using","5009":"ignorant","1544":"join","8162":"hills","5994":"hotel","2402":"thin","2070":"gone.","1817":"Jimmy","2247":"respec","4349":"haircut","5192":"salt","4725":"bow.","4836":"dinner,","5816":"mop","8027":"here!","36":"B","599":"spec","4424":"Annie","8099":"spot,","919":"ile","3642":"fluffy","810":"iful","4548":"safe,","7731":"reluctantly","3804":"jam","4429":"forgave","2382":"picnic","1956":"cookies","3090":"My","2761":"lonely","4973":"roared","7214":"amazement","1867":"cried.","3762":"cabin","1349":"dress","5050":"reve","6453":"\",","5436":"shoe","6785":"caut","7641":"spaceship","2667":"gun","1039":"big,","6058":"supposed","4601":"idea!","1537":"lion","3501":"snif","4013":"base","4840":"true","3336":"town.","2599":"determin","2896":"You're","4674":"motorcy","5348":"triangle","8161":"shiver.","3240":"cab","2301":"patient","3592":"lion.","7566":"argued","5319":"\"P","144":"ᴢ","3064":"check","1784":"hung","7127":"chef","1246":"thank","7200":"windows.","1421":"wonderful","4402":"either","6948":"soon!\"","8116":"bag,","3818":"courage","6144":"energy","2588":"Pa","6999":"perfectly.","1107":"ached","3254":"week","4798":"enthusiastic","5351":"ple.","1467":"key","5474":"still.","3601":"mine!\"","1943":"cal","460":"ick","7361":"lions","3452":"Sam's","54":"T","2003":"\"Do","6892":"up!\"","5855":"bikes","5437":"bottle.","6773":"candles","684":"We","889":"kept","686":"told","4107":"Before","3184":"bump","6181":"novel","6868":"copper","680":"tried","8178":"Put","7866":"Tom?\"","2216":"hungry.","2272":"ian","7345":"wonder.","5890":"Mittens.","4818":"hippo","2930":"school.","1501":"row","1767":"’t","7425":"seagull","1593":"music","1100":"dan","6184":"forth.","2841":"sil","3988":"messy","6016":"event","420":"But","3269":"go!\"","3406":"accept","5249":"flea","5228":"message","5419":"inking","5871":"steam","5454":"dizzy.","7239":"spoiled.","8089":"police.","5730":"country","5880":"immediately","2242":"ised","5093":"club","5752":"chocolate.","3881":"cing","4290":"pale","775":"my.","6384":"high,","55":"U","4952":"ari","312":"so","1642":"\"Maybe","6843":"loaded","84":"s","2929":"especially","3729":"embarrassed","3392":"fier","13":"+","3509":"best.","4853":"rise","7211":"soaring","1023":"repli","4597":"true.","6634":"orange.","6879":"contro","4671":"golf","6269":"muscle","1067":"high","6578":"Spark","5625":"Sha","6570":"bad,","7627":"home!\"","6645":"nation","7881":"Rex,","779":"able","4666":"poke","4006":"quickly.","7247":"catch.","3293":"banana","3617":"legs","7407":"taste.","4238":"Sm","1871":"neck","6643":"turning","185":"兩","1253":"ball.","7174":"youn","7664":"pouring","2904":"ipp","3511":"dom","1138":"chen","2824":"moment.","998":"\"No,","5695":"tour","4504":"starting","6323":"lunch,","4751":"sla","5258":"numbers","6800":"hurt.\"","427":"art","5142":"shocked","7767":"protected","4383":"independent","3837":"study","4540":"now?\"","2792":"peaceful","6466":"antly","448":"fo","380":"ug","5521":"promise.","2025":"mess.","2417":"fold","6034":"shed.","7027":"Help!\"","6219":"play?\"","7057":"simple","2018":"s,\"","3787":"hot.","3134":"frown","7058":"investigate.","6330":"stam","5815":"fisherman","6390":"soldi","6456":"do?","7556":"ceiling","7321":"strawberries","1878":"happy,","2456":"mountain","640":"excited","3955":"cereal","7314":"cool,","5452":"eaten","7070":"sparkles","5573":"paper,","3280":"ature","4886":"compassionate","150":"‎","1915":"bee","3045":"chocolate","2632":"cord","1359":"ket","1234":"ft","557":"your","2251":"hungry","4623":"inse","2665":"pay","3983":"other,","7279":"uniqu","3310":"Nemo","691":"ate","7468":"lem","2381":"soup","7513":"rise.","7912":"them,\"","7403":"radio.","2558":"TV","5469":"mailbox","3136":"smiling.","4756":"ment.","2541":"rank","4174":"chubby","6148":"curled","931":"smiled.","1252":"hold","1588":"table","37":"C","2347":"\"B","2523":"barked","5012":"quack","3756":"sunshine","4045":"yaw","2485":"cars.","6333":"letter.","1820":"child","7839":"knight.","5646":"polite.","610":"ust","6852":"es!","5617":"holes","2673":"hiding","3852":"finger","5090":"veterin","8103":"company.","7464":"stole","3539":"clu","734":"His","438":"ab","1184":"Jane","7377":"socks","6576":"manage","7937":"yogurt.","2298":"teach","8053":"clear.","7629":"ed.\"","3204":"managed","6768":"inch","7652":"introduced","2706":"you,\"","756":"until","1794":"wet","5932":"bbie","7044":"slow,","4340":"growing","2246":"vill","1381":"mouse","5067":"ek.","7076":"introduce","1959":"woke","7800":"sand,","2569":"sea","1591":"while,","1095":"ch.","1852":"else","3074":"trouble.","5187":"sprayed","1305":"worked","4684":"nice.\"","5813":"label","7760":"ular.","2148":"huge","2567":"lake.","4127":"food,","5839":"help.\"","6735":"spike","3569":"weird","3892":"jug","2734":"drew","6540":"wand.","898":"joy","3633":"telling","5659":"book,","1053":"pretty","2071":"wra","4083":"cheered.","2407":"ban","8189":"eyes!","6489":"wooden","5374":"bouncing","2363":"Let","4314":"bigger.","8007":"wasn’t","2181":"air.","5835":"fit.","6147":"fruits.","4065":"ffin","587":"our","3995":"oven.","1690":"plant","502":"together","3376":"stru","5197":"wire","2499":"promise","7346":"bloom.","5194":"unk","4550":"times.","5906":"stage.","1719":"race","6261":"slowly.","1166":"mes","4004":"metal","1337":"slow","3675":"fierce","4082":"proudly","428":"time,","6793":"noisy.","695":"says.","3196":"pee","1249":"Tommy","1128":"only","2205":"room,","7356":"village,","431":"new","1625":"corn","1573":"baby","2560":"out,","378":"ake","2524":"stories","5132":"shout.","6677":"“Can","3171":"order","3438":"ee","2816":"esca","6388":"ric","928":"hurt","5321":"video","3014":"loud.","6451":"trade","1310":"\"Look,","3429":"cur","5492":"knob","4133":"od.","6411":"factory","3048":"machine","5902":"came,","7391":"bicycle.","6761":"tea.","1152":"hear","3241":"favour","5450":"game,","6778":"glass.","1583":"butterfly","1551":"head.","3994":"exper","2856":"Mommy.","4645":"ticket","499":"ight","1811":"lun","3246":"snow.","1685":"such","5037":"\"Here","2657":"meant","5740":"\"G","7387":"loving","2936":"hopping","694":"proud","826":"ama","1374":"noise.","7946":"traffic","2635":"twins","3026":"determined","2696":"fla","2211":"herself.","506":"po","1087":"andma","16":".","5163":"apart","352":"ly","1389":"mou","2628":"\"Please","3936":"witch","4276":"button.","4297":"nervous","6205":"-ray","6245":"feelings.","7433":"see!\"","895":"imp","7957":"pping,","6069":"brings","3845":"plane.","5422":"cake,","5755":"breakfast","3838":"no!","4784":"peek","5256":"Help","7660":"increase","2014":"res","4779":"hadn't","204":"時","6336":"earthqu","7440":"toes","3277":"scare","5736":"wigg","3722":"tape","776":"fi","5853":"\"Yes!\"","7712":"member,","1610":"white","8175":"lied","6159":"“That’s","4442":"uncle","1694":"ez","5175":"tidy.","3359":"brother.","2555":"stars","705":"per","1176":"fire","994":"\"That","244":"an","226":"","5630":"’re","7582":"backyard,","1873":"att","7687":"powerful.","3217":"love.","5022":"city","2291":"front","3846":"songs.","8120":"Jim.","4858":"seek.","4906":"grow.","3909":"sailor","4266":"backpack","5375":"swinging","8003":"helper.","2822":"crown","5579":"fallen","7437":"toast.","5903":"Zoom","2682":"shapes","3234":"ones","6491":"later.\"","6558":"landsca","2303":"which","7384":"unlocked","3686":"right,","967":"food","332":"my","2760":"snowman","3917":"driving","1954":"excited!","975":"Do","5990":"Hop","4337":"“That","2653":"Pet","2968":"wanted.","5912":"ast.","624":"special","885":"prett","2269":"zoo","3776":"shark","7037":"saying,","5762":"colorful.","4641":"sounds.","4544":"tunnel","3887":"paint.","4810":"interesting.","4916":"refused","4593":"distant","4255":"goose","1877":"lon","3197":"wrote","4456":"recogn","6304":"coats","3836":"thus","846":"Bo","7160":"draws","3538":"rub","7794":"hook.","3231":"ocean","1075":"family","2613":"re.","3750":"Ru","1558":"ass.","4567":"comb","4675":"win.","7280":"\"Dad,","4049":"ddy","295":"ke","7102":"eight","3324":"ic.","2231":"me.\"","156":"―","3276":"rich","7335":"grapes.","6195":"dreams.","2030":"apple","1407":"mar","1947":"with.","4466":"tomorrow.","3589":"this?\"","5987":"King","5229":"creatures","3112":"cool.","7240":"\"Ok,","2068":"grab","7802":"responsi","476":"start","540":"side","2510":"me!\"","6722":"Cat","5491":"sandwiches","563":"king","4632":"lives","62":"\\","1142":"gu","2847":"stick.","7167":"toy.\"","5147":"Tony","4403":"value","4042":"curt","6666":"them!","2122":"blanket","119":"é","2681":"mark","5505":"film","2390":"number","3974":"puppy.","8176":"breath,","3182":"feet","241":"🤩","5000":"sub","912":"\"No","4726":"bedroom.","661":"Every","697":"each","18":"0","1343":"word","1552":"break","2162":"joy.","3821":"spot.","5137":"blue,","4607":"wool","3530":"nest.","6959":"queen.","632":"es,","3337":"water,","1881":"there,","3904":"bour","7395":"lollipop.","7105":"rules","858":"lea","8054":"language.","2277":"plane","584":"jo","4058":"happy.\"","2320":"ek","1188":"mum","3990":"shoot","3122":"fighting","3679":"thirst","447":"too","3225":"smart.","6732":"woman.","6563":"dancing.","6297":"head,","1806":"pers","179":"他","7038":"creature.","7422":"Cind","7087":"doctors","8074":"each.","1032":"\"I'm","1559":"everything","1602":"\"Hello,","1263":"hopped","1673":"explain","5250":"cocoa","1354":"age","4633":"looked,","5529":"\"I'll","972":"happen","2837":"gets","1094":"ond","4913":"James","2365":"pretended","2329":"andy","2493":"brid","3546":"journey.","4733":"keleton","5443":"gear","1853":"drove","7917":"sticker.","1112":"ious","4909":"knot","5590":"anna","7135":"racing","5670":"slice","4302":"asha","6170":"kin.","5847":"eye.","1758":"lice","8045":"anced","2214":"Tom's","5943":"lucky.","5432":"happening","1507":"dirt","5094":"sign.","7905":"Billy's","7572":"apologiz","4030":"triang","3792":"\"D","6875":"Beth","8122":"mall","1442":"irrel","1306":"yellow","2409":"hang","5908":"costume","6288":"counter","22":"4","4736":"soldier","2276":"window.","4438":"himself,","4801":"walls","303":"of","5758":"dressed","3114":"Bobo","103":"§","2204":"pat","5122":"disappeared.","6194":"church","7250":"dragged","1341":"Jim","2008":"hurt.","2358":"no.","3839":"jolly","1365":"dream","3267":"trun","7615":"ever.\"","6320":"memories","5854":"squeeze","5662":"destin","3034":"trip","2171":"pieces","1847":"shouted","6706":"chirped","5198":"chim","2951":"asks","439":"back","1869":"jour","884":"ace","81":"p","3333":"branch.","3447":"sounded","6944":"Ben?\"","2755":"crab","3893":"placed","7492":"Pip","109":"»","4508":"aches","7484":"burning","1949":"happy!","3938":"sneez","4183":"humble","4914":"behind.","2828":"cro","3963":"nod.","6630":"\"Some","2970":"\"Who","235":"🌹","674":"him.","5600":"Spot's","6173":"fascin","3783":"bottom","238":"🎓","65":"`","6583":"sauce.","3213":"ony","4190":"own.","3093":"enough,","7662":"beauty.","1664":"grate","708":"read","1675":"Mom.","1941":"you!\"","6279":"bark.","5479":"inv","1178":"set","4229":"mud.","6509":"hood.","5958":"Here","7500":"pig.","6230":"Mom!","6134":"ed!","2294":"no,","3354":"store,","5044":"investig","6559":"minute","8062":"friends!\"","1807":"wi","2964":"bench.","7762":"joy!","7809":"neighborhood","7521":"Keep","7576":"bananas.","490":"gether","568":"sha","2161":"ti","1772":"blocks","262":"is","5318":"dreams","360":"ht","1527":"kay","5867":"contain","2944":"breath","6341":"talent","4948":"ahead","5809":"perfor","7154":"cows,","7081":"puddles","6328":"tag.","183":"們","6393":"apron","3899":"dream.","5362":"by,","1539":"tail","785":"where","7596":"farm,","4366":"cheese.","1089":"block","4494":"charming","5554":"licen","6571":"played.","118":"è","2353":"that?\"","4988":"necklace.","268":"ay","3366":"design","4541":"zoomed","5745":"couraged","3330":"foolish","6702":"Sally's","7261":"seeds.","3874":"serve","1171":"bal","1703":"snack","6032":"danger.","2986":"mist","2112":"ener","3258":"went.","6770":"creek","4503":"beetle","7880":"\"Mia,","1270":"farm","974":"walking","6526":"Sadly,","1604":"perfect","1896":"course","6611":"lung","105":"­","136":"ᴀ","3885":"?\".","1210":"ect","3470":"frag","6356":"ree","1622":"friendly","4076":"songs","7180":"billboard","1238":"piece","5520":"zzy","5877":"player","5928":"\"Help!","3619":"close.","6100":"laundry","57":"W","4192":"ostri","8059":"planet.","3550":"seem","537":"ie","549":"ice","495":"na","3871":"red.","4677":"arian","4413":"fis","206":"獨","1149":"air","6178":"Bob's","5693":"medal","6383":"cried,","7940":"Bird","6649":"giggle","2855":"known","2754":"us.","5196":"ning,","7055":"to,","3137":"berries","2842":"expens","3812":"now!\"","8165":"allo","6428":"bites","2851":"sack","7697":"Two","2846":"\"Oh,","7869":"colored","2482":"kite","4408":"leg.","6935":"Rab","3375":"oph","7315":"price","6972":"hurricane","110":"¿","809":"cl","3068":"dig","2590":"tasty","4639":"stairs.","1614":"field","6988":"honey,","6726":"onwards,","2741":"grump","770":"try","4911":"web","2534":"down,","5718":"ribbon","783":"its","2079":"tted","6449":"rum","8018":"deep,","2922":"\"Sorry,","2077":"comes","2683":"interesting","7581":"joy,","8109":"yucky","5799":"hedge","2227":"shelf","2868":"high.","2564":"alone","7260":"mistakes.","2095":"bush","7657":"park.\"","1304":"let's","2337":"rain.","4339":"ee,","1799":"okay,","7824":"lawn.","1665":"board","6943":"son.","6970":"bracele","6825":"us,","5724":"respectful","6028":"thermome","6897":"Chloe","7745":"acted","2898":"faster.","1613":"before.","1254":"touch","1661":"way.","1136":"Everyone","1140":"kitchen","6210":"ball!\"","3436":"Rose","6742":"you.”","6399":"liked.","6750":"\"U","983":"after","3153":"fic","5055":"rescue","6012":"ied","7631":"imagination.","2809":"blu","7871":"urt.","7845":"factory.","3888":"main","4265":"age,","7202":"closed.","5457":"\"Did","6463":"moves","6910":"sir.","40":"F","7948":"kneeled","5111":"excitedly","6799":"brushed","3224":"crawled","6125":"rocks,","7920":"jeep.","3855":"avo","1514":"cket","2388":"ze","561":"happy.","412":"co","5886":"play.\"","2688":"excited,","6763":"perfume","7611":"monkeys,","4385":"show.","6158":"celery","4211":"bug.","2649":"mead","5378":"mechanic","6083":"port.","690":"ear","6771":"measuring","6838":"Julie","7594":"difference","7891":"safety.","3971":"stairs","607":"So","305":"ce","1540":"ballo","7169":"Sunny","5709":"winter","6581":"Kay","1303":"you.\"","6687":"Something","3576":"rushed","5293":"one.\"","6129":"lick","6292":"drawing.","1753":"heart","3984":"couch.","6283":"counter.","807":"give","7886":"Matt","1724":"ange","5971":"atch","6592":"r.","2049":"conf","5456":"quiz","2529":"wide","3431":"fat","4690":"office","7236":"pants.","6436":"sleep,","1412":"parents","2096":"\"The","6071":"friends?\"","7224":"rubbing","8188":"thread.","786":"led","730":"flow","3294":"march","7358":"worms","6460":"race,","7822":"ction.","4111":"hospital.","4066":"eyes,","4201":"bossy","2066":"fly.","2367":"walk.","4341":"spoon.","6886":"sticky","3256":"dolls.","3058":"soar","6840":"carefully,","7467":"rain,","3133":"appeared.","4864":"slow.","6615":"apples,","7670":"luck.","7139":"number.","7614":"crab.","2372":"people.","1684":"ace.","2726":"river.","6922":"birdcage","3222":"os","5317":"hugged.","3004":"Dad.","3050":"ite.","542":"ought","19":"1","2810":"Johnny","3939":"anx","433":"nam","4014":"selfish.","311":"ked","4611":"“Yes,","3041":"grandma.","4161":"stones","1964":"sc","5169":"\"See,","4828":"shirt.","6068":"station","2481":"mine","5138":"piano","7383":"wink","4194":"further","2101":"teacher","194":"她","4657":"magaz","4627":"time.\"","494":"dd","747":"ber","4009":"disgust","5405":"mosquito","6229":"sausage","3172":"gust","7322":"shoulder","1792":"eyes.","4":"\"","4820":"laughs.","5301":"clapping","907":"before","3326":"grace","929":"fish","3755":"painted","3798":"peeked","5922":"examine","6137":"trunk.","2168":"itch","6555":"cow.","4892":"Brownie","7613":"haust","2175":"proble","7255":"deer.","905":"wind","7893":"smaller.","6246":"scur","7452":"cough","2583":"after.","4617":"resp","588":"Lily.","6011":"magic.","2768":"gas","5373":"ambulance","5411":"accepted","6228":"dog!","3711":"als","3810":"plants","7143":"drain","6078":"bathtub","7074":"talking.","1125":"garden.","6081":"choo","2668":"Mittens","2330":"per.","4557":"fork","5549":"collected","1846":"live","3216":"ning.","2671":"jewel","1681":"slide.","6516":"trains","5345":"sniffed","6983":"skipping","7136":"Pr","4311":"barrel","1061":"goodby","4368":"man's","3087":"\"Help","1590":"wasn't","7071":"try?\"","7318":"Tiny","4074":"barber","4683":"support","7979":"neighbor.","3778":"pencil","5759":"Sue's","7588":"nibb","5636":"thumb","1199":"favor","4572":"far.","892":"you,","1390":"snow","1885":"phant","6629":"yellow,","2995":"birthday","2697":"inside,","2543":"shining","2674":"mouth.","947":"repl","1958":"an.","5778":"isn't","5937":"badly.","7272":"bears.","1693":"blan","5062":"shoo","658":"ol","2732":"\"Stop","3060":"flowers,","678":"pa","4585":"anyway.","5973":"yelled,","713":"couldn't","4008":"sandwic","6653":"together?\"","4233":"dolphin","4306":"pattern","2803":"sold","3873":"Mia's","7818":"tie.","3468":"toma","6655":"badly","6918":"ahead.","870":"peop","5124":"here!\"","1021":"mon","2377":"cont","3129":"Let’s","2769":"feed","3765":"Jack's","4101":"reliable","8046":"shined","5500":"comple","4475":"apples.","4709":"beautiful,","5470":"\"Because","6280":"higher,","7797":"curly","3497":"rode","1667":"gif","2127":"fun!","5025":"capt","93":"|","6600":"fash","3561":"ref","2848":"ignor","1882":"sang","1213":"car.","4526":"uli","6165":"\"Hey","7496":"trumpet.","4351":"Henry","8013":"again,\"","4757":"urnit","5341":"body.","2177":"mis","286":"ut","4375":"pet.","6030":"ruined.","5907":"Look,","748":"st.","4996":"judge","6082":"yet.","2262":"pract","4824":"squi","988":"up.","5616":"happier","7299":"happier.","7998":"pite","578":"dad","3146":"road.","7054":"seag","4018":"\"They","1686":"smart","7954":"microscope.","4031":"carto","5704":"dark,","7568":"this.\"","8129":"ours.","7067":"strip","278":"They","985":"Bob","1078":"ph","3070":"scary.","7367":"prayed","853":"sad.","6913":"waits","1463":"bird.","5561":"shiny,","7971":"eating.","285":"e.","6104":"cloud.","2420":"tomor","6370":"flavor","2448":"upset","321":"Lily","7091":"let’s","7333":"do!\"","195":"己","3057":"jelly","4932":"surrend","3237":"puddle","6310":"lily","7385":"texture","579":"ts","3381":"Nex","6569":"mailbox.","3996":"ice-","473":"would","3807":"Pe","5534":"happiness.","2259":"daughter","7080":"boats.","600":"cat","6017":"yacht","1950":"lesson.","2990":"father","3620":"whale","2547":"juice","4531":"fac","7604":"e!\"","3439":"shadow","5683":"Mom,\"","5874":"appreciate","8102":"sunrise","3252":"norm","4289":"enthusiast","8016":"nicer","4922":"ear.","3605":"bunny.","6829":"movie.","6067":"crayon.","7923":"breaks.","772":"vent","7490":"pretends","1277":"s.\"","1433":"sit","4184":"\"Yay","1197":"swing","3921":"suggested","5046":"whistle.","325":"as","2513":"banan","3328":"added","4333":"meow","1738":"food.","6529":"exact","2119":"dry","7426":"Sally,","5186":"stone.","3635":"stopped.","3731":"small.","1909":"anc","147":" ","2234":"smelled","6513":"team.","7133":"along,","4319":"tired,","3883":"-a","3744":"tti","6164":"castle,","937":"ble","6018":"frame","7090":"writes","995":"remember","533":"ru","3714":"umbrella","766":"fun.","5707":"yellow.","254":"ha","7162":"Hannah","2480":"morning","4992":"surround","605":"old","276":"She","1266":"can't","4625":"“You","2097":"whist","7565":"bikes.","6619":"Emily.","7208":"Max!","5919":"leave,","3194":"fright","4902":"ones.","3771":"ruined","6507":"Nina","1409":"hands","5418":"left,","1513":"please","7399":"jogged","2218":"meet","2832":"healthy","816":"uck","2310":"candy","1271":"Joe","3355":"Ge","3624":"Benny.","4589":"split","4769":"twink","7602":"moments","8173":"tough.","2467":"dirty","2013":"\"You're","576":"feel","5531":"immedi","5511":"myself","444":"like","2130":"\"Lily,","2496":"shi","2069":"ung","6339":"friendship.","1116":"ry,","38":"D","5710":"ending.","1298":"tr","1403":"!”","1678":"Mama","1585":"talk","2670":"too.\"","2114":"imag","7972":"usually","952":"ice.","2633":"surprise.","5559":"rac","4845":"chur","333":"mom","3896":"hospital","6387":"sad?\"","6545":"crept","7915":"middle.","7286":"proj","3937":"drop","3801":"Paul","3669":"ants","6877":"bowed","7840":"round,","6835":"arrived.","4477":"puddle.","34":"@","2283":"move.","3803":"regular","4252":"Polly","1773":"colorful","5632":"brighter","4797":"cane","5719":"wear.","308":"his","613":"ny","2011":"sun.","2940":"swing.","8177":"bread,","962":"truck","3055":"plan.","2998":"key.","154":"–","4071":"ses.","2773":"yes.","1319":"yard","8036":"ings","7549":"nap,","6533":"One,","1755":"Sam.","6101":"looked.","2551":"ance.","3843":"gho","3253":"trees,","4212":"raven","5586":"separate","6207":"admiring","5475":"sadly","8024":"square.","8034":"blink","1505":"cked","2405":"lucky","2565":"pped.","4577":"yach","629":"ly,","1283":"\".","293":"am","6776":"bank","7357":"feather.","45":"K","4486":"clock","4791":"moment,","7708":"name,","3926":"Hen","6430":"piec","28":":","1692":"idea","945":"ak","2604":"mean.","5161":"applau","193":"奮","227":"ﬁ","5750":"compl","7639":"Abby","1214":"excited.","2487":"cannot","5224":"\"Yes!","200":"應","2656":"swings","7119":"great!","2912":"seek","3426":"while.","7332":"help!","2136":"sli","5864":"pois","1325":"sleep","1776":"eter","2808":"anymore","4469":"elevator","4470":"made.","2789":"spider","7939":"Fri","4878":"bey","1257":"Let's","2950":"closer.","4407":"gie","7761":"now!","4370":"sweetie.","3072":"shirt","604":"learn","3364":"Dave","4395":"doing.","2916":"things,","4849":"igloo","1338":"noise","1350":"times","2471":"Bu","4224":"soon.\"","2108":"chee","3096":"it,\"","2987":"rid","6203":"Molly's","2052":"cow","4835":"please.","2076":"kind.","1862":"ben","7347":"grandmother","7301":"\"Yay!","3420":"job.","4523":"lights","2881":"lown","5209":"delight.","3037":"drank","1219":"began","7312":"corn.","1071":"e.\"","5068":"color.","7023":"Lizz","601":"sor","5680":"boat,","2305":"wild","6343":"circle.","7017":"earthquake","1175":"shed","2359":"tear","2814":"test","5181":"comet","2178":"fish.","2581":"together.\"","3901":"wander","5917":"oking","4829":"coin.","8050":"appeared!","2545":"scre","3545":"popcorn","6951":"chat","4599":"serious","5247":"painter","6936":"settle","1705":"black","1621":"\"But","469":"make","3266":"Mandy","6633":"yawned","6382":"missile","897":"rock","3813":"beep","3177":"sailed","7325":"best,","7756":"frog,","7961":"power.","5268":"tory.","6483":"three-year-old","6746":"out!","4933":"balloons","1486":"morn","773":"together.","5836":"mention","7151":"-looking","7242":"helper","1828":"bad.","5297":"horse.","7460":"easier","3560":"ever!","6660":"struction","4235":"TV.","7270":"Mommy?\"","1960":"kne","2742":"taught","3906":"ates","5941":"cin","1427":"build","6446":"doll's","2164":"Ro","5963":"Freddy","924":"nex","5732":"stage","2484":"embarr","7963":"anything,","3627":"n.","8031":"Suzie","1290":"swim","4787":"oat","5440":"again?\"","4296":"grabs","1728":"sign","4220":"sum","762":"\"Y","4748":"expensive.","4792":"onion","4869":"man,","5527":"them?\"","7421":"valley","6657":"splash.","46":"L","5083":"alert","219":"莉","3203":"understand.","8080":"he's","6977":"adventurous.","7620":"kids,\"","6531":"person.","7984":"Christ","1868":"luffy","5666":"Instead,","7993":"drinks","992":"house.","6937":"married","4505":"crocodile","486":"what","2155":"colle","656":"de","3232":"grown","2451":"chocol","4887":"angu","452":"gr","5459":"steak","2426":"stret","5866":"mum,","6712":"whistled","1478":"dad.","1870":"wish","6511":"breath.","2032":"With","3600":"tent","6450":"swamp","1935":"though","1525":"plain","3929":"inde","5538":"following","956":"\"What","7531":"mom!","1908":"del","2756":"amp","5924":"Dav","2730":"orry,","822":"rain","3322":"incredible","4842":"dais","3127":"twist","4941":"Buddy","2043":"sitting","6498":"hi","5274":"switch","6322":"sky!","6461":"stream.","7441":"isten","1725":"pass","4693":"escape","4318":"ef","8117":"minutes.","6447":"tunnel.","2939":"ina","232":"�","3261":"discover","3272":"\"Me","5850":"violin","7811":"rides","2300":"orm","3390":"“Y","4020":"tightly.","5453":"guilty","5173":"green.","2838":"bench","3407":"grandpa","997":"near","4642":"comfort","5635":"bled.","3":"!","3993":"shop.","7248":"ilit","2566":"celebr","8125":"strong.\"","2419":"ter.","5251":"advice","3264":"stubb","6321":"Sharing","3521":"reminded","4560":"safe.\"","572":"friends","1135":"rest","6673":"Lul","6960":"Nutty","7212":"bushes","4518":"ween","1446":"out.","379":"ter","2549":"hair.","2103":"creature","3191":"backyard","437":"hed","4050":"deaf","7155":"claws.","7145":"stron","2740":"Soon","545":"Sam","459":"Mom","637":"ive","272":"al","1126":"butter","7750":"fashion","2844":"careful,","67":"b","7904":"decorations","7764":"nut.","7947":"delighted.","6119":"surrounded","4631":"five","4499":"other's","970":"lue","7853":"camping","3949":"them.\"","7618":"trains.","7233":"brightly.","737":"lad","2505":"snake","4398":"sock","5687":"barks","1524":"dr","2147":"alone.","7099":"travell","404":"happy","1902":"ion.","1048":"Maybe","2993":"candy.","3655":"Bear","2616":"decor","6426":"worm.","7049":"thunder.","7487":"bracelet.","8017":"matching","7231":"accidents","3483":"rescu","4363":"red,","2048":"touched","7293":"explorer","603":"by","3268":"lly","2921":"stuff","7842":"gum.","5217":"ending","197":"度","3095":"shy","2630":"nose","1":"\n","1288":"yel","6554":"owned","4990":"rhinocer","7382":"exclaimed","4622":"Jerry","1825":"ventu","8191":"<MASK>","1420":"whil","5337":"dic","5245":"oak","5286":"appro","5525":"yummy!","1401":"hid","1940":"spot","4449":"second","9":"'","3415":"ountain","4460":"buzz","307":"ig","6811":"score","2700":"law","6945":"ened","1743":"des","8048":"ideas.","832":"John","3118":"creative","5208":"popped","2398":"Suddenly","6095":"joke.","6915":"candy,","7303":"colors,","1939":"ntain","6857":"\"See","1477":"safe.","2509":"ail","4206":"disappeared","2452":"ize","5585":"ence.","1015":"sho","3365":"stories.","5133":"chance","5861":"sticks.","5369":"low.","6631":"grocery","5811":"rang","7628":"destination.","8124":"swirl","4961":"buck","6007":"mom.\"","6472":"good!","3073":"eze","5109":"elcome","87":"v","3850":"coo","3965":"ife","4509":"away!","6542":"swo","17":"/","932":"people","7086":"recognize","7138":"Lisa.","432":"?\"","2780":"coin","5996":"colours","1496":"Benny","1375":"stran","1436":"filled","6495":"close,","7883":"dishes.","1749":"par","3814":"pengu","5802":"cuddled","3670":"liz","3423":"giggled","5361":"plastic","7973":"policeman","189":"又","1910":"curious.","7529":"chore","6064":"fine.","7865":"Follow","3199":"cept","1332":"voice","4528":"clumsy","6266":"Ruby","5305":"vehic","5502":"lip","6794":"street,","5969":"zipper","6231":"moving.","8148":"laying","861":"ground","79":"n","8153":"Being","793":"sorry","2295":"Mia.","2341":"wings","636":"mommy","6168":"hose.","7238":"happened?\"","6832":"today?\"","6964":"pupil","6143":"measured","2801":"packed","4312":"nail","8112":"rubs","969":"bl","4950":"rice","7147":"crumb","201":"把","1352":"sy","1480":"game","2899":"s!\"","5478":"cards","4331":"ride.","1750":"Please","3851":"cco","3123":"Timmy,","6628":"respon","5888":"ving.","4940":"pepper","6693":"uggle","6110":"else.\"","6651":"mineral","1997":"ble.","7656":"chalk.","712":"loud","160":"“","5064":"tap","4573":"older","1860":"wag","5342":"God","7168":"froz","134":"і","7253":"day!\"","1327":"dog.","4154":"organized","1240":"fro","5416":"computer","2369":"boat.","8025":"friendly,","1236":"anymore.","685":"cle","8142":"box?\"","29":";","3092":"giving","5916":"floated","5949":"fridge.","2455":"danced","6528":"stop,","560":"care","3259":"tidy","1190":"em","6103":"surprised,","1586":"much.","3529":"costum","3188":"offered","6098":"dessert","1810":"cup","1611":"was.","4663":"louder","3757":"aff","3532":"set,","6092":"stones.","282":"ne","1897":"along","3840":"enthus","1194":"cra","1382":"vis","1468":"'ll","5223":"giraffe","6469":"together!","1120":"tow","1220":"magic","6635":"friends!","1569":"mi","3109":"decide","4382":"forever","3570":"kicked","5100":"before,","5355":"bell.","5372":"However,","6227":"toilet","6415":"prec","1489":"face.","5069":"televis","2880":"friend.\"","5123":"bicycle","1508":"someone","6481":"ink.","1789":"sad,","6474":"there!\"","7100":"chickens","3347":"libr","3784":"rocks.","2678":"pec","4003":"hours","4694":"kindness","736":"need","6544":"Blu","2139":"house,","1313":"story","6421":"growled","8087":"creating","7563":"surprised!","2326":"rock.","2520":"spe","6136":"miserable.","2857":"\"Are","5438":"kids,","4812":"steps","2561":"\"What's","802":"let","5487":"fairy.","5793":"napkin","6086":"ries,","32":">","6823":"cupboard.","790":"don't","2058":"swimm","2142":"sunshin","3523":"stat","566":"down","2361":"yes","3625":"-up","1419":"ield","3789":"destroy","598":"know","4287":"impro","7889":"sages","4551":"trem","3701":"zip","7197":"daisy","3657":"chest","5607":"things.\"","4345":"cheap","7987":"sore","5653":"bang","5608":"horn.","236":"🍌","5776":"prize","1396":"herself","2875":"Ch","5052":"gently.","7448":"going,","752":"pt","3978":"crawl","3094":"butterfly.","3786":"spaghetti","5703":"ater.","4660":"speed","6620":"These","5004":"cry,","1714":"tired","7780":"highest","3176":"walking,","7692":"whispered,","2973":"shes","3613":"guilt","920":"mem","3676":"enormous","5844":"ke.\"","4245":"trunk","6420":"end!","7035":"popcorn.","1801":"cray","5543":"igno","2504":"Ann","4151":"distur","2836":"kissed","534":"more","5507":"spirit","922":"room.","5615":"bye,","61":"[","6604":"stop!\"","5162":"climb.","5216":"flame","7225":"sunset.","4561":"gen","4894":"fox.","3777":"Ducky","5424":"padd","6975":"Stop","6887":"instruction","326":"ome","5486":"entered","5822":"veterinarian","3895":"Sara's","5014":"how.","2947":"kis","111":"Â","4280":"Lila.","5473":"decoration","8101":"coloured","1624":"qui","1798":"flowers.","4724":"blin","1510":"Come","2000":"pig","3031":"micro","6247":"owner,","908":"su","5151":"ately","2512":"thing.","3967":"minutes,","1177":"in.","3145":"walked,","3408":"rubbed","5013":"laughs","8104":"potatoes","1114":"tri","6565":"energ","999":"import","6669":"reach.","1186":"'re","863":"app","4998":"hay","3151":"fake","2861":"street","7442":"comfy","5403":"behave","1700":"\"OK","718":"wat","3361":"frid","2134":"ine.","1580":"grow","5612":"drawer","3534":"valuable","2085":"morning,","7734":"three.","8093":"dinner.\"","3862":"Sun","7223":"ourselve","6921":"activit","5421":"blowing","5970":"miserable","3828":"shes.","6482":"whip","5711":"laser","5377":"\n \n","4279":"patch","5998":"melt","6094":"dancer","7861":"journal.","4422":"books,","1735":"bath","4717":"bored","5225":"herb","4937":"greed","8001":"food.\"","6046":"lugg","1439":"asure","2521":"slid","3763":"milk.","4686":"inclu","6365":"Hello","6161":"games,","4616":"rever","8019":"Jazz","6037":"perm","2890":"can.","5501":"angry,","4148":"impati","2971":"powerful","7113":"deep.","1990":"nothing","7626":"reveal","2308":"woman","6650":"log.","2891":"ment","1400":"continu","7669":"luxu","1019":"boat","6688":"soap.","1696":"adventure.","5618":"people's","3718":"class","5119":"waving","1720":"flying","4495":"ze.","5099":"scarf.","729":"ry.","8063":"wings,","5358":"Here,","3485":"sister.","5775":"turns.","7196":"clock.","4574":"ffle","6621":"go?\"","1859":"broke","7075":"introduc","6699":"piano.","410":"ys","7931":"church.","2538":"How","981":"things.","500":"something","2133":"neighbor","4624":"John's","6114":"vel.","1424":"able.","743":"iz","2472":"Jake","5959":"airport","5326":"bulb","5029":"you'll","2196":"happened","283":"hat","6070":"remember,","5395":"since","2724":"bell","5686":"prepare","993":"year","2573":"lat","4485":"impressive","2772":"Sometimes","5652":"Have","1370":"To","7068":"here?","7429":"chases","10":"(","2036":"soon.","4904":"persistent","3869":"Lily,\"","7351":"Wednes","6595":"selling","115":"á","5300":"wheels","4807":"dizz","3032":"\"Ben,","3304":"colourful","4959":"careless","4147":"hipp","4093":"Pat","6749":"thing,","4598":"ause","4089":"impressed","1172":"ally,","3419":"Soph","3700":"persist","5772":"tuna","6512":"understand,","528":"pe","2286":"bark","4506":"boxes","7503":"wave.","6646":"solut","7894":"investigate","4814":"king.","2282":"lay","7393":"children,","2344":"mer","522":"mu","3428":"aced","1083":"bit","3383":"happily.","5679":"stronger.","6238":"and-","4261":"fu","2293":"nod","7148":"gathering","8012":"frozen","3155":"faces.","6665":"We're","2712":"Fred","6432":"shocked.","2609":"While","5212":"skin.","7751":"Santa","3520":"learning","2044":"wise","8002":"zipp","3116":"Brown","4304":"\"By","4643":"boring.","4819":"skeleton","7123":"Lila's","1519":"makes","6808":"impressed.","1397":"name","5610":"burned","2865":"coura","3696":"beet","3708":"nearby.","158":"’","7516":"stealing","1857":"at.","3702":"Blue","1739":"mix","910":"ture","138":"ᴅ","3879":"hairy","4934":"village.","6422":"sniff","4735":"grass,","2340":"pill","2248":"eag","2354":"gift","3876":"super","6709":"brain","989":"ow,","4876":"helpful.","6023":"chess","6413":"peered","1973":"ers.","409":"smil","6807":"bitter.","4594":"Cl","5878":"coffee","7817":"learned.","3952":"duck.","4335":"amazing.","3930":"lim","5751":"goodbye,","949":"next","4826":"soc","1314":"lady","2128":"proud.","2985":"clean.","4608":"Tru","3248":"long,","6427":"\"Would","5376":"meat","3190":"unusu","7177":"dangerous.\"","1294":"behind","6789":"it!”","2501":"paw","6188":"clay.","7264":"“Hello","4491":"gifted","2669":"landed","3067":"animals,","1900":"laughed.","6340":"Zoe","1946":"\"OK,","6301":"gone!","3564":"cod","3672":"ris","513":"from","3610":"ft.","1208":"wel","1756":"\"Sure","3469":"wealth","5773":"achie","7897":"Leave","878":"ook","3661":"too!","3626":"lolli","1411":"forgot","3410":"Eventually,","6502":"hated","7244":"purple.","8076":"show,","274":"her","2046":"turns","4716":"frightened","5150":"sticker","5558":"\"Is","6250":"attention","700":"Mia","1785":"lesson","2087":"gives","3474":"End.","6971":"and,","7592":"shining.","3962":"env","5672":"chalk","7108":"clap.","4300":"searching","6930":"opened.","122":"ï","3567":"bowl.","8107":"carrots,","47":"M","3418":"bald","1650":"sister","2619":"games","2111":"book.","4440":"reco","6978":"growl","2658":"\"My","1080":"other.","7857":"guy","3712":"writ","5135":"summer","7944":"ery","1567":"Mom,","3513":"arrow","6534":"window,","8126":"presents.","5346":"\"Max,","3219":"wake","5255":"gone,","3959":"rude.","6987":"porch.","27":"9","25":"7","5219":"rush","435":"help","7982":"crib.","1876":"grateful","3582":"upid","6113":"uniform","7093":"girls","2429":"Why","620":"Jo","2508":"roar","1056":"toys.","4213":"perform","4274":"path.","26":"8","3999":"suppl","4711":"insist","4353":"monster.","2905":"cave","1004":"noticed","3084":"everyone.","8121":" \n \n","5448":"perfect.","4285":"muffin","224":"高","357":"little","3849":"carrying","715":"just","6041":"fixed.","6866":"Daisy's","6795":"loud,","7109":"gym","1012":"amaz","5638":"trail","5658":"Finally","954":"adventure","996":"dis","8014":"Sn","538":",\"","2909":"wet.","5588":"bumped","589":"ways","6179":"battery","7505":"words,","2556":"worm","2937":"illi","7371":"hall.","5714":"ten.","5360":"again!\"","8131":"De","7183":"precious","2645":"you're","5158":"yield","2758":"drawing","4044":"curtain","4512":"checked","5981":"little.","3637":"painting","6797":"beneath","5267":"trumpet","4885":"Fluffy.","3580":"guess","3054":"illed","4080":"jungle","3156":"bush.","7453":"begin","4511":"complet","6225":"wheel.","1358":"What","5606":"bone.","263":"ing","6957":"careful,\"","6557":"ient.","3853":"Alex","1183":"realized","1037":"bright","3979":"day!","4970":"fridge","2764":"pri","951":"you.","6191":"planes","1955":"dropped","6725":"pastry","2578":"backyard.","5550":"tongu","3652":"built","2500":"party","203":"是","120":"ê","8113":"pulled,","8190":"meat.","3458":"here?\"","6552":"wrong?\"","127":"ā","510":"sad","868":"igh","3080":"corner","3298":"grand","3977":"ness.","5134":"welcome.","6974":"houses.","6395":"new,","5893":"nuts","7788":"rice.","2061":"Sammy","3910":"luffy.","7447":"relaxed","7698":"oxygen","2146":"pudd","2378":"lar","5095":"Mommy!","5253":"perfum","4390":"laun","1127":"quickly","6929":"pinched","7040":"successful.","7558":"sport.","4866":"-year-old","4925":"fighting.","3770":"boy,","4114":"later,","2776":"yourself","7098":"Jake.","5278":"ways.","4542":"comm","7508":"\"V","7898":"sweater.","511":"time","5007":"sight.","251":"ou","2629":"worried.","2733":"know,","1498":"stayed","3285":"small,","3759":"rece","4131":"market","2723":"uce","3088":"ily,","3144":"ines","4743":"swung","6222":"Ke","291":"ld","1476":"left","2839":"string","8023":"Ellie.","216":"自","575":"use","3857":"normal","5039":"cupboard","7122":"hoo","1103":"sof","8182":"television.","1839":"wrong.","6899":"ines.","7686":"stretching","1668":"\"Okay","5081":"attractive","7849":"passing","2345":"tee","7373":"hers.","663":"us","2902":"seed","3687":"graceful","7808":"felt.","6199":"folded","1388":"followed","4546":"neat","7029":"cookies,","4270":"sometimes,","7851":"mill.","128":"İ","5947":"crunch","5329":"ber.","7227":"dinosaur.","5601":"lawyer","4409":"frustrated","2379":"\"Come","2445":"cer","3173":"gy","6517":"bud","1260":"pro","1805":"too,","851":"ce.","2831":"mud","3537":"diamond","5623":"place,","163":"…","1045":"then,","5404":"understood.","1545":"nice.","4767":"Tweetie","7795":"Bubbles","1008":"mean","2280":"done,","3796":"allowed","4897":"Ste","784":"flower","3148":"daddy.","4295":"thread","3025":"skipped","8183":"Mrs","2038":"mach","5768":"scratch","2882":"picks","456":"loo","6197":"Next,","4566":"’m","6510":"him?\"","6133":"ascin","7398":"prince.","2530":"Everywhere","8067":"ace.\"","7952":"lion,","1809":"Emma","5447":"available","6361":"sunglasses","7418":"someone.","3565":"half","149":"‌","2884":"ness","3785":"wings.","7665":"achieve","2154":"Ted","5551":"brothers.","4250":"pand","1782":"teac","3903":"ons","5127":"points","7349":"barely","1672":"Mr","4037":"mas","3007":"returned","1898":"fen","901":"lock","3827":"a,","5512":"htray","4386":"\"F","382":"!\"","7266":"elly.","2563":"jung","829":"Mommy","2763":"der.","3453":"sugar","5506":"her!","2362":"dest","1073":"does","6080":"\"These","7485":"ignorant.","1154":"cr","4140":"pretty!\"","4978":"party,","961":"lot","7275":"struggled","3608":"pear","5497":"look,","2153":"ved.","6499":"toys.\"","6379":"pile.","4040":"wrong,","1429":"forest","7470":"mater","2795":"gently","5308":"from.","6039":"hero.","1490":"smile.","7975":"pasta.","6654":"foolish.","6704":"station.","8127":"Luke","556":"ara","1786":"\"Hi","5697":"doors","3417":"nur","4272":"confused","1148":"ning","3061":"caterpillar","442":"ain","5771":"filthy","6348":"space.","2815":"tick","973":"night","5304":"scream.","6613":"thirsty","7918":"Rabbit","3477":"puzzle","7878":"share.\"","1462":"arrived","7455":"Jessie","1596":"sudden","7201":"Mart","6803":"why.","4346":"creati","6189":"Molly.","1864":"brave.","3230":"apo","788":"too.","831":"Joh","1942":"me?\"","2174":"bought","1040":"follow","1568":"sear","899":"doll","4915":"dog!\"","6966":"'s.","1733":"Mommy,","1509":"ll.","7002":"closely","5717":"met.","4962":"Kate","4796":"this.","1235":"favorite","3062":"Br","4359":"hats","2035":"cat.","1042":"animals","6909":"”.","2932":"sight","6700":"cook.","8180":"polished","7623":"cautious","5242":"tent.","4502":"brightly","7778":"barked.","1506":"curious","472":"op","7714":"airport.","2704":"ducks","3479":"juice.","1840":"luck","3473":"themselve","1899":"lve","5536":"wallet","3703":"unusual","6567":"“We","1444":"ather","2503":"dinner","7011":"Mir","6994":"goal.","4832":"sir","5789":"uncomfortable","4182":"pup","5769":"days.","3880":"coco","1191":"prin","3772":"\"Please,","7252":"did!","6625":"painting.","7432":"luct","1712":"table.","6257":"you\".","2252":"wheel","2786":"idd","3101":"old,","3166":"eng","5080":"trucks.","4146":"pretending","2540":"clever","1518":"whe","6200":"Anne","6812":"bringing","2411":"horse","925":"bro","6696":"bunn","5742":"fishing","5849":"wife","6263":"ugly.","7493":"caterpillar.","338":"bo","946":"ask","6443":"igzag","3724":"son","7097":"dress-up","5738":"\"Sam,","6754":"direction","7077":"cave,","7166":"restless.","740":"imal","3356":"por","4309":"later.","2325":"mouth","2126":"egg","6804":"dough.","2886":"ror","2086":"Mr.","4672":"rope.","4827":"safely","2238":"cor","7522":"houses,","7805":"vacation","4476":"skip","2180":"gather","6802":"walls.","2075":"bot","364":"big","3021":"manag","4175":"baby.","4338":"ping","5019":"Luck","4581":"ashamed","2601":"Sam,","1454":"pink","4498":"sudden,","2676":"talking","1709":"dri","1165":"saf","2375":"bus","239":"💖","794":"thanked","4931":"candle","4559":"disappear","1561":"door.","5028":"us!\"","6050":"snap","4956":"anchor","3201":"atel","8169":"Momo","5639":"case.","7320":"egg.","5513":"mob","146":" ","3242":"lift","5368":"\"Wow!","1268":"Lily,","6237":"nav","68":"c","6551":"pip","6884":"jumped,","7974":"\"Excuse","397":"Ben","7458":"rot","4993":"ley","3925":"Un","2867":"group","4873":"tears.","5837":"yourself.","3142":"Ne","5177":"falling","5860":"marri","6961":"noise,","101":"¢","6289":"ame.","2221":"cheered","7666":"equipment","5684":"princes","1267":"box.","800":"best","6788":"exactly","7413":"drives","302":"pp","711":"Then","5993":"received","298":"ve","3830":"bored.","4369":"ater,","6683":"“I’m","5466":"parade","8111":"breeze.","6895":"tree!","7678":"hot,","7699":"spots","6153":"helpless","5015":"Zo","6676":"stable","7675":"breez","7327":"wolf.","2991":"lead","4927":"ist.","2140":"tower","1001":"squ","2876":"ult","86":"u","5887":"Ben!","703":"gre","5397":"volcano","3128":"rocket","3211":"sticks","2680":"Peter","2887":"screamed","1440":"mom,","1074":"That","5859":"snapped","7":"%","4929":"pine","1924":"together,","2313":"bubb","4283":"organiz","841":"says,","4969":"seeing","1727":"doctor","6325":"yummy!\"","3257":"rod","3868":"may","4231":"John.","4928":"beach,","5989":"actu","6206":"heads.","7876":"\"Ye","30":"<","7530":"silly,","7262":"lesson:","5753":"sits","1232":"Tom.","267":"le","1927":"bigger","4673":"counting","7359":"ha,","4963":"he'd","5279":"chimne","6138":"We'll","6941":"rabbits","2596":"appo","7375":"Lind","7600":"much!","2258":"tail.","3405":"lazy","2474":"int","3235":"umbled","3023":"ventually,","5359":"Each","7428":"microphone.","5865":"Tom!","6717":"green,","2135":"puts","5516":"ashtray","39":"E","413":"one","1417":"land","1716":"yard.","41":"G","2034":"purple","4669":"vendor","4251":"Tommy.","1221":"romis","1936":"amazed","1594":"al.","3816":"Toby","4881":"brothers","281":"be","2535":"first.","5284":"package","6394":"of.","982":"\"Thank","4022":"sparkled","7742":"sticking","1793":"pow","6809":"tide","1043":"store","643":"how","3835":"comput","3956":"Are","5075":"nervous.","7573":"wise.","4230":"desser","104":"«","7632":"completed","1224":"making","2092":"owl","3817":"repair","7121":"row,","2743":"bird,","7543":"network","6052":"famil","4219":"nobody","4527":"resist","8154":"sway","5879":"tease","6130":"cool!","4898":"ready,","2623":"noises","3773":"lex","4482":"Maria","817":"home.","3238":"record","2901":"taken","5698":"buried","4332":"quite","5722":"towel.","7311":"found!\"","4378":"robe","5485":"auto","4766":"messy.","1456":"\"It","5640":"Mary.","4177":"parrot","7483":"doggy","3367":"competit","450":"me","2031":"said:","1311":"brok","2833":"whisper","3825":"George","7088":"eats","2192":"shouted.","3981":"Jer","5328":"omed","5660":"block.","4612":"human","5950":"experience","3179":"compet","3495":"tunne","4468":"brace","4374":"fair.","6741":"explore,","7296":"scurried","184":"兒","7929":"shrugg","7590":"chimney","564":"ried","1155":"pie","8166":"delicious!\"","2863":"differen","3288":"Lola","5266":"pasta","2747":"burn","7489":"beans","7777":"hotel.","7650":"nect","8140":"keeper.","4507":"Once,","1644":"promised","5940":"lotion","3012":"lax","5415":"prepar","6329":"camera.","6201":"weight","1634":"surprised","4316":"stream","7932":"earlier.","108":"·","4208":"replace","2449":"shad","1289":"likes","5493":"jail","7001":"wondering","5066":"smile,","6187":"real.","1418":"flowers","3516":"dancing","3741":"hello.","7016":"\"Now,","2854":"smooth","4620":"ible.","3802":"glue","4721":"ded","7942":"yacht.","7575":"twigs","1834":"igg","1623":"pull","2403":"tries","7774":"volcano.","3668":"ches.","5220":"sigh","2260":"andpa","5676":"motorcycle","7051":"bin.","408":"did","8057":"mask.","5365":"miner","313":"day","2727":"pair","2976":"car,","6830":"sure.","1907":"El","1952":"cheer","5694":"spending","2767":"doing?\"","3737":"explored","6015":"sparkling","7900":"sea,","6903":"brown.","6140":"waste","4590":"hammer","123":"ñ","2432":"shr","6842":"pink.","739":"bear","1601":"towards","4636":"grandma's","5214":"shock","2826":"am.","6278":"satis","8174":"week,","2479":"stair","2878":"dinosaur","1695":"floor.","7036":"iggy","3630":"snack.","2562":"Mar","4433":"decorate","2074":"letter","3001":"fixed","2290":"Later","4888":"blo","7156":"cards.","4125":"Would","2029":"afraid","2324":"sounds","3170":"diffic","4379":"coat.","1205":"time.","7118":"cheese,","2115":"kiss","1791":"button","4029":"stretched","5869":"Spot,","5388":"awe","6221":"about.","1504":"happily","6695":"banana.","7696":"cut.","7821":"heavy,","5546":"Co","4613":"coffe","229":"️","5657":"See","984":"et.","7661":"neighbor,","7285":"evening","8071":"castles.","88":"w","8097":"patience","4321":"kangaroo","6916":"air,","4794":"fragile","2703":"branch","4640":"appl","7221":"pages","2466":"finished,","6914":"dessert.","2107":"clothes","2055":"ins.","3790":"soup.","2057":"bread","1546":"dang","7355":"shelve","7873":"marbles","3590":"finding","7965":"rocking","5200":"ap.","7153":"go,\"","2104":"ugg","5667":"stopped,","196":"巴","1818":"neigh","145":" ","6024":"mome","2689":"pillow","6350":"matches","2208":"hope","4434":"bull","4634":"Mimi","5945":"medicine.","882":"Dad","777":"urn","4303":"viol","7482":"!\",","5370":"incre","543":"pped","214":"米","7013":"out.\"","820":"still","5031":"dishwas","1629":"belie","4411":"crazy","4247":"aero","4537":"muse","4884":"sleeping","4900":"thanks","5628":"bling","944":"thr","4861":"lic","5386":"cushion","6990":"independent.","1978":"mil","3152":"Look","6579":"yelled.","1659":"thinks","839":"cu","3029":"box,","5051":"welcomed","443":"fun","4852":"ine,","7494":"Time","8147":"flexible.","3174":"too!\"","97":"","6314":"nie","7457":"swamp.","1273":"Timmy's","3002":"again.\"","7186":"Aunt","4808":"hut","3445":"abo","2791":"ull","4732":"leton","7633":"jogging","552":"ac","7120":"blueberries","7082":"glitter","2016":"bott","5262":"hat,","5024":"fell.","848":"two","1484":"toy.","4497":"thunder","6097":"generous.","836":"turn","3547":"anut","1369":"enjoyed","6919":"visiting","5673":"brick","6270":"shouting","1830":"grass","1813":"pushed","5946":"shape.","2202":"zoom","5244":"puzzle.","2457":"share.","6352":"journey,","4706":"disappointed","2746":"adventures","6787":"recommend","3933":"suddenly,","7259":"blueberry","3726":"delicious.","2641":"anything.","3968":"Joe.","2042":"sug","6076":"\"Welcome","2595":"answer","3498":"ant.","2679":"usu","639":"ish","6275":"fun,\"","6277":"scratched","6815":"perfectly","1745":"ng","7394":"presents","1179":"angry.","3443":"village","451":"it.","429":"od","2694":"yes,","8133":"cherries.","1627":"hand.","1680":"reach","3932":"teas","7302":"Lucy,","1129":"Spot","2352":"giant","3432":"asham","6727":"curio","1239":"med","3742":"worry.","4197":"toast","726":"'m","6853":"Lulu","1783":"bear.","7690":"spaghetti.","5977":"pistol","4417":"Danny","5316":"raft","3743":"wrap","6102":"ull.","2254":"Tim's","7499":"ird.","768":"call","1046":"So,","258":"en","2531":"tree,","2297":"swimming","6284":"looking.","7217":"tricks.","6934":"collar.","926":"\"He","1658":"amazing","4053":"clouds.","5656":"Sarah's","465":"sto","723":"unt","2685":"calm","191":"在","1014":"important","1150":"everyone","3581":"enorm","3312":"generous","4173":"leopard","4951":"gate.","5798":"boots","6172":"pulling","6965":"exercis","8134":"stable.","6661":"Joe's","7290":"news","3244":"Anna's","1131":"garden","3823":"tomato","6124":"remained","6911":"situ","7733":"yet,","341":"want","521":"again","4946":"Me","6506":"imagination","2690":"ob","4109":"terrible","4046":"post","4665":"disappointed.","6500":"continue","7341":"okay?","666":"tt","21":"3","3214":"discovered","1049":"tor","4991":"flapped","5548":"clothes,","6111":"wisdom","6582":"acti","4086":"gem","3585":"boys","4966":"bled","2271":"off.","5314":"cloth.","1402":"oo","6953":"freezer","7416":"underneath","180":"但","3640":"view","4576":"agreed,","7754":"deaf.","3046":"calling","7741":"Tara","6719":"sparkle","1335":"green","3303":"working","2109":"o.","422":"hel","2022":"smiled,","8026":"bridges","3997":"rat","6703":"blankets","1654":"l.","689":"them.","153":"‒","1707":"pping","7555":"amazement.","5366":"iron","7996":"attractive.","1076":"lease","1130":"ke.","5444":"shy.","2465":"shoes","3160":"botto","3957":"coll","6562":"bear!","169":"™","3704":"knee.","7019":"car.\"","4110":"afraid.","7408":"Mick","7164":"decides","6863":"slip","3089":"sell","5954":"approached","1085":"\"Look","7968":"celebrate.","1757":"ser","1974":"himself.","6963":"slapped","5791":"supply","7583":"mentioned","23":"5","6664":"drawer.","1144":"dro","3690":"envelo","3638":"frog.","7198":"hug,","8041":"Jimmy.","4041":"had.","5832":"nothing.","1998":"Soon,","2725":"bi","935":"spo","1837":"castle","4354":"inted","7501":"\"Wait,","4604":"tooth","2255":"old.","4654":"ears","5190":"attach","7092":"balanc","5340":"day.\"","15":"-","74":"i","2744":"clothes.","7124":"vehicle","4167":"bet","4806":"bubble","6458":"pastel","7836":"tou","4130":"ary.","454":"named","4637":"shel","6689":"yarn.","8073":"yummy.\"","6846":"comforted","7461":"mixing","6893":"license","240":"🙂","2996":"ence","4134":"opard","4256":"Will","3535":"do?\"","3734":"crack","1181":"sing","5851":"yoga","7603":"swimming.","893":"ort","4394":"lett","8118":"helmet.","7807":"you!”","5407":"cham","4323":"admi","7847":"radis","3289":"pointing","5498":"themselves","5221":"bridge.","2935":"dad,","7184":"giraff","5805":"mer.","2677":"fil","7368":"parts","2662":"waiting","4982":"needle","654":"red","1769":"press","679":"\"L","6587":"ned.","416":"ex","7141":"jacket.","368":"fri","852":"As","4001":"h,","4986":"\"C","5978":"insect","7216":"fragile.","3279":"enjoying","1293":"coming","6473":"helpless.","6402":"bye","7634":"heads","4268":"here,","461":"ard","7651":"exhaust","1662":"Tom,","2475":"tea","1762":"moment","5446":"please,","3774":"uring","4775":"sheet","7053":"apart.","7783":"Quick","6035":"sen","3379":"roof","7804":"scared!","4999":"dizzy","4997":"Dad,","5843":"tore","3632":"surprise,","2955":"sand.","5312":"ped.","3831":"adventurous","3384":"dead","7474":"balance.","1961":"drink","3758":"ingredient","8094":"Come,","4085":"comp","5356":"clever.","5269":"grin","6523":"file","1747":"cried","4444":"lively","3111":"lying","6792":"inside.\"","6733":"trap.","7273":"steep","3011":"pictures.","3016":"relax","727":"away.","1699":"scream","6397":"deeper","900":"thre","6836":"tools.","2476":"barr","4328":"ge,","964":"ever","7943":"holes.","1759":"hig","3822":"practice","436":"fel","530":"found","1170":"water.","1938":"crayon","6860":"understanding","215":"給","5699":"sy.","6142":"Someone","7735":"raining.","4880":"aled","570":"ax","310":"you","3159":"walks","2173":"Inside","5199":"straight","7801":"gle","3531":"parents.","6521":"some?\"","698":"tter","7595":"lap","3206":"sage","5735":"peaceful.","5130":"cuss","7378":"blackboard","3300":"Mike","4262":"squeez","6805":"Eventually","8181":"football.","3912":"Sally.","6091":"pie.","2321":"busy","4552":"itch.","4327":"wagon","6813":"faster,","7157":"that.\"","3808":"oke.","7439":"\"Ex","512":"said.","722":"played","6705":"television","1523":"few","4282":"angaroo","3047":"honest","5982":"guilty.","1461":"cry.","63":"]","7571":"tickle","4329":"ghost","5234":"beak.","1265":"stre","6089":"she'd","7140":"mean?\"","5398":"ult.","1465":"fru","8006":"learns","4500":"bitter","5277":"bak","3478":"twig","1034":"Sarah","202":"整","4063":"useful","4457":"el.","4703":"penny","5131":"drink.","2083":"interest","6958":"brush.","178":"些","991":"great","1657":"ctor","3275":"brilliant","3647":"cheerful","2249":"exploring","3556":"swings.","6764":"jam.","2224":"ck.","5145":"creative.","7271":"things!","6475":"ibb","6369":"dead.","151":"‐","2860":"police","6216":"dishes","6":"$","6412":"confid","649":"ia","4670":"silver","6923":"ious,","7188":"teaspoon","3793":"heal","159":"‚","4343":"ino","6908":"grinned","6073":"first!\"","1331":"frog","1970":"hello","5964":"sink.","485":"pr","7577":"pumpkin.","2015":"eating","4015":"knock","2511":"dolls","5176":"discuss","6123":"Chir","7469":"size.","5782":"before!","135":"ғ","1287":"floor","2312":"pper","1555":"spark","1679":"ie.","3908":"expensive","4425":"earth","4635":"spring","8152":"paddled","342":"are","1579":"zz","1626":"it?\"","4534":"octop","3915":"scissors","4649":"mama","5524":"smooth.","2307":"“I","6452":"hide-and-","930":"color","3154":"Bella","5153":"cries","1207":"duck","3877":"happen.","5899":"Daddy,","6713":"ages.","7607":"Mama.","1819":"round","648":"lf","8137":"You'll","480":"other","4144":"reci","6109":"Mom?\"","6925":"Did","4647":"skill","518":"if","6694":"crib","7480":"eventually,","4068":"hunter","6508":"cherries","6505":"tricks","64":"_","6854":"unicorn","2931":"le,","4292":"gro","4480":"Jack,","1944":"\"Sure,","2650":"veget","7732":"\"thank","8030":"Tim!\"","1243":"fill","2152":"succe","3195":"sparkly","7288":"Both","4981":"\"Ow,","1233":"pond","5911":"izard","1751":"around,","3440":"scrat","6040":"task","825":"one.","1904":"har","569":"find","3794":"biggest","5381":"cared","6659":"under.","4740":"icy.","7906":"immer","5389":"wheat","7983":"I've","492":"ca","2273":"back,","5650":"cartoon","7282":"friend,\"","5413":"sting","2751":"pir","1534":"Now","3455":"slide,","7913":"fork.","591":"clo","7537":"Ex","4472":"jet","5857":"friend?\"","3107":"ppy","1732":"threw","3085":"fun.\"","833":"book","2821":"tak","6989":"palace.","317":"all","329":"el","7829":"belt.","2781":"Mark","1117":"bun","2389":"words","3820":"weak","7852":"impressive.","3427":"Mrs.","5240":"mother.","1554":"brought","265":"sa","6514":"desk.","4895":"weather","1532":"mus","4241":"etheart","7003":"fastest","7486":"changed.","1536":"man.","5933":"stadi","4945":"beauty","7471":"“Don’t","5310":"blinked","1599":"ar.","4655":"hide.","1101":"ground.","5020":"\"Here,","5363":"breakfast.","5744":"crun","8138":"you\"","6671":"For","1364":"yummy","7667":"sobb","2374":"dress.","7316":"clown.","3192":"quiet.","580":"ed,","3282":"against","5576":"strawberry","1124":"back.","2100":"kick","3671":"roy","5391":"mule","5420":"Liz","6291":"all,","6685":"used,","7226":"start.","4126":"kiss.","2006":"welcome","728":"cause","4441":"scold","8082":"written","701":"com","2392":"end,","2412":"paper.","4179":"cli","6232":"pirates","3594":"sal","2334":"wearing","2132":"elly","75":"j","2982":"sick.","4223":"zoo.","7444":"strike","7785":"scooter.","2782":"path","8164":"mess.\"","4248":"ire","4629":"Baby","4484":"nes","493":"smiled","4901":"pony","2040":"weet","1603":"af","3946":"scoo","5076":"tube","6647":"Daddy.","3496":"easy","3918":"coming.","6820":"smelly.","7389":"here,\"","4782":"us?\"","872":"fast","361":"sh","1528":"Jill","2647":"gener","7682":"swoop","4939":"toil","1530":"hot","7178":"cream,","3882":"modern","3342":"flies","6606":"Tim!","7307":"course.","819":"a.","3489":"bake","4209":"cube","2871":"sleep.","1571":"deep","1826":"Thank","2118":"health","85":"t","5350":"cakes","5767":"pretty,","6385":"world,","1413":"asked,","6753":"was!","7676":"demanded","741":"toys","6218":"Lila,","596":"always","4569":"happening.","345":"es","5494":"weap","1009":"enjoy","5976":"kayak","818":"lots","6870":"examined","4428":"meal","7397":"forth,","8168":"waiter","7477":"material","3193":"jack","5484":"wing.","3353":"problem.","3028":"Bob.","6118":"hungry,","581":"will","6213":"disappointed,","1146":"pare","2622":"large","3948":"pool.","2823":"spoil","5299":"amazem","6885":"encourage","6262":"Unfortunately,","4679":"bright.","3634":"team","445":"man","6406":"infant","1275":"sky","5273":"trusted","5819":"mom?\"","2438":"person","2892":"clown","3097":"adventur","6217":"locked.","7858":"remo","402":"their","3422":"fountain","2072":"bowl","1050":"ized","4692":"thief","5814":"flav","6003":"alarm","209":"留","6276":"armchair","5325":"worked.","2225":"fron","6051":"Nut","7540":"classroom.","6822":"haircut.","503":"made","2339":"forgive","1003":"quick","1300":"wear","1376":"hy","4132":"alligator","5285":"apr","7828":"mother,","2315":"sharp","4481":"dogs","2642":"building","4059":"vol","5706":"ignore","5685":"truth.","3504":"oper","441":"n't","7000":"paints","7638":"four,","3099":"not.","5654":"stickers","1414":"ary","1647":"moral","5674":"remove","3969":"  ","4921":"shaking","5565":"stove.","1951":"pati","131":"ʏ","1824":"bike","5956":"screen.","6861":"look!\"","1721":"les.","7274":"twirling","3875":"original","4244":"aked","1968":"accident","3472":"important.","612":"wh","3446":"poured","3658":"pota","220":"裡","4805":"between","8049":"bricks","2169":"bru","7841":"warn","6445":"buckle","5336":"building.","3749":"doesn't","1320":"ers","3400":"ancient","2735":"irt.","4771":"speak","2094":"quest","4436":"spoiled","1153":"\"Can","4307":"sweetheart","902":"bed","3815":"clap","7722":"ice-cream.","662":"ang","5938":"market.","8029":"stitch","3728":"laughing.","2663":"sheep","3459":"vest","3928":"cryst","709":"Sudden","2926":"espec","7449":"language","652":"Jack","7084":"pit.","4588":"cush","6419":"yes!","2788":"nerv","1398":"tall","3914":"shut","6956":"cus","7969":"temple.","2660":"fence","3598":"counted","3715":"leaving","1393":"delic","1334":"around.","1688":"ose","2233":"you?\"","3897":"scat","8172":"overjoyed","6589":"cherry","7364":"budge.","4958":"present.","1666":"answ","6376":"\"Sara,","1865":"trees","4723":"here.\"","7793":"behave.","2263":"b.","911":"ste","5985":"warmth","6519":"buttons.","7612":"reward.","1988":"touc","8069":"cliff.","3584":"saw.","4420":"-year","7739":"home,\"","7268":"entire","7709":"shade.","683":"on.","5519":"prune","966":"dif","7757":"searched,","482":"bird","2370":"drive","2418":"smoo","804":"list","963":"picture","1633":"job","3297":"stubborn","6223":"us,\"","7959":"chimney.","7171":"spade","2319":"cket.","1473":"zy","3208":"moon","2606":"question","2226":"bucket","1890":"ap","5071":"golden","7396":"luggage","6234":"zag","3809":"\"Ow","6867":"thermometer","4172":"pun","4254":"leave.","4809":"boot","4960":"k,","750":"Suddenly,","1187":"do.","5995":"lock.","4156":"Andy","2528":"embarrass","5201":"model","7366":"ripped","7909":"creek.","2266":"laugh.","2749":"fire.","6967":"loves.","5188":"ears.","7635":"shining,","4718":"hino","2064":"that's","2357":"Emily","5678":"root","7046":"memory","1228":"\"Hel","3558":"handed","3209":"loyal","8170":"story,","3685":"too?\"","6883":"library.","2195":"secret","4525":"pushes","4700":"Or","3010":"race.","5118":"swings,","867":"walked","5594":"float","7902":"\"Daddy,","1356":"anything","3628":"clum","1682":"str","3402":"please?\"","5260":"sun,","3641":"unique","2959":"If","5876":"furniture","6308":"stadium","6404":"view.","2977":"mummy","35":"A","5445":"dress,","2625":"course,","2850":"pieces.","3132":"elderly","7450":"ranch","1068":"ine","2750":"sharing","7919":"robb","4028":"jacket","5689":"disturb","4747":"bathroom","3863":"“Let’s","4452":"reading","1572":"hole","3931":"Ho","4838":"morning.","7625":"Joe,","5311":"mirror.","3451":"slipped","5895":"umber.","7372":"steel","7560":"knowled","6730":"Benny's","733":"many","7063":"setting","8010":"Jacob","4580":"wever,","4129":"itself","6856":"\"Yay,","223":"難","519":"hug","1459":"Jen","4547":"reinde","5427":"aking","1482":"enough","2256":"splash","7415":"toy!","5810":"butterfli","7554":"backpack.","4793":"dive","6566":"fireplace","1563":"wards","3081":"adventures.","3150":"flash","3247":"apolog","7163":"mouse,","5721":"beak","2787":"poor","5885":"Sure","6537":"begged","6986":"trying.","1020":"\"S","6126":"baseball","2193":"smiles.","3607":"hard,","7766":"it?”","5113":"me!","5691":"Abigail","359":"there","2351":"naughty","2447":"net","4416":"Lily!\"","4084":"bicy","4957":"stove","4210":"tightly","664":"again.","7914":"shop,","7717":"hunt","4387":"chal","7605":"any.","6405":"leaves,","3848":"bean","1874":"leg","7472":"world!","7642":"Rose.","1169":"reached","252":"wa","1710":"ge.","3824":"going.","3841":"intell","1953":"dance","3768":"nosy","2716":"milk","635":"te","676":"water","7523":"quiet,","3157":"cleaned","6240":"kind,","891":"sl","3233":"welcom","938":"picked","6817":"gained","5276":"slides","7050":"eagle","7995":"web.","918":"opened","5777":"camp","1156":"ent.","2984":"si","5830":"vet","1123":"In","3444":"Sara,","5746":"finally,","5792":"skirt","488":"awa","3049":"clouds","6274":"meeting","7343":"club.","5106":"grape","1918":"secre","4520":"pushing","6002":"guitar.","2607":"lot.","3396":"knows","827":"ly.","1487":"Molly","4738":"hes.","7020":"emergen","7680":"sound?\"","2908":"wip","7106":"lux","2883":"ella","4538":"museum","367":"but","1531":"Amy","1549":"roll","59":"Y","3212":"vide","4773":"yours.","4352":"iggl","4741":"pilot","7025":"bare","1438":"cand","6001":"rhinoceros","7653":"is?\"","5526":"offic","394":"irl","2428":"else.","1883":"same","4202":"naughty.","4195":"ground,","5629":"aeroplane","6416":"working.","1812":"wr","3916":"spinning","5261":"tub.","7854":"cheerful.","1357":"sorry,","4804":"mechan","6112":"balloons.","1147":"Lila","5599":"cliff","5803":"eating,","4061":"gate","6678":"\"OK!\"","7610":"resto","8042":"Everybody","3334":"Ju","1460":"Daisy","5669":"repeat","2954":"cloth","6331":"ions.","1377":"\"Hello","531":"then","2440":"lovely","645":"ide.","3022":"leaf","4626":"Lucy's","419":"ic","6878":"weighed","2078":"books","2917":"Lo","6254":"Mom's","1472":"tast","4358":"finds","6766":"sed","2800":"broken.","3223":"was,","5323":"apologized","1082":"used","5495":"“No","7511":"cane.","4105":"snacks","1933":"naught","3738":"stack","484":"ll","7938":"form.","6048":"dare","3382":"care.","1494":"happened.","2818":"ever.","3800":"\"How","7624":"eggs,","2975":"eld","5010":"glove","6580":"insisted","6358":"beside","7933":"puzzles","3666":"steal","5790":"crash","2598":"cozy","95":"~","3688":"compass","4974":"questions","4513":"mild","7738":"led,","3009":"aw","1051":"cou","1422":"gam","2597":"cold.","315":"we","2627":"eventually","544":"t.","4019":"chang","5544":"cell","3357":"Lily!","2889":"Sue.","175":"」","1777":"waited","6150":"sword.","6818":"He's","7317":"best.\"","5523":"weak.","5315":"jellyfish","1529":"\"M","5760":"daughter.","7379":"sadly.","6790":"paused","102":"£","3183":"Jane.","2434":"ular","1977":"silly","1062":"curi","1457":"fight","2804":"towel","2879":"fence.","7870":"feelings","5800":"hurting","6155":"attic.","6256":"Poppy","971":"iced","751":"ough","1096":"fav","5948":"Sometimes,","6928":"poison","1286":"se.","4005":"It’s","7723":"share,","830":"stay","4983":"there?\"","5700":"rules.","2748":"fanc","3976":"cond","7985":"skills.","1432":"running","1346":"remembered","4875":"sport","4347":"Bab","8141":"see,\"","555":"decid","2236":"ries.","4464":"stirred","3302":"mad.","1035":"bre","844":"bad","6816":"berry.","5089":"veter","2458":"pocket","5515":"decis","2343":"shouted,","5222":"ignored","2918":"tig","7400":"airplane","7034":"courag","7064":"prov","4821":"could,","2738":"pizz","8021":"oranges","1362":"dren","114":"à","2711":"Alice","1499":"grandma","5152":"May","8155":"penny.","4453":"Sandy","4874":"peach","2421":"ious.","6059":"car!\"","6747":"\"Not","5149":"snake.","7146":"slim","7149":"greedy","7729":"refused.","5574":"nicely","641":"never","8033":"unhappy","647":"show","990":"looking","3707":"open.","5980":"pizza.","1410":"gent","5897":"kind.\"","5451":"wish.","520":"ach","1272":"hop","5955":"Fro","1371":"buy","3764":"aser","139":"ᴇ","1612":"All","3104":"rare","760":"outside","6008":"restore","8167":"fast!","2394":"trees.","6020":"fut","7907":"sorted","8128":"nose,","1722":"m.","4388":"planet","7806":"cord.","137":"ᴄ","6492":"cart.","69":"d","2090":"won't","5720":"can't.","5648":"structure","6302":"unic","362":"said,","4454":"broke.","6744":"opera","6927":"oasis","1297":"another","2360":"Lucy.","965":"more.","4867":"unpack","1057":"stand","4418":"sau","1174":"jumped","4117":"tug","5108":"hill,","5728":"doing,","309":"un","2007":"chas","2105":"basket","4025":"name?\"","2299":"pour","3943":"mush","2526":"wall.","2184":"umb","7798":"notebook.","3859":"ruin","7951":"shine.","4799":"mushroom","3163":"thick","2874":"meadow","4056":"dragon.","5290":"Buzz","621":"ball","6372":"meal.","3727":"ready.","4687":"belongs","7544":"stirring","6439":"crashed","3450":"oc","6242":"Cla","2145":"monkey","7743":"classroom","869":"pris","5382":"that!\"","5406":"deser","616":"\"T","2021":"sick","1889":"throw","2897":"re,","3811":"Where","7056":"opin","6063":"agree","4816":"empty.","6438":"bathtub.","5787":"pping.","592":"pre","7203":"brighter.","3464":"parro","2027":"game.","125":"ö","2591":"deter","5455":"radio","8083":"bunnies","5589":"s?\"","4305":"kite.","4196":"restaur","381":"Tim","366":"e,","5872":"hesit","7879":"problems.","1821":"stood","5643":"permiss","7737":"well,","2778":"cater","5761":"safely.","976":"member","7295":"upset,","5960":"circles.","7072":"Quack","4226":"singing.","6298":"warm,","7336":"dear.","5909":"uncomfortable.","4473":"stared","6740":"drinking","2245":"Fluffy","2395":"chick","3972":"neighbour","1011":"ane","3551":"chir","1760":"ies.","5788":"shells.","4075":"orang","8077":"harmless.","6532":"hurt,","221":"這","1493":"prince","3697":"deliver","5040":"know,\"","5929":"breaks","6769":"easily.","764":"side.","2082":"e,\"","1408":"birds","2113":"covered","3691":"Char","5517":"Rac","5900":"rhyth","5739":"yogurt","7126":"anymore,","2957":"thankful","6831":"frowned","2962":"ay.","1151":"glad","5180":"line.","14":",","2605":"sque","6480":"please.\"","535":"er.","4565":"animal.","8078":"light,","909":"explore","3165":"barn","4377":"ot.","2542":"shape","4361":"Mo","2080":"inte","4562":"along.","547":"An","6530":"sparkly.","4745":"stuffed","7173":"Out","3907":"arry","2442":"dangerous.","6185":"class.","7310":"nice,\"","4524":"bugs.","7728":"Gre","5204":"radish","6013":"floating","6901":"pencil.","1790":"chool","1317":"face","2915":"gar","8060":"\"Mama,","7884":"someday","3167":"\"Be","5231":"trucks","2230":"body","6588":"chewed","8092":"quarrel.","5289":"created","5575":"wandered","170":"−","1886":"accid","7874":"cuts","1229":"tir","2533":"others.","1729":"swa","4249":"delighted","5807":"um,","7726":"sticky.","487":"mad","6398":"meant.","5496":"dire","4564":"shakes","856":"keep","5412":"squeezed","1587":"pur","423":"rom","7901":"Bir","4064":"fast,","4944":"days,","3338":"cave.","838":"No","4336":"oy","5380":"barn.","1734":"hide","5282":"collar","7245":"match.","4322":"cone","7553":"Grandma's","1104":"grabb","1770":"Daddy","5021":"invest","6182":"twisted","7024":"vow","4825":"astic","2318":"Lis","3673":"carrots","4917":"ice-cream","314":"very","1653":"shared","4658":"modest","2033":"rainbow","5741":"basketball","1748":"magical","3680":"pige","1428":"Sally","7922":"stuff.","6009":"mixer","7990":"exercise","5":"#","5999":"neighbor's","6675":"firefight","7392":"Suz","231":"，","1926":"takes","1415":"This","5171":"affe","7506":"Susan","4380":"broccoli","615":"fore","5275":"Sp","5392":"purse","133":"ʜ","1470":"mother","4288":"iast","6407":"trash.","3273":"dance.","4661":"glu","7525":"unex","2469":"ighed","732":"because","2618":"empt","3079":"wro","7772":"sweetie,","1355":"pet","3709":"flex","3665":"crocod","4823":"gloomy","5642":"'.","4860":"content.","1330":"cast","3562":"play,","7597":"Peter.","8130":"tower,","5425":"ages","4755":"azz","896":"clean","7976":"eat.\"","4079":"bedroom","7195":"sunset","7043":"decorated","941":"way","953":"\"Let's","1479":"continued","7300":"wonders","489":"tre","6029":"cauliflower","3526":"smelly","950":"ass","3311":"shapes.","2621":"Even","5210":"stuck.","7229":"parade.","5952":"giggle.","4699":"walking.","1848":"pictures","1617":"teddy","1872":"pil","2614":"that.","8043":"different,","3577":"found.","3970":"bent","7326":"vowed","3043":"elder","2037":"pe.","1965":"daught","7297":"names.","6252":"this!\"","6796":"stars,","6872":"treasures","1201":"bor","2894":"spend","5953":"cactus","2807":"street.","5842":"shelter","7495":"catches","498":"boy","1557":"finally","2589":"mov","7936":"together,\"","5664":"this,","2338":"rolled","7412":"regret","2131":"okay.","339":"happ","2705":"woods","638":"Her","1139":"idea.","7532":"rough.","5934":"cooler","1636":"\"This","3391":"men","903":"p.","4737":"crystal","3030":"spicy","1280":"bag","3374":"already","5349":"missing","6319":"mom,\"","446":"ark","3076":"jog","1985":"long.","3891":"spilled","2492":"selfish","2486":"illy.","2900":"ially","5841":"’ll","4680":"boats","5271":"razor","7908":"applaud","6366":"quietly","6235":"kets","1282":"why","960":"think","377":"One","234":"🌴","3065":"funny.","171":"─","2911":"van","5155":"Kat","289":"at","7241":"handle.","2644":"tight.","2186":"late.","687":"things","3039":"rabbit.","7131":"below.","7848":"can,\"","5408":"first.\"","5103":"stamp","1595":"fox","5944":"reverse","269":"im","2719":"lunch","3306":"again!","4043":"thoughtful","1217":"looks","1247":"waved","2568":"ummy.","7997":"freeze","3858":"ache","188":"剛","4839":"headed","8037":"refreshed","7323":"chairs","4786":"sauce","6882":"bear's","3557":"origin","4879":"some.","7339":"Tues","1858":"daddy","1928":"\"Mommy,","3612":"holds","8150":"hugs.","2141":"log","5532":"monkey.","5399":"meant,","6767":"hay.","6220":"there's","7713":"apologize","2925":"fear","4586":"point","4027":"potato","5140":"\"Bye,","7170":"tall,","1269":"catch","2335":"something.","7152":"ated,","2546":"invit","3358":"disappoint","4078":"cture","1522":"pack","4591":"healthy.","6056":"pen.","3860":"Po","1630":"pen","6459":"Sammy.","6115":"urge","6692":"sofa","1972":"relie","6718":"reminder","4830":"fort","6847":"live.","8187":"recorded","3644":"lollipop","6315":"shampoo","2675":"hospit","5975":"zipped","7069":"worried,","6738":"river,","4217":"ier.","6437":"stom","2806":"sea.","1520":"dinn","3720":"reward","6401":"shake.","3662":"nods.","4439":"boy's","5098":"worth","3413":"exclaim","4462":"admire","7545":"Always","6775":"ow!","5241":"raz","1452":"paper","4038":"balls","271":"st","4060":"chasing","4391":"Qu","4685":"early","3149":"music.","1646":"mone","1875":"pond.","7720":"gifts","6264":"ions","2":" ","4710":"dar","3834":"dove","4007":"chu","2179":"danc","808":"ank","5233":"\"Tim,","6614":"salad.","5059":"doing?","4166":"Mag","3563":"Kim","3878":"friends.\"","6305":"ga","2093":"card","787":"explo","6380":"-and-","260":"ar","8028":"count.","475":"wor","1441":"ger","4947":"smells","5591":"coal","4744":"throws","7228":"Jeff","2220":"heavy","7710":"plent","6715":"compan","5036":"\"We're","2099":"craw","7526":"Prince","6546":"flying.","3544":"load","5483":"dent","1746":"carro","7445":"museum.","7423":"prettiest","49":"O","1931":"dist","5352":"loudly","6982":"ggy","4200":"\"If","6045":"washing","6716":"lions,","2150":"Tweet","1309":"arri","1458":"que","3975":"successful","1261":"ba","5207":"ople","166":"‪","2830":"scissor","3622":"free.","3189":"needs","5749":"\"R","7719":"bath,","6912":"flour,","7479":"matched","5302":"lab","3951":"mistake","6814":"soared","2124":"princess","5597":"frigerator","6743":"theater","8004":"\"Ro","7790":"tummy.","4259":"do,","2199":"nic","6389":"comf","5032":"kingdom","5043":"wags","5230":"mommy's","6236":"grapes","3108":"extra","3748":"nature","6349":"baker","3510":"ase.","789":"gard","6249":"alive","6560":"Lu","5237":"shrink","5701":"journal","3960":"spr","3682":"goat","5364":"diction","3985":"moms","4609":"turkey","6425":"pedal","4024":"ribb","2028":"raid","24":"6","2798":"Anna,","3210":"famous","3393":"bugs","2600":"ried.","6573":"Coco","3667":"washed","6599":"word.","4284":"nurse","5602":"Milly","5806":"test.","6253":"wed","7257":"okay,\"","354":"ound","7012":"future.","914":"dra","5283":"letters","5236":"bright,","943":"Lucy","7981":"En","4334":"iness","3321":"delicat","5690":"There,","3934":"zebra","5023":"claw","6424":"pon","2646":"gray","4536":"sleepy","4783":"mand","3398":"girl's","3942":"Daisy.","5115":"microsco","6864":"ah","474":"fa","675":"long","7176":"officer","7872":"see,","2790":"clear","1589":"trying","1245":"fix","4889":"Harry","5624":"Lee","577":"arn","6586":"wid","5164":"competitive","7570":"prints","4067":"playful","2435":"blew","3069":"motor","3126":"lonely.","4489":"pigeon","2274":"coat","1296":"dark","6455":"grumpy.","7585":"motion","5294":"hic","2102":"eas","4461":"Grace","4514":"pas","6351":"attic","7161":"restaurant.","2895":"lunch.","7451":"hospital,","3270":"shelf.","1500":"gra","3158":"wrapped","7989":"twinkling","1434":"smell","4493":"photo","7431":"Claire","6865":"mailman","5605":"saving","5476":"vase.","4646":"experi","1373":"bug","7132":"baked","6904":"track.","6108":"hurri","7021":"cheek","2714":"write","406":"sp","6373":"breeze","6947":"sire","3389":"is.","4170":"dad's","6476":"happiest","6980":"escaped","8000":"chewing","2516":"eager","622":"ist","959":"hair","2972":"children.","5112":"pond,","4521":"Whisk","4763":"sym","7784":"comes.","4112":"berries.","8084":"sunflower.","1923":"shook","6862":"Thomas","2053":"explore.","3683":"birdie","704":"ell","4325":"stops","7338":"Wed","6905":"sour.","6890":"listened.","6663":"mystery","7066":"wagging","3147":"straw","8009":"shovel.","7953":"surprises.","5490":"recei","6575":"simp","7360":"normal.","1495":"pupp","376":"some","7843":"operation","1160":"helped","2802":"foot","6729":"lands","5645":"hardly","1829":"voice.","5232":"goal","1763":"hoped","7606":"3-year-old","7192":"Tilly","7730":"that?","1323":"close","5259":"letting","6950":"softly.","4785":"rhino","1180":"having","4813":"fireman","6849":"knelt","7386":"\"Lily","1492":"ful.","6047":"stomach","7677":"pleased.","609":"on't","1713":"surprise","4644":"celer","3499":"moving","353":"ro","1054":"end.","2393":"rag","7142":"bossy.","398":"upon","1814":"asks.","6378":"missing.","4579":"cart","3486":"treasure.","3677":"difficult","3052":"went,","6745":"grey","2054":"mess","4817":"ies,","6362":"oxy","1361":"fair","152":"‑","1649":"say,","2797":"standing","3435":"St","6139":"newspaper","6609":"brand","6844":"leather","2098":"suddenly","812":"ched","2088":"gest","5593":"gerator","324":"ch","5170":"learn.","3345":"ugly","4271":"star.","5794":"jump,","400":"ful","3982":"marble","6374":"eggs.","5568":"bubbles.","3220":"nose.","7182":"competitive.","245":"the","1065":"became","2265":"spid","7601":"path,","3515":"ured","222":"過","6248":"sorry.\"","4164":"scoop","5104":"regre","835":"ve.","176":"一","1162":"work","2988":"lose","4582":"putting","5006":"seeds","7727":"sunlight.","3371":"angel","126":"ú","5580":"eagerly","7663":"Lucky","936":"clim","5553":"avocado","7456":"rested","6022":"there!","3806":"later","2498":"new.","1982":"ray","795":"fly","4052":"blue.","4299":"harsh","4890":"celebrate","7747":"peace.","8064":"glow.","1198":"pret","811":"beautiful","6169":"laid","7892":"race!","3536":"now,","2702":"days","7643":"arrow.","874":"flew","453":"ght","3847":"pirate","5715":"waves.","1832":"monster","6468":"Tommy's","5110":"hopes","6777":"eat,","4193":"Today","107":"´","5540":"adventure!","7187":"caring","987":"shout","1329":"cri","4180":"jud","7015":"tastes","4214":"spell","655":"much","1264":"river","4364":"practiced","479":"Timmy","8135":"broom","421":"can","173":"　","1215":"sorry.","7550":"cuse","1168":"safe","1347":"’s","1384":"hill","1113":"iss","1474":"getting","1620":"hug.","2554":"spray","2397":"sne","3239":"tough","3265":"confused.","3583":"vie","6679":"ester","5070":"busy.","4935":"shine","5467":"we'll","2582":"know.","2603":"today","5868":"believed","2701":"rope","2602":"hat.","5905":"ding","7921":"broken,","7045":"relax.","199":"恩","1652":"there.","7658":"cartoons","1132":"Timmy.","7007":"microscope","7813":"hearts.","5184":"tip","31":"=","7324":"fast!\"","7230":"velvet","2933":"robot","3694":"shoes.","2587":"Ben's","828":"ted","2285":"myster","1091":"friend.","7115":"Everyday","1017":"stick","1983":"yell","257":"om","5882":"hours,","915":"ild","1158":"Don't","2460":"kids.","3082":"kin","2461":"pool","1565":"it.\"","3864":"shore.","5189":"carpet","3919":"came.","5633":"Rosie","1671":"nodded.","5481":"pant","3442":"swan","5764":"praised","5829":"scattered","3296":"rude","1702":"bed.","4705":"y!","4859":"shells","6117":"Tom!\"","1185":"part","6681":"Ow","1641":"Some","5577":"robo","5136":"Please,","3588":"trick","4872":"ately,","6494":"petted","2655":"understood","2819":"way,","7061":"grandma,","3829":"rec","8139":"circles,","6183":"sheep.","3346":"ero","7022":"valle","3348":"strange.","7616":"importance","3113":"jeal","5213":"cute.","7586":"\"Happy","58":"X","6440":"faucet","2572":"colors.","3316":"games.","7390":"firepl","710":"ouse","7528":"expect","1838":"without","2453":"ner","6667":"tall.","6828":"amazed!","2207":"lake","5033":"houses","6954":"\"Really","1333":"Em","1562":"boy.","4883":"playground","782":"bra","7042":"\"She","1689":"kitchen.","3664":"juicy","6448":"Big","7085":"asleep,","7206":"disturbed","1081":"laugh","2585":"arms","1669":"must","2956":"But,","1643":"mind","2974":"friendly.","4833":"engine","7406":"unusual.","5121":"Bunny","2004":"band","7039":"grandpa.","590":"on,","665":"ven","7006":"fort.","3198":"middle","5339":"ely","4681":"Car","504":"get","2443":"gigg","2720":"frustr","4605":"wishes","5808":"Bubb","6307":"Penny","6381":"six","5191":"forgotten","2672":"blow","4149":"Everything","7703":"puppy,","1258":"irt","2949":"mirror","3944":"polish","2009":"holding","4753":"enter","5870":"encouraged","8159":"included","843":"It's","387":"ved","181":"保","3340":"uggled","2331":"ation.","7059":"tank.","2084":"onto","2941":"match","2571":"protect","7062":"studied","3290":"favourite","2436":"spread","1031":"differe","4467":"trave","4903":"gorilla","4907":"scooter","6939":"sity.","541":"ss","391":"him","4415":"full.","4455":"vator","627":"When","5017":"object","7832":"shelter.","5480":"fest","1884":"oun","1435":"smile","2631":"vel","1237":"agre","2873":"Teddy","4652":"ladder.","5647":"cable","2116":"umber","7065":"cuddle","5156":"envious","464":"looked","5433":"glowing","7363":"afraid,","4443":"vegetables","7826":"car?\"","5295":"roar.","3723":"yelled","6501":"lecture","2574":"forward","5915":"adi","5102":"friendship","854":"hank","5287":"licks","933":"ouse.","5048":"nicely.","4734":"ecause","2961":"drum","4488":"buttons","7463":"mom!\"","6338":"prize.","7846":"tiger.","1340":"held","4549":"appreci","7864":"alone.\"","336":"'s","6543":"boys.","1969":"seemed","3886":"dependable","7304":"wound","7094":"argue.","243":"he","1483":"miss","735":"small","3593":"ince","4976":"By","2958":"ase","5705":"dried","116":"â","617":"le.","98":"","5034":"medi","3766":"thinking","143":"ᴡ","1800":"slowly","3654":"those","5504":"ort.","4714":"wards,","1491":"cha","1605":"stu","2796":"well.","6127":"draw.","4490":"jar.","781":"dy","623":"ally","4578":"crane","1606":"animals.","7956":"mean,","3343":"ating","2333":"singing","5702":"sity","141":"ᴛ","5417":"bit.","4760":"exclaimed.","5727":"rhy","2576":"furry","4984":"helicopter","7593":"include","5863":"organized.","4868":"crow","5675":"\"Yuck","4159":"poem","1018":"tell","3463":"heart.","4103":"imagined","5823":"happened,","6121":"teaspo","3178":"cost","4072":"miser","384":"On","6193":"Chirp","3164":"lifted","4032":"pumpkin","2693":"cop","6968":"prepared","2539":"Mummy","6454":"reef","8110":"teaches","5105":"leash","60":"Z","2691":"gold","5128":"plate.","5583":"safet","2820":"Bun","2684":"carried","2659":"look.","4404":"net.","6518":"white.","986":"ummy","2408":"mel","5858":"mint","7672":"slippery","7844":"crunchy","2960":"fancy","5460":"city.","1677":"ele","2611":"worry","5306":"others,","6782":"rele","1464":"slide","2745":"sighed","2699":"these","3922":"aunt","0":"\t","6371":"one?\"","4965":"skin","1106":"play.","5649":"ask.","1451":"most","5011":"isto","3066":"Sarah.","7137":"“This","5409":"vine","1196":"ster","3614":"raced","4930":"too,\"","5901":"tasty.","148":"​","2056":"izz","6824":"great,","3263":"brilli","53":"S","7181":"bees.","4090":"\"Give","1108":"les","7574":"trapped","43":"I","1582":"forest.","6241":"frightened.","8105":"dog.\"","1976":"ped","2316":"n’t","5065":"bury","2920":"dirty.","6881":"careless.","2817":"flag","5563":"complete","7337":"all!","7964":"observed","5338":"themselves.","2759":"yummy.","3036":"cy","3369":"crayons","2626":"trust","5410":"hive","1771":"Mum","7041":"keeps","7284":"leak","4153":"so,","693":"over","6120":"writing","1547":"spl","529":"ep","862":"lived","791":"scared","4222":"quar","4401":"eye","5313":"Tina","7008":"it.”","7991":"dish.","3940":"spir","5681":"Its","3141":"shows","5087":"names","335":"ould","7724":"pillows","7950":"works","7827":"for?\"","5183":"fog","8185":"pout","3745":"hetti","7512":"water.\"","7673":"afternoon,","6296":"cold,","388":"ho","1242":"hun","6623":"challen","2415":"finish","7885":"est.","6435":"refre","3572":"places.","5766":"there.\"","4664":"adorable","393":"Tom","33":"?","754":"et's","2017":"boun","4141":"tummy","6176":"easy.","1880":"da","1930":"young","3548":"unknown","3947":"gloom","3636":"lady.","4142":"gorill","516":"got","491":"y,","3500":"us.\"","1631":"up,","2575":"hour","6033":"rock,","7352":"bike,","6626":"dishwasher","6260":"mail.","2203":"doll.","4162":"bri","7424":"sweet,","344":"itt","5729":"cats","2654":"knocked","5571":"fant","4023":"anywhere","3533":"ashamed.","4392":"Sophie","7888":"balls,","6226":"bleed","6637":"fields","6848":"Timmy!","3505":"seen.","4178":"what's","2893":"licked","3124":"tag","4062":"izzy","2580":"hears","6355":"other.\"","7819":"spicy.","4628":"screamed.","5139":"cool!\"","890":"pic","5468":"pipe","259":"on","5027":"introd","1966":"quiet","2185":"jar","5464":"calm.","2945":"stop.","1497":"ju","3482":"falls","2770":"used.","3215":"turt","745":"away","625":"knew","7159":"“It","288":"ck","1450":"wants","7725":"let.","2617":"tells","2785":"joke","3911":"ler","5848":"surf","5831":"beamed","1027":"llow","2799":"\"Tom,","650":"come","5041":"hanging","5431":"ife.","3281":"see.","187":"到","3616":"rud","20":"2","7032":"butter.","1137":"different","6162":"Frank","4882":"shopkeeper","7128":"hes,","3525":"orig","682":"ump","4510":"sighed.","8040":"girl.\"","3229":"fool","8022":"package.","4583":"mountain.","5991":"Joy","860":"should","6060":"dear","2235":"wash","7655":"fascinated","7014":"useful.","7462":"zero","418":".\"","6335":"do.\"","5723":"glad.","5757":"Tommy,","6837":"Mom.\"","8044":"Cindy","6400":"distance","1248":"rel","2156":"explained","2039":"push","5353":"dogs.","6995":"lid.","5343":"shore","1449":"ross","3844":"basket.","5047":"late","6900":"Like","3221":"free","4432":"curious,","1227":"star","3732":"thought,","403":"ur","2045":"pot.","3005":"everywhere.","2459":"all.","2965":"kn","3291":"lean","4104":"tried,","5592":"Emma.","1948":"mommy.","1202":"rabbit","1392":"nts","5881":"bus.","2943":"chan","5238":"pain.","7514":"Adam","1752":"helping","7986":"cross.","1022":"showed","4017":"excitement.","6204":"fixing","7144":"obedient.","1119":"light","3106":"End","2967":"done.","6992":"dictionary","1318":"Dais","2710":"beautiful.","1879":"\"Go","2190":"ible","719":"right","6490":"lights.","720":"che","6889":"\"To","3344":"vi","2292":"now.","3543":"bone","1005":"gry.","7376":"band.","2827":"nap.","3205":"Kitty","207":"玉","4975":"everywhere,","4367":"mill","4077":"Amy.","553":"playing","424":"ide","3935":"work,","5331":"shampo","2636":"seat","5226":"hon","5621":"lie.","1086":"tw","923":"colo","3131":"sett","7179":"ideas","6408":"Is","6574":"bears","7763":"playful.","968":"ting","634":"any","192":"天","2548":"goodbye.","3327":"space","2870":"OK","1385":"seen","6066":"spill","8158":"spraying","5931":"“Thank","466":"own","3571":"boo","2914":"ird","6985":"poppy","7030":"makeup","7369":"guessed","5472":"reaches","6122":"farmer.","2117":"colour","210":"當","2212":"others","2191":"pretty.","6146":"beha","2160":"pes","7621":"happened!","3368":"invited","4463":"Smith","6163":"\"Read","3075":"apples","1598":"count","6151":"mister","8068":"stand.","6690":"rul","4648":"face,","5918":"What's","2121":"tired.","2323":"whole","2206":"store.","434":"um","1608":"runs","2424":"ens","5927":"cobweb","7988":"problem,","6932":"realize","6300":"shot","76":"k","5518":"Sus","1780":"cour","5396":"sandbox.","8184":"dipped","7705":"can’t","3255":"in,","6549":"sings","724":"From","7435":"reluct","668":"sk","3514":"belonged","5172":"suff","2927":"bat","4152":"town,","261":"The","7405":"go!","1768":"believe","2910":"mysterious","4519":"avoc","4189":"travel","731":"en.","296":"ri","6062":"drum.","7199":"ppy.","3421":"waves","1044":"asked.","5439":"calls","8098":"dance,","5120":"cooking","1851":"stead","2483":"sie","7925":"patterns","5514":"flutter","374":"thing","349":"out","657":"hand","186":"分","837":"both","3964":"hugg","7009":"Jenny.","6874":"Suzy","7411":"released","2544":"tomorrow","3416":"trouble","1512":"beach","2416":"search","1055":"\"We","44":"J","1342":"\"Don't","1866":"owner","4232":"off,","5263":"anywhere.","5795":"anymore.\"","6780":"hoop.","4393":"for.","5891":"wobb","7769":"it\".","5202":"patient.","3283":"deer","1670":"chair","813":"fin","4399":"cleaning","626":"run","523":"good","2158":"pleas","3271":"pleased","4712":"snowman.","1203":"through","2470":"Re","6652":"respectful.","6085":"warning","2431":"me,","6418":"gotten","2928":"il.","3399":"tele","3950":"medicine","1708":"je","4277":"birds,","3699":"places","1308":"bunny","7681":"two.","1575":"luff","248":"to","6135":"John,","2240":"feather","2264":"ches","4696":"special,","2652":"itty","2853":"song.","3832":"create","1802":"win","4273":"complain","6074":"spider.","2718":"Max,","4342":"higher.","927":"going","1063":"kit","2287":"playing,","5781":"\"Stop,","1033":"soon","3226":"pal","5796":"True","2328":"rubb","7213":"\"Bo","5165":"erc","759":"kind","1963":"ient","3736":"\"Now","5257":"\"Wa","4128":"friend's","5061":"school,","2281":"valu","3038":"Ella","6327":"surrender","6359":"alone,","3656":"pebb","4373":"Snow","815":"tru","5429":"minutes","225":"","5634":"musician","7401":"violin.","1069":"mag","2872":"excitem","6734":"Teddy.","3475":"fight.","4051":"feet.","455":"la","3461":"means","4121":"attract","4264":"Today,","7189":"grant","6876":"impatient.","4116":"home.\"","3042":"chicken","4851":"much,","5441":"People","6364":"observe","167":"′","6522":"Mom!\"","696":"heard","651":"sw","386":"Once","4936":"towers","2651":"missed","5442":"turn.","6342":"beautiful!","1445":"ate.","6471":"glowed","4595":"octopus","5335":"demand","6434":"ringing","3078":"less.","7031":"ddy.","7365":"Kayla","7509":"fireplace.","2978":"necklace","328":"play","7831":"pes,","2368":"arrived,","6765":"velve","805":"under","6547":"ring,","7103":"release","3181":"passed","1157":"ct","7527":"w,","2728":"rad","7269":"twin","7693":"stick,","1517":"Billy","1105":"ip","2497":"maybe","2197":"storm","2129":"bite","5641":"island.","5073":"chest.","7589":"maze.","294":"se","3653":"rug","5143":"hurry","3207":"island","1448":"funny","6810":"bottom.","2172":"talked","2198":"money","6701":"question.","2858":"pin","3692":"“What","3000":"horn","8114":"want?\"","2001":"sco","5035":"belt","2399":"ator","256":"was","614":"friends.","5327":"watch.","5116":"gasped","3286":"answer.","7671":"ica","7999":"caused","4165":"!\".","1945":"mir","5896":"mm,","426":"fe","3710":"bird's","2425":"Spot.","5291":"baking","6353":"Betsy","7305":"soaked","595":"about","1002":"wonder","4529":"avail","4445":"Al","7834":"thoughtful.","6572":"is!\"","4780":"furnit","6273":"escape.","1730":"scared,","904":"listen","164":" ","799":"jump","3492":"crayons.","5428":"oas","1895":"\"A","6057":"Steve","7924":"accomplish","8075":"rose.","2463":"s!","5826":"ok,","1628":"Tim.","558":"decided","5889":"butterflies","5193":"“It’s","5712":"soft,","4742":"rend","559":"every","2317":"Together","3314":"change","4427":"back!\"","425":"went","1765":"it!","2422":"phone","5400":"read.","6527":"running,","6025":"unhappy.","2717":"agreed.","4087":"igator","6668":"map.","5141":"forward,","6465":"remembers","3481":"distance.","5884":"equ","4011":"you!","1607":"cloud","3292":"ak.","1437":"fr","5465":"kitty","7524":"automobile","4543":"mole","7232":"wine","1111":"kid","4221":"clay","1109":"flo","132":"ʙ","1344":"replied,","6577":"\"Mmm,","7619":"ali","7640":"special.\"","3698":"Tweety","4301":"mum.","2777":"field.","3678":"honey.","1141":"sand","5394":"ion,","6014":"ling.","4479":"pulls","6493":"itself.","3566":"ally.","6612":"recognized","2137":"carry","5747":"fortunately,","5801":"garage","4204":"tub","1581":"drag","3425":"glass","1920":"scary","2110":"journe","7782":"country.","2201":"vit","6858":"computer.","4908":"Red","582":"bu","4073":"gir","6585":"finished.","7548":"funny,","4980":"branches.","5423":"exploring.","5910":"item","1823":"wouldn't","2866":"allow","4216":"squirrel.","4708":"ges","4414":"flexible","2437":"ier","4731":"drops","6697":"nightm","7430":"Jon","2243":"prot","82":"q","2401":"fli","4619":"Millie","4592":"wait.","7309":"ves","1216":"ais","1526":"move","1645":"broken","2050":"tiny","7838":"bite,","6132":"same.","4315":"bags","1635":"hone","532":"dec","458":"loved","375":"ul","5383":"round.","6556":"tune","3313":"knight","7476":"treasures.","3751":"ship.","6991":"wide.","4596":"flashlight","7810":"upstairs","270":"lo","7263":"mommy!","2490":"welcome,","6131":"honest.","1133":"sky.","526":"wal","6075":",”","4770":"sunflower","2537":"Wh","3305":"berry","5862":"First,","1099":"pul","1711":"everywhere","7243":"them!\"","6564":"unite","8163":"Fe","6049":"chip","857":"Lily's","3329":"mouse.","677":"into","3780":"bite.","6955":"sneaked","4291":"doctor.","7746":"rott","1079":"blue","3006":"boss","3898":"thie","4330":"sent","1036":"cream","6538":"magazine","2849":"ade","5631":"Rex.","753":"rabb","7010":"soak","4240":"licop","7962":"cakes.","5402":"trash","7454":"hest","5537":"'ve","1542":"appear","7033":"\"Ha","372":"ack","611":"room","5797":"powder","7185":"rooms","6548":"bookcase","1278":"stop","3991":"keys","2698":"nut","4750":"magnet","6036":"rocket.","5821":"restless","497":"started","4010":"snuggled","4016":"smoke","369":"saw","551":"ous","6708":"weren't","11":")","161":"”","3262":"scr","6720":"stro","2279":"asleep","3051":"ty","3941":"ect.","7970":"weird.","7646":"someday.","8146":"what?","2473":"chased","4186":"sty","1182":"draw","7079":"cub","6684":"ollow","6656":"agree.","7773":"papers.","99":" ","3110":"bed,","5988":"excitedly.","6392":"\"No!","7547":"tree!\"","4176":"aur","4389":"swing,","6107":"we're","6670":"Don’t","8008":"\"Look!","4704":"bath.","6334":"much.\"","3143":"board.","1291":"wished","2386":"delight","7417":"help?\"","7083":"what.","4168":"spoke","6525":"knife.","6192":"practic","7992":"scra","6258":"lamp.","877":"rm","7517":"kindly","1312":"fl","177":"了","7096":"peel","4205":"good,","7955":"Linda","3476":"independ","1704":"careful.","2387":"inc","2073":"by.","6006":"“W","6386":"lest","4926":"newsp","2692":"present","3746":"aghetti","4069":"big.","6031":"actually","1077":"warm","5303":"Whiskers","331":"for","1118":"grabbed","7443":"fabric","550":"ave","2384":"ive.","4021":"tro","2187":"searched","6294":"fet","1616":"pulled","1731":"ride","2812":"twirl","7220":"luffy,","6938":"argue","771":"nois","583":"take","2553":"parent","2666":"den","3059":"bike.","3351":"\"Well","6993":"squirrels","5785":"folder","606":"toy","4000":"gor","3015":"hero","1639":"danger","2999":"og","3227":"rough","2586":"nest","7694":"Slow","1193":"Ben.","334":"nd","2364":"spent","7715":"Chr","6099":"during","3373":"Pete","4555":"troph","7700":"fetch","3377":"Geor","7791":"rocked","6318":"agreem","1405":"might","4568":"Billy.","4651":"giggl","4483":"sleepy.","1691":"heav","5898":"pillow.","2060":"ling","8156":"tree.\"","6755":"invitation","619":"laug","4841":"need.","6834":"revealed","4896":"bathroom.","8088":"decision","370":"day,","2439":"tid","299":"pl","5935":"itter.","4384":"dull","1660":"Just","2219":"worried","2938":"dark.","1279":"soft","8123":"rot.","7758":"\"Sh","1796":"colors","692":"ta","4326":"\"Well,","6259":"smoke.","4278":"track","3725":"\"Let","2188":"playing.","3434":"edge","5560":"use.","2695":"dangerous","5146":"imagine","7110":"chamber","1516":"one,","6691":"zigzag","7792":"soil.","3466":"kinds","4124":"chees","3200":"harm","2687":"rocks","3767":"sing.","5626":"thirsty.","4400":"Whis","6859":"Tu","2433":"that,","4396":"fruit.","1863":"farmer","8186":"hurry.","52":"R","1979":"ess","5211":"pebble","2047":"wondered","1570":"Ben,","6441":"collecting","2228":"faster","5566":"shell.","3332":"upset.","6271":"explained,","6907":"sandcastle","414":"have","7759":"firemen","4034":"wealthy","496":"oud","7535":"now,\"","3958":"scatter","7837":"sidewalk.","1366":"ily.","5097":"served","5783":"castles","3162":"phone.","7519":"signs","322":"ow","8065":"black.","6265":"good.\"","4695":"bushes.","6324":"blouse","7755":"cent","1121":"place","56":"V","4320":"boring","5914":"offer","4865":"mosqui","1030":"cook","1230":"col","1226":"promis","3480":"ated.","7580":"united","2005":"world.","1831":"\"Okay,","1564":"gi","4719":"shrimp","3604":"cage","117":"å","3317":"smiling","5578":"captain","4207":"jumps","4426":"beg","798":"laughed","389":"car","7721":"time!\"","4286":"changed","5725":"moms.","1511":"creat","4098":"helmet","4355":"faces","1574":"treat","5298":"Good","5972":"chall","2063":"uni","2346":"oce","4448":"Charlie","3596":"line","2477":"did.","5333":"something,","3631":"stranger","6429":"him.\"","7258":"bunch","4451":"frustrated.","4298":"ie,","449":"ran","7150":"stickers.","1922":"pol","1550":"sail","859":"\"Yes,","3308":"argu","2593":"Sara.","4768":"enough.","6617":"pretty!","4720":"mind.","198":"很","2210":"woods.","6409":"watered","7541":"Jane,","3044":"cookie","7825":"ball?\"","4471":"content","7052":"persistent.","7823":"staring","92":"{","2845":"saur","5530":"kneel","5613":"anxious","1145":"er,","4728":"ing!","1383":"plan","1775":"town","2151":"smiles","70":"e","3350":"please!\"","6949":"Len","7949":"will.","4556":"marched","2350":"cele","3168":"tower.","2594":"fruit","3397":"silly.","1395":"angry","6313":"spear","1368":"bab","3187":"chase","3761":"lamp","5926":"blocks,","6053":"David","12":"*","6601":"I’m","1548":"delicious","1855":"cid","7191":"parked","1932":"itting","7353":"tex","316":"li","1225":"cla","1742":"across","8055":"panic","4923":"answered","6845":"alive.","5107":"like.","5939":"play!\"","1849":"bring","2194":"power","2020":"ver.","1204":"home,","4310":"gn","2176":"bul","7004":"villagers","1701":"treasure","277":"ir","2232":"appeared","948":"scared.","1541":"clothe","2969":"chew","4630":"dog's","2200":"whi","6038":"robot.","2217":"ham","7129":"good!\"","6477":"hurried","3053":"loy","7830":"wet,","913":"also","7507":"energy.","3597":"memor","1488":"poin","4727":"branches","1324":"ide,","3175":"penc","5215":"loved.","5160":"penguin","4656":"gentle.","6888":"yard,","3595":"statu","7833":"swan.","2963":"ladder","1026":"fere","4437":"Next","7587":"worse.","7481":"leash.","2380":"f.","6004":"jazz","1989":"wall","4225":"mine.","5126":"dam","3945":"remain","3385":"wiped","6363":"sister,","2120":"right.","3387":"whistle","5001":"succeed","7277":"\"There,","5461":"lightning","1718":"work.","337":"end","1597":"\"Oh","7740":"forget.","660":"careful","2907":"au","217":"興","508":"put","1744":"night,","3575":"teeth.","1072":"leave","803":"sur","2506":"Lisa","7289":"fab","142":"ᴜ","7298":"poking","3412":"girl,","8143":"hiding.","1115":"Sue","4435":"top,","7814":"news.","2729":"ake.","2779":"caterpill","5827":"hate","6497":"wardrobe","7047":"flood","2213":"hill.","8096":"one!","50":"P","4778":"grown-up","1164":"ash","4081":"princess.","5489":"short","2638":"ned","4752":"poss","4350":"everything.","6906":"next.","7078":"“No,","2835":"selve","3309":"journey","6662":"meowed","1386":"girl.","1937":"caught","7860":"youth","273":"or","1167":"top","5503":"sweater","467":"around","1367":"friend,","879":"After","7497":"touching","301":"ith","3519":"tem","2952":"flut","2753":"irst","2183":"sound.","4102":"bread.","1093":"sn","100":"¡","2336":"impress","2923":"helpful","6444":"\"Ouch","6674":"bird!","1430":"song","2430":"cks","5401":"recomm","7659":"spin.","659":"dre","5005":"squash","2322":"goes","873":"ing,","1299":"sat","4730":"ornam","1173":"brother","4459":"shiver","1336":"olly","5414":"reindeer","2620":"almost","5894":"Lun","5252":"celebrated","417":"hen","5984":"carrot.","6869":"course!","7679":"meadow,","7706":"lazy.","1231":"nodded","4678":"closet","7104":"beard","2903":"Dan","1016":"okay","1576":"wis","8157":"ary,","51":"Q","1475":"fall","6414":"truck,","385":"were","4844":"Jill.","6605":"jewelry","7502":"boom","7803":"Pipp","4002":"wic","6940":"OK.","3706":"Bill","1535":"fur","4033":"warned","4181":"jeep","4689":"whispered","6997":"satisfi","3169":"Bobby","1911":"add","4539":"snacks.","4606":"don’t","5384":"ran,","3388":"asking","7753":"apple,","1502":"fre","6186":"kisses","6202":"seas","1259":"cool","2215":"ket.","6485":"calendar","3370":"est","7175":"Lou","7215":"shoes,","190":"和","6622":"another.","5965":"quit","7578":"letters.","7515":"Ja","4474":"ure.","7654":"envelope.","7609":"stop!","1903":"dragon","3733":"ingred","1222":"himself","847":"ey","4236":"cob","2517":"say.","5845":"strength","3753":"opens","3602":"today.","1971":"hes","2722":"replied.","2441":"books.","5174":"prevent","5637":"disgusting","5904":"me?","7771":"broccoli.","6739":"destroyed","4972":"wipe","6175":"Ol","1285":"hind","849":"k.","2864":"lit","3274":"bloom","358":" \n","978":"pot","2643":"brush","2502":"set.","2948":"pocket.","4746":"firework","5264":"\"Timmy,","213":"答","2012":"pra","628":"dden","7237":"Betty","6000":"buzzing","7598":"\"Thanks","5357":"\"And","1835":"kno","5079":"“O","5522":"protec","5820":"climbs","5509":"laught","7291":"teasing","7941":"bead","1379":"ins","4754":"come.","5085":"string.","5246":"plants.","7404":"laughter","4877":"ox","1615":"visit","6316":"receive","2166":"sunny","4891":"swim.","3913":"turtle","7194":"sharp.","3295":"helps","3805":"knee","3301":"dreamed","672":"her.","3684":"no!\"","5967":"proper","3659":"notice","7256":"statue.","2464":"exciting","477":"now","842":"has","280":"s.","7518":"dream,","1912":"elephant","4614":"taxi","4447":"talk.","3115":"wha","4421":"rainbow.","3542":"Mil","5743":"aper","2144":"bby","2731":"cross","4267":"have.","7716":"greet","4135":"repe","7026":"flute.","6357":"raining","255":"er","3769":"map","1921":"moved","2391":"ventually","6005":"more,","3457":"ger.","3889":"stars.","78":"m","894":"it,","7210":"hurts!\"","7945":"tractor","1206":"din","1560":"ister","4139":"jealous","4850":"breathe","5539":"invite","6584":"uses","8070":"squash.","3735":"carefully.","266":"id","6295":"explained.","7267":"accident.","5292":"climbing","2138":"wom","350":"do","4920":"legs.","6827":"Luna","7205":"fluffy.","2410":"circle","1538":"ss.","1028":"stopped","8160":"faced","2010":"oom","6156":"axe","5692":"chain","4600":"embarrassed.","4800":"envelope","1766":"puppy","5334":"uggl","3307":"ash.","4187":"popular","4571":"land.","1387":"understand","6128":"request","6368":"stay.","4239":"fall.","4953":"scale","2515":"to.","5545":"festi","6979":"punished","3966":"couldn’t","6054":"osed","7868":"claps","5101":"melon","7370":"chicken.","1995":"lif","3433":"heavy.","3663":"velo","2348":"last","129":"œ","3980":"lizard","228":"ﬂ","182":"個","7475":"\"Spot,","1887":"y.\"","5818":"table,","7744":"ado.","1295":"wood","2519":"dog,","3578":"umbre","5663":"roof.","2634":"grew","2143":"Jack.","6774":"junk","1836":"cam","6174":"lumber","4855":"symbo","6728":"hanger","6801":"sweetheart.","7473":"ud","7707":"cat's","1861":"Their","3017":"form","3121":"sky,","4269":"brave,","1070":"ous.","4698":"excitement","5892":"died","6819":"stupid.","2494":"relieved","4789":"attent","801":"ome.","5774":"jump.","1854":"closed","2766":"'d","7342":"chirp","4115":"harder","2813":"laughing","1218":"really","6721":"chirping","3961":"away!\"","2648":"\"Yes","2934":"success","6602":"week.","6826":"cone.","3973":"away.\"","347":"It","6496":"frogs","7219":"!'","1986":"dy.","5733":"earli","2834":"hidden","7895":"daddy,","979":"vo","2624":"act","6781":"Jamie","7668":"less,","7319":"image","2355":"\"Hi,","6520":"troubled.","4910":"tray","5426":"desk","6973":"reas","5159":"bother","1301":"full","6484":"safari","1827":"\"Why","548":"Su","1052":"walk","6711":"taller","6786":"bookshelf","8005":"best!\"","6332":"rail","2707":"ise","7190":"car!","7916":"snail","618":"ial","883":"share","6648":"out!\"","3019":"be.","3721":"sol","6682":"struggling","2584":"ous,","2165":"pointed","6680":"Remy","7911":"chuck","3243":"picture.","3386":"case","287":"y.","3788":"ither","797":"fle","2067":"eat.","5272":"Sue,","778":"hur","6209":"hours.","6410":"raised","7608":"urged","8090":"winked","4777":"idea,","630":"ged","3646":"polite","3716":"lost.","5604":"struggl","2062":"birth","3185":"ring.","5562":"careful.\"","546":"liked","2739":"garden,","2640":"glow","906":"advent","5185":"stronger","327":"had","2311":"loves","8072":"van.","6467":"drawings","5390":"holid","6593":"traff","2253":"fit","2980":"rest.","4942":"neck.","742":"animal","6632":"cows","71":"f","4837":"waited.","1328":"turned","6942":"both.","8051":"barrel.","5235":"flute","4260":"torn","1723":"me.","6658":"blood","292":"said","290":"no","1697":"ries","2288":"Mitten","2327":"help,","6772":"jokes","1521":"ton","3040":"Susie","6920":"people,","2446":"\"Hey,","1779":"swam","5088":"math","780":"ily","6303":"pretty.\"","866":"clos","5614":"display","7564":"ball.\"","5003":"Who","430":"ge","7235":"zooming","7684":"diamond.","1638":"ater","3902":"delicate","6255":"paws","7434":"ie,\"","8079":"mine.\"","4344":"volcan","3587":"yarn","5042":"fought","1981":"nap","5144":"visit.","383":"'t","5542":"skull","7926":"ventured","6515":"last,","3867":"ado","6946":"plates","7344":"difficult.","1914":"lonel","7546":"burrow","602":"didn't","1815":"Mary","1842":"strange","363":"ra","3599":"balance","5462":"Lily.\"","7089":"sid","5533":"needed.","7910":"cocoa.","395":"wanted","3378":"story.","1991":"toys,","5838":"superhero","850":"wait","6243":"troubled","8145":"crack.","767":"day.","7896":"rooms.","3120":"farm.","4317":"bubbles","1905":"trou","4048":"over,","4515":"bear,","2527":"top.","4108":"band-aid","399":"girl","5063":"cup.","6166":"flag.","7388":"gazed","1619":"living","6196":"fountain.","642":"fter","3927":"together!\"","4530":"imi","3236":"spun","6198":"beef","5570":"oil","6902":"ik","2051":"truck.","6731":"tomorrow.\"","5581":"raise","5324":"circles","6952":"possible","8095":"medal.","4055":"cat,","4106":"dug","6317":"doors.","89":"x","6850":"horses","1060":"ff","2019":"fairy","6347":"sometimes.","1843":"brea","2552":"shiny.","2250":"\"Good","5167":"windows","7776":"laundry.","6160":"look!","4405":"tripped","6710":"wagon.","7112":"mine!","6055":"storm.","2267":"spotted","6290":"fear.","2241":"carrot","4163":"sort","5182":"tire","5951":"plant.","6282":"Chlo","1122":"fell","4150":"grateful.","462":"asked","7101":"smell.","124":"ó","7459":"sneeze","1322":"eyes","6177":"wherever","5179":"fingers","1618":"ot","157":"‘","6251":"ok.","6268":"none","6759":"kitten.","7561":"figured","5463":"hands,","5018":"pisto","205":"會","2309":"tun","5320":"fortun","1916":"hard.","5726":"fingers.","5651":"Je","3779":"ordin","5049":"it’s","5921":"family,","2182":"peace","6152":"emer","1394":"\"Wow,","5168":"\"E","5763":"thought.","6931":"one!\"","3621":"stupid","3819":"train.","4815":"monkeys","4989":"ceil","3493":"tiger","2709":"cookies.","5393":"crossed","6061":"diary","554":"say","1453":"perf","7283":"bby.","7928":"daughter,","7204":"one,\"","320":"up","6855":"birthday,","7534":"pride.","3424":"dres","4143":"glas","5471":"moon.","864":"ion","5434":"unit","1485":"av","1064":"been","1906":"ated","2089":"orange","3372":"guard","5812":"settled","6779":"navy","6306":"glue.","2507":"tasted","2244":"them,","7779":"melon.","7536":"“Why","4263":"Lily?\"","3503":"admired","2454":"spit","1010":"watch","1797":"wave","4691":"beam","5556":"vroom","279":"th","6503":"beat","7875":"soldiers","1025":"gan","415":"mo","6723":"anxious.","3339":"return","646":"lu","3441":"asleep.","6026":"veil","8179":"that!","5195":"Sad","7647":"vanish","3278":"dry.","5957":"paw.","2170":"pres"},"merges":[[73,70],[66,79],[85,243],[70,69],[244,69],[85,80],[74,79],[83,70],[80,86],[88,66],[74,85],[73,66],[70,83],[252,84],[80,78],[70,79],[80,79],[66,83],[54,243],[74,84],[249,72],[74,77],[84,66],[74,69],[77,70],[66,90],[74,78],[77,80],[84,85],[66,77],[80,83],[243,83],[42,70],[53,243],[74,83],[261,90],[85,73],[84,16],[67,70],[79,70],[254,85],[87,255],[70,16],[86,85],[90,16],[68,76],[66,85],[79,80],[77,69],[265,266],[66,78],[84,70],[76,70],[83,74],[84,243],[87,70],[81,77],[46,264],[253,73],[81,81],[80,71],[88,301],[68,70],[66,69],[74,72],[73,262],[86,79],[90,251],[76,246],[84,80],[69,268],[284,90],[88,70],[77,74],[272,77],[85,283],[72,80],[86,81],[300,90],[80,88],[244,85],[68,73],[66,84],[257,70],[254,69],[299,268],[70,77],[245,90],[71,273],[78,90],[78,257],[79,69],[251,291],[9,84],[258,69],[67,80],[254,302],[80,76],[88,323],[66,250],[258,85],[253,85],[70,84],[70,85],[43,85],[85,269],[251,85],[69,80],[290,85],[77,90],[83,80],[251,334],[245,83],[344,267],[77,356],[2,1],[245,250],[73,85],[84,73],[292,14],[83,66],[67,307],[84,78],[70,14],[67,286],[71,296],[265,88],[313,14],[368,337],[66,288],[246,16],[279,263],[86,77],[84,326],[49,282],[66,295],[85,255],[86,72],[54,269],[3,4],[9,85],[49,79],[315,250],[384,305],[87,246],[73,80],[68,260],[66,72],[73,269],[83,90],[54,257],[277,77],[341,246],[245,78],[36,258],[320,259],[72,394],[71,375],[264,77],[245,277],[86,83],[339,90],[70,68],[84,81],[249,69],[69,266],[365,264],[90,84],[68,335],[68,80],[259,70],[254,298],[78,80],[70,89],[243,79],[16,4],[74,68],[36,286],[68,244],[243,77],[83,257],[266,70],[88,343],[71,70],[260,85],[348,366],[80,69],[72,70],[282,88],[33,4],[79,293],[86,78],[422,81],[71,329],[243,69],[66,67],[67,372],[59,251],[79,383],[66,249],[71,309],[316,295],[78,244],[260,76],[248,80],[71,80],[83,244],[78,70],[253,16],[72,83],[72,360],[433,246],[77,66],[270,80],[270,88],[270,387],[47,257],[74,288],[260,69],[325,311],[436,85],[456,311],[84,248],[322,79],[260,354],[294,70],[78,378],[86,250],[67,277],[80,81],[88,335],[71,66],[88,273],[271,427],[290,88],[84,14],[381,332],[80,355],[259,72],[471,69],[293,70],[77,77],[81,83],[88,283],[78,306],[66,252],[85,250],[430,355],[90,14],[68,66],[409,246],[69,69],[79,66],[251,69],[476,246],[338,90],[307,360],[376,374],[81,446],[248,490],[487,70],[72,346],[263,16],[81,80],[270,340],[81,286],[68,483],[265,69],[348,70],[292,16],[71,423],[4,43],[68,253],[319,85],[84,389],[74,71],[73,380],[66,324],[390,442],[78,86],[319,429],[416,515],[4,57],[252,77],[88,388],[81,70],[70,81],[71,354],[245,79],[69,405],[83,86],[415,250],[255,16],[88,417],[74,70],[14,4],[82,86],[84,424],[84,84],[251,453],[302,246],[85,16],[53,293],[316,311],[35,79],[53,86],[74,305],[66,298],[251,84],[66,68],[328,263],[265,90],[532,266],[260,66],[310,83],[555,246],[70,314],[68,342],[339,287],[350,72],[76,263],[296,246],[67,67],[69,466],[69,255],[84,254],[71,407],[66,89],[53,556],[371,84],[279,244],[547,495],[86,294],[426,329],[260,79],[69,306],[85,84],[246,14],[88,401],[67,86],[85,378],[75,80],[47,570],[88,80],[251,83],[300,287],[252,410],[259,14],[68,270],[81,250],[243,250],[248,340],[438,349],[272,589],[78,66],[76,477],[406,405],[68,289],[84,273],[408,441],[67,90],[267,577],[80,291],[248,90],[53,80],[279,542],[259,383],[86,271],[353,257],[88,73],[79,90],[371,280],[448,250],[4,54],[267,16],[74,272],[455,380],[44,80],[67,317],[262,85],[317,90],[599,618],[76,431],[83,309],[57,417],[494,258],[352,14],[72,246],[67,83],[345,14],[249,76],[244,90],[85,70],[333,332],[74,298],[42,255],[262,73],[524,246],[282,284],[71,379],[73,322],[83,69],[266,285],[77,86],[361,322],[77,71],[74,66],[68,326],[84,88],[44,372],[68,250],[83,246],[522,324],[69,70],[73,247],[80,77],[69,250],[560,400],[39,314],[244,72],[86,84],[521,16],[87,258],[85,85],[73,326],[84,76],[265,410],[253,70],[72,550],[274,16],[84,309],[391,16],[77,481],[252,379],[249,248],[81,66],[4,46],[85,564],[338,89],[434,81],[259,16],[57,70],[68,267],[248,291],[374,84],[279,262],[396,16],[70,260],[289,70],[85,66],[80,284],[485,496],[554,280],[243,461],[70,520],[85,379],[472,258],[47,649],[68,257],[70,289],[72,250],[329,77],[81,255],[70,280],[81,460],[250,306],[548,628],[251,294],[261,79],[77,496],[411,441],[86,68],[75,610],[270,298],[303,71],[252,85],[296,453],[68,243],[35,334],[328,246],[309,85],[40,423],[519,630],[9,78],[488,287],[492,575],[83,287],[71,457],[258,16],[281,728],[445,90],[42,262],[365,317],[282,246],[77,306],[501,16],[281,260],[269,272],[248,410],[244,740],[74,91],[361,249],[488,90],[416,81],[67,255],[271,16],[251,72],[709,629],[749,73],[81,85],[363,565],[346,336],[87,263],[723,264],[79,85],[294,648],[76,407],[349,540],[604,246],[4,59],[281,66],[84,645],[281,698],[443,16],[313,16],[68,317],[4,49],[85,392],[290,262],[87,343],[502,16],[81,86],[78,287],[71,74],[403,79],[73,403],[438,267],[264,90],[69,90],[67,363],[253,84],[730,255],[88,593],[77,246],[746,270],[447,16],[72,461],[69,609],[517,246],[763,286],[601,392],[573,311],[71,352],[70,665],[71,267],[619,437],[75,682],[281,271],[257,285],[267,85],[84,403],[77,622],[309,567],[37,244],[72,637],[244,76],[68,77],[74,400],[792,810],[68,437],[71,249],[83,481],[85,533],[86,288],[73,801],[270,579],[66,16],[271,401],[71,293],[363,249],[79,549],[333,16],[259,285],[293,66],[77,287],[85,246],[459,332],[271,268],[620,73],[831,79],[338,340],[254,644],[87,285],[85,777],[338,279],[48,80],[68,86],[4,440],[669,14],[254,84],[347,336],[67,306],[489,70],[36,80],[70,90],[85,586],[76,16],[252,253],[68,285],[35,84],[510,16],[73,808],[73,710],[295,529],[321,336],[267,66],[762,632],[361,335],[452,354],[316,387],[66,302],[74,259],[46,714],[591,84],[526,311],[307,73],[485,262],[528,472],[262,437],[474,271],[263,14],[797,88],[803,869],[273,79],[83,78],[80,340],[35,642],[68,259],[350,273],[38,306],[568,250],[66,305],[592,666],[250,272],[260,78],[768,246],[295,752],[81,419],[84,77],[310,14],[273,85],[253,14],[269,81],[685,244],[353,288],[584,90],[350,484],[279,250],[270,288],[67,246],[81,16],[804,258],[88,407],[306,772],[281,615],[84,86],[787,250],[85,470],[271,70],[4,838],[272,312],[69,363],[264,69],[576,263],[88,259],[699,246],[264,70],[450,78],[290,494],[611,16],[412,270],[282,89],[67,353],[4,275],[319,263],[778,85],[71,639],[923,83],[409,373],[870,267],[551,285],[243,306],[406,80],[809,269],[67,267],[707,246],[249,540],[253,336],[252,90],[268,281],[865,90],[279,83],[66,76],[325,76],[250,299],[517,373],[924,85],[325,84],[310,16],[419,285],[679,754],[906,470],[316,70],[525,283],[281,263],[489,285],[254,277],[279,633],[270,85],[815,288],[890,910],[70,284],[534,16],[69,518],[448,429],[85,263],[67,77],[646,70],[419,246],[339,258],[79,499],[526,563],[38,80],[920,747],[380,360],[506,85],[87,80],[782,298],[374,280],[616,854],[66,642],[346,16],[846,67],[434,332],[361,349],[320,16],[322,14],[507,263],[703,289],[73,933],[90,690],[616,283],[250,976],[69,262],[282,260],[912,14],[895,893],[744,90],[84,539],[917,567],[539,460],[351,971],[452,287],[85,272],[84,354],[450,244],[258,898],[718,324],[244,70],[826,91],[43,726],[999,323],[361,80],[340,268],[271,460],[85,704],[338,289],[4,53],[78,259],[647,246],[947,74],[267,541],[72,244],[426,250],[77,457],[465,543],[324,80],[412,340],[966,1026],[514,726],[312,259],[571,73],[67,250],[653,293],[67,719],[84,315],[364,14],[448,1027],[718,812],[742,84],[465,250],[462,16],[531,14],[607,14],[271,814],[47,942],[248,83],[743,246],[68,251],[526,76],[885,90],[337,16],[525,70],[606,280],[271,247],[84,470],[67,322],[71,71],[523,603],[839,296],[76,253],[281,258],[281,509],[252,644],[73,868],[249,70],[78,390],[251,280],[285,4],[267,550],[350,345],[54,283],[821,780],[858,294],[252,877],[81,73],[67,970],[480,16],[619,73],[663,246],[67,253],[264,352],[679,878],[85,88],[247,597],[71,277],[67,901],[85,249],[371,16],[267,529],[84,79],[259,69],[324,16],[474,87],[83,263],[249,764],[81,375],[69,244],[861,16],[81,442],[84,303],[72,753],[74,81],[328,16],[552,437],[267,84],[71,270],[435,16],[76,266],[74,551],[262,84],[85,296],[548,70],[392,14],[67,309],[1104,246],[77,499],[248,88],[299,884],[436,77],[43,79],[439,16],[789,731],[367,379],[1003,352],[259,352],[53,978],[76,285],[789,258],[381,775],[668,287],[68,286],[250,271],[661,413],[1031,757],[68,417],[424,819],[1063,1138],[84,247],[72,86],[656,316],[69,353],[255,14],[81,342],[300,66],[79,263],[66,277],[559,413],[72,737],[243,260],[4,806],[68,83],[81,537],[343,16],[68,85],[38,609],[294,345],[435,246],[900,70],[475,76],[4,843],[325,73],[265,71],[78,345],[248,81],[265,426],[250,1107],[676,16],[67,272],[317,491],[925,355],[799,246],[297,69],[776,250],[249,16],[294,85],[244,1005],[254,755],[84,263],[914,88],[886,1050],[44,1011],[81,427],[9,250],[350,16],[78,434],[349,764],[70,78],[485,249],[711,14],[397,16],[68,363],[289,74],[271,255],[651,263],[592,85],[1096,273],[279,16],[67,273],[753,253],[944,751],[667,14],[348,285],[69,249],[69,816],[315,77],[85,363],[405,85],[765,16],[86,324],[389,16],[524,373],[601,729],[66,262],[507,84],[250,623],[281,1025],[1069,419],[423,262],[391,758],[475,291],[597,563],[68,455],[81,1221],[271,260],[926,77],[85,277],[412,77],[921,246],[393,16],[81,1094],[71,85],[1199,670],[634,965],[390,250],[1155,305],[78,246],[71,353],[1198,337],[73,309],[71,401],[40,249],[776,89],[573,76],[252,387],[250,77],[393,332],[412,291],[708,90],[388,291],[621,16],[248,1212],[261,250],[68,378],[46,754],[277,85],[412,658],[81,353],[67,66],[1061,70],[388,543],[296,284],[271,250],[421,383],[681,16],[321,14],[600,324],[71,887],[620,70],[388,81],[479,336],[81,267],[668,90],[1038,346],[280,4],[465,81],[1103,85],[67,390],[936,67],[612,90],[4,16],[1088,271],[73,407],[84,285],[1109,273],[90,329],[444,84],[651,269],[88,871],[68,392],[701,263],[281,1285],[586,429],[69,446],[244,480],[85,83],[265,85],[315,260],[400,77],[74,345],[310,418],[802,336],[475,311],[1288,457],[78,249],[1117,613],[260,296],[1085,14],[631,340],[71,77],[465,392],[737,90],[566,16],[866,255],[474,305],[38,1216],[90,461],[255,84],[307,79],[847,345],[591,294],[266,366],[84,1092],[993,84],[562,16],[836,246],[68,296],[492,271],[1240,72],[979,549],[39,78],[467,16],[703,258],[658,352],[84,457],[771,70],[905,322],[243,291],[44,269],[4,1158],[475,69],[1023,580],[78,273],[995,246],[158,84],[255,246],[659,541],[348,345],[35,85],[84,90],[67,260],[390,70],[81,346],[634,374],[793,14],[57,283],[295,85],[324,264],[474,277],[659,79],[88,814],[90,986],[659,293],[264,287],[371,14],[67,438],[1009,246],[54,80],[582,90],[1360,1362],[67,380],[771,285],[271,449],[73,90],[1228,270],[612,919],[249,84],[78,289],[78,710],[87,262],[299,244],[73,401],[294,258],[399,16],[805,1057],[1040,246],[78,251],[84,477],[813,871],[79,579],[1143,68],[525,989],[662,392],[274,758],[433,70],[85,317],[880,1090],[1399,86],[73,266],[80,80],[3,161],[74,295],[78,499],[71,260],[78,260],[482,84],[657,84],[72,343],[331,516],[1146,1392],[462,14],[260,90],[54,308],[4,42],[77,247],[784,84],[537,291],[612,264],[1002,400],[72,293],[736,246],[438,617],[85,499],[350,263],[582,915],[53,623],[615,271],[84,481],[994,336],[626,1148],[84,253],[365,704],[409,70],[1243,246],[71,83],[68,247],[325,470],[333,14],[72,255],[277,1248],[1244,1172],[66,355],[289,285],[349,16],[78,346],[443,613],[353,541],[341,84],[415,271],[678,705],[705,71],[81,633],[41,80],[4,347],[71,499],[539,70],[44,258],[1318,90],[68,729],[1309,387],[482,16],[891,424],[71,533],[1001,1442],[295,90],[9,484],[41,83],[415,355],[270,271],[692,271],[91,90],[504,968],[71,317],[267,1234],[1165,285],[578,16],[1400,246],[72,483],[488,491],[258,751],[78,1113],[248,287],[66,87],[78,876],[47,1336],[506,249],[474,851],[409,285],[68,254],[400,16],[1191,305],[972,373],[774,302],[397,613],[75,86],[830,246],[452,1087],[72,363],[83,322],[71,250],[412,284],[339,780],[288,246],[1062,551],[69,1258],[376,413],[484,16],[37,326],[653,289],[281,520],[81,1076],[288,346],[660,352],[259,366],[36,1084],[88,243],[469,84],[1206,79],[248,79],[81,372],[426,88],[69,83],[299,442],[415,298],[76,268],[44,401],[4,47],[388,85],[35,332],[522,84],[936,902],[48,322],[71,403],[445,16],[316,259],[84,280],[692,264],[1171,270],[591,245],[863,690],[371,478],[584,249],[79,952],[69,662],[84,299],[1393,1112],[353,484],[265,264],[934,16],[1035,945],[85,822],[631,542],[406,446],[344,258],[813,623],[325,280],[559,374],[262,379],[881,16],[338,287],[1066,84],[72,74],[253,418],[904,246],[459,14],[294,260],[78,74],[397,14],[656,529],[388,267],[1368,90],[489,289],[646,1060],[88,262],[1111,84],[68,246],[91,91],[452,322],[914,72],[615,748],[1126,795],[72,77],[1006,76],[655,16],[81,403],[85,779],[770,263],[256,441],[1420,366],[79,287],[1532,419],[272,16],[448,89],[908,628],[769,73],[1051,757],[260,16],[88,308],[248,1563],[1377,14],[66,71],[1453,1210],[271,86],[742,280],[68,712],[626,84],[475,1116],[612,670],[256,16],[35,484],[907,16],[71,1419],[1382,253],[1099,786],[828,781],[80,85],[316,755],[519,16],[4,420],[371,352],[1099,77],[539,74],[68,876],[253,432],[657,16],[381,16],[281,955],[81,258],[320,14],[72,72],[584,67],[875,246],[73,413],[616,308],[474,748],[289,255],[1546,255],[389,84],[53,326],[4,1048],[78,407],[1226,246],[1311,258],[78,413],[1345,272],[585,16],[265,491],[84,1560],[88,263],[359,16],[568,654],[77,16],[821,1366],[67,449],[68,1049],[1012,263],[960,84],[44,610],[252,287],[393,14],[419,90],[452,691],[338,461],[244,651],[72,518],[769,1527],[522,271],[68,959],[921,373],[47,83],[416,1525],[624,16],[459,16],[657,280],[70,267],[47,826],[74,285],[250,520],[891,645],[271,83],[568,83],[552,285],[908,324],[365,427],[36,70],[80,294],[1140,16],[299,323],[243,1485],[424,66],[969,244],[70,91],[1287,16],[954,16],[296,345],[501,14],[84,1036],[769,45],[489,1439],[67,373],[1093,372],[660,16],[969,372],[253,382],[302,263],[75,70],[69,296],[72,285],[559,785],[85,1424],[875,70],[1229,246],[390,285],[1319,16],[376,1350],[475,849],[363,305],[795,263],[267,280],[78,16],[78,285],[244,430],[81,950],[1469,1087],[350,1657],[84,1321],[84,252],[517,580],[83,424],[900,88],[829,14],[73,424],[1261,279],[272,279],[911,543],[967,16],[1569,89],[69,74],[452,1558],[552,1449],[69,345],[973,14],[79,72],[389,353],[68,564],[1220,272],[81,260],[50,1076],[467,14],[435,263],[243,427],[69,413],[545,16],[1020,470],[84,255],[316,305],[73,307],[537,280],[67,325],[333,343],[1272,246],[271,816],[253,3],[1495,90],[158,85],[1629,298],[592,541],[882,781],[47,434],[1089,84],[930,400],[251,81],[1120,79],[346,255],[850,246],[319,16],[1729,78],[68,587],[274,14],[635,552],[739,16],[1242,72],[1024,259],[1416,74],[4,1567],[1540,259],[510,14],[1029,658],[367,1521],[847,706],[81,322],[315,85],[576,84],[930,84],[252,298],[784,280],[1016,14],[1337,352],[1154,268],[88,249],[84,1790],[631,466],[447,14],[705,84],[88,74],[85,86],[1333,597],[68,320],[77,309],[88,83],[774,1175],[946,280],[47,1414],[701,331],[1341,332],[282,868],[83,354],[324,915],[465,429],[1237,246],[473,441],[67,1404],[772,86],[54,854],[525,1376],[844,16],[979,952],[452,950],[1668,14],[1021,1196],[33,161],[307,72],[76,290],[68,293],[1330,267],[304,349],[1363,16],[646,288],[1102,85],[1375,430],[1035,66],[81,472],[391,14],[316,298],[987,246],[963,84],[631,263],[289,864],[911,306],[329,294],[1144,298],[866,246],[68,266],[804,731],[289,16],[578,781],[925,295],[252,72],[261,277],[67,258],[1270,255],[782,835],[489,345],[466,255],[1329,373],[1575,90],[75,587],[88,639],[282,288],[81,264],[289,85],[267,72],[1233,16],[1664,400],[77,259],[404,14],[4,1455],[69,66],[359,14],[84,662],[265,450],[251,79],[1078,323],[552,1855],[287,4],[69,16],[944,322],[66,81],[331,504],[465,282],[574,16],[87,272],[4,35],[1780,294],[272,481],[71,258],[77,298],[798,16],[523,16],[74,683],[1581,259],[254,83],[1298,251],[289,246],[39,77],[69,329],[244,68],[1062,1070],[306,69],[1677,1885],[73,273],[1877,329],[281,70],[834,16],[1072,84],[294,653],[84,1324],[517,90],[415,387],[506,77],[361,878],[502,14],[361,472],[583,84],[364,1441],[4,1733],[281,675],[310,1745],[69,622],[344,263],[495,977],[1225,543],[279,751],[1012,246],[492,977],[1801,259],[757,442],[935,85],[310,382],[450,432],[68,272],[1756,14],[78,277],[1700,14],[304,16],[333,775],[404,3],[1024,683],[81,1195],[720,255],[1100,305],[640,3],[1144,543],[1030,1302],[519,84],[244,16],[586,295],[76,282],[1524,633],[692,563],[74,343],[84,68],[1880,977],[1624,346],[597,264],[1886,343],[468,1239],[422,270],[243,84],[250,955],[255,280],[1222,16],[85,258],[81,246],[84,1084],[78,264],[345,84],[73,253],[495,81],[83,268],[90,704],[69,1264],[675,16],[69,287],[244,305],[248,714],[252,484],[290,374],[741,14],[294,84],[521,14],[71,263],[316,71],[46,70],[67,617],[607,590],[675,255],[81,307],[84,412],[678,271],[4,975],[67,247],[1223,16],[1208,650],[68,842],[778,544],[1252,263],[80,257],[673,16],[81,363],[840,1186],[250,84],[702,263],[338,666],[67,1884],[478,4],[1361,90],[284,16],[84,460],[493,14],[68,277],[1410,267],[1166,280],[299,1684],[1422,285],[363,266],[1603,2028],[863,267],[292,28],[57,301],[822,1059],[1587,1274],[600,16],[312,683],[81,285],[78,520],[774,361],[315,346],[1089,280],[84,380],[84,1932],[1576,70],[506,544],[836,84],[1002,246],[1988,437],[880,71],[1090,90],[962,16],[68,322],[909,16],[1166,84],[249,280],[743,91],[67,708],[1290,78],[492,1130],[77,263],[545,332],[471,279],[309,74],[318,336],[88,247],[71,827],[702,16],[1500,67],[309,72],[72,825],[88,363],[1059,77],[67,287],[267,698],[338,85],[759,16],[650,84],[833,84],[666,246],[249,635],[43,1468],[366,4],[2080,1135],[259,248],[1486,873],[1672,16],[807,84],[430,271],[273,1724],[88,609],[81,84],[322,77],[389,69],[1458,271],[582,361],[4,261],[1600,85],[1596,352],[1194,88],[76,460],[1782,274],[70,325],[1511,470],[380,72],[1761,1359],[769,71],[1541,84],[720,70],[80,16],[1869,282],[833,16],[258,255],[1503,246],[269,390],[76,1113],[434,747],[1230,587],[243,1736],[69,392],[719,16],[1229,373],[1693,1359],[249,1851],[1493,541],[403,85],[70,1632],[443,3],[694,16],[67,670],[4,1268],[1016,16],[329,352],[1818,1201],[249,285],[508,84],[84,316],[389,392],[88,257],[855,14],[1120,255],[270,72],[673,744],[652,16],[565,90],[1021,1467],[774,494],[272,825],[519,70],[84,714],[54,2040],[409,345],[2149,305],[87,373],[54,246],[1230,267],[1673,246],[1047,16],[1274,325],[1968,623],[81,345],[85,74],[584,287],[353,306],[52,80],[1488,828],[673,613],[48,989],[253,324],[67,533],[592,84],[1238,84],[1006,311],[1123,540],[67,542],[1260,937],[67,375],[78,262],[929,16],[1100,68],[72,1444],[1149,16],[528,884],[1007,16],[434,67],[75,260],[77,1445],[1568,812],[328,505],[1520,535],[74,937],[885,287],[987,373],[409,706],[1793,255],[1918,85],[972,246],[465,877],[1646,90],[79,419],[612,74],[87,253],[91,2010],[899,16],[81,289],[611,14],[1043,16],[77,378],[388,528],[297,484],[1295,280],[1396,16],[480,84],[1384,16],[393,336],[295,544],[1242,1005],[254,78],[450,346],[475,564],[1691,90],[720,1348],[730,535],[1010,263],[288,16],[1437,259],[582,1514],[297,648],[872,255],[1380,379],[338,781],[78,1071],[1542,246],[310,432],[1434,246],[256,73],[296,706],[273,1025],[68,273],[72,413],[426,1444],[1746,85],[262,246],[1260,85],[396,14],[40,1868],[87,401],[250,599],[70,390],[787,1097],[1879,429],[1784,392],[1518,329],[71,253],[381,336],[605,16],[1547,1164],[249,246],[1539,16],[1965,255],[247,678],[406,249],[2012,1157],[67,16],[720,84],[406,266],[1081,16],[935,2079],[252,83],[91,1402],[1074,336],[717,16],[74,244],[439,14],[412,289],[1759,274],[1339,16],[299,1011],[333,336],[325,1092],[69,1516],[1894,86],[77,268],[415,835],[774,1579],[332,1196],[67,446],[553,14],[47,1556],[529,337],[46,1638],[2225,85],[477,16],[290,69],[290,14],[700,16],[443,14],[2058,263],[635,520],[81,587],[273,78],[1951,343],[1284,14],[2200,324],[1307,286],[88,915],[1459,613],[160,43],[2138,244],[85,309],[1438,90],[716,84],[302,255],[582,565],[1512,16],[1683,81],[79,1767],[1370,490],[46,262],[288,984],[70,76],[582,1352],[319,345],[527,267],[1007,84],[1389,279],[897,16],[435,14],[533,565],[247,90],[81,535],[1195,683],[81,244],[1181,263],[1300,263],[500,16],[269,1769],[822,16],[1549,246],[331,807],[81,401],[1651,84],[388,617],[987,580],[78,255],[635,70],[80,305],[4,36],[455,271],[491,4],[305,267],[1933,90],[1564,323],[318,432],[1667,85],[1786,14],[361,1105],[1333,780],[290,16],[635,260],[865,287],[90,345],[656,271],[46,346],[406,343],[1241,246],[2016,267],[526,849],[1462,14],[1019,16],[1709,298],[271,529],[870,617],[1330,617],[659,1538],[582,84],[66,271],[880,85],[77,260],[4,1510],[71,16],[84,1774],[890,2199],[270,257],[74,835],[80,665],[1908,499],[249,68],[91,70],[1343,84],[79,2116],[1825,623],[337,14],[363,72],[489,706],[324,460],[264,85],[84,282],[709,352],[66,1049],[2247,85],[71,316],[279,249],[1114,345],[443,382],[1840,90],[1134,70],[67,244],[78,329],[73,662],[2023,685],[1913,294],[678,2330],[973,16],[411,16],[813,639],[1568,324],[448,291],[365,1402],[379,16],[248,1345],[74,1070],[1078,413],[250,1643],[258,84],[53,2045],[1265,85],[44,244],[329,1286],[57,1376],[288,84],[78,366],[361,83],[318,14],[375,260],[937,88],[406,708],[74,255],[1806,259],[85,266],[716,352],[833,280],[1639,1070],[72,1834],[997,603],[68,255],[926,491],[282,85],[320,1178],[84,327],[1871,455],[1029,1230],[743,70],[79,255],[406,253],[1100,1578],[1389,1939],[883,16],[506,1514],[317,16],[1111,280],[506,658],[2108,294],[84,3],[524,263],[1015,345],[1391,14],[1507,90],[586,250],[307,437],[52,70],[36,86],[44,378],[2007,246],[249,85],[635,66],[1353,83],[408,16],[271,296],[271,1149],[1486,263],[78,1068],[76,670],[84,537],[1190,2476],[389,280],[401,287],[421,351],[1086,2055],[1518,641],[2006,14],[81,919],[758,639],[631,266],[1972,387],[46,356],[361,74],[78,942],[431,16],[1226,70],[1185,90],[678,88],[294,544],[1520,255],[547,79],[1093,378],[2318,66],[1472,246],[353,260],[66,264],[450,382],[899,84],[374,16],[2407,244],[73,434],[248,16],[2248,255],[265,287],[447,77],[562,14],[406,70],[891,266],[1023,246],[1353,311],[465,1697],[935,259],[252,1509],[248,903],[2484,950],[88,424],[661,785],[489,366],[668,74],[480,280],[566,14],[1088,748],[52,416],[57,73],[42,322],[47,986],[685,284],[449,76],[568,528],[744,263],[2420,1501],[84,653],[249,2201],[1497,549],[1061,285],[959,16],[271,277],[244,851],[744,287],[1146,757],[406,1982],[1227,84],[475,78],[349,1919],[54,56],[271,363],[349,14],[956,336],[47,260],[75,2069],[272,413],[302,373],[2350,631],[455,1130],[434,775],[294,66],[1072,280],[2243,1210],[930,280],[77,289],[331,1066],[73,587],[1535,392],[615,2020],[439,1716],[1292,263],[1152,84],[502,418],[598,16],[983,16],[251,478],[887,84],[282,271],[397,336],[50,66],[415,87],[1472,90],[69,1776],[281,77],[571,16],[1465,253],[1666,255],[863,80],[1250,16],[412,1473],[2591,1307],[296,373],[545,14],[283,16],[248,313],[1008,16],[1001,70],[2094,864],[270,544],[84,587],[2537,919],[996,2596],[475,392],[1119,16],[250,16],[318,16],[1292,505],[532,273],[1018,84],[1190,752],[1422,345],[272,1451],[39,665],[2378,430],[771,345],[552,85],[1896,14],[815,271],[70,2391],[4,1750],[475,2600],[290,294],[298,77],[2238,69],[875,285],[703,88],[1086,1379],[294,289],[84,320],[79,246],[265,298],[72,457],[1356,16],[1427,263],[2169,361],[1425,16],[310,1186],[452,268],[72,2112],[762,345],[450,306],[298,504],[1483,246],[344,90],[50,346],[1835,1505],[805,1821],[1197,84],[450,323],[1529,90],[507,16],[1898,305],[315,484],[850,263],[297,529],[41,637],[81,268],[69,258],[72,309],[2288,84],[1417,246],[447,418],[1708,1208],[67,457],[1401,263],[1389,1200],[388,2454],[1006,563],[71,264],[81,405],[663,86],[50,1776],[78,446],[568,2160],[2083,263],[389,564],[1943,78],[875,373],[897,84],[524,580],[1872,457],[80,67],[319,291],[2170,343],[412,81],[90,632],[1639,551],[71,455],[1379,1324],[79,286],[245,294],[455,88],[353,528],[313,84],[1656,324],[1207,84],[1295,84],[310,538],[262,70],[319,14],[1030,1760],[811,16],[35,1758],[40,654],[2650,779],[1812,670],[1280,16],[1978,76],[1237,373],[585,14],[1811,324],[1465,1682],[482,280],[1023,373],[86,305],[281,484],[67,74],[1264,16],[678,277],[83,306],[945,285],[273,1116],[68,1449],[1020,1167],[598,14],[659,88],[277,544],[693,16],[634,413],[81,2056],[1131,14],[607,259],[452,682],[692,977],[482,14],[1541,280],[84,2469],[954,84],[67,777],[71,1909],[1176,16],[568,1097],[81,277],[1036,16],[277,271],[86,280],[1194,67],[293,81],[598,263],[1182,263],[90,2568],[1390,445],[1914,90],[2155,1157],[69,535],[81,296],[2317,14],[9,69],[1426,432],[72,325],[426,246],[663,373],[1185,287],[1641,1350],[90,706],[1077,16],[692,911],[557,758],[1614,16],[600,255],[2778,2340],[412,249],[47,446],[678,279],[1547,66],[586,648],[584,295],[266,69],[506,273],[2453,87],[2265,255],[685,260],[375,77],[2182,400],[1141,1807],[71,307],[1410,352],[315,1509],[1057,263],[574,14],[4,1662],[1311,731],[1522,246],[448,1618],[312,291],[248,1208],[568,295],[294,819],[1265,984],[634,534],[67,646],[832,613],[262,601],[1086,394],[1081,263],[635,271],[85,460],[345,492],[1312,390],[964,16],[252,491],[36,309],[692,76],[1154,466],[935,264],[333,1156],[306,1945],[293,16],[495,903],[68,353],[799,263],[1964,2811],[522,69],[2118,90],[1600,705],[1401,2666],[294,1899],[2115,246],[504,84],[1862,324],[271,1097],[525,593],[84,264],[746,2424],[2180,246],[660,14],[265,403],[1597,14],[1017,16],[1321,273],[306,70],[1238,280],[265,288],[771,706],[1430,16],[2418,279],[598,79],[459,775],[1895,250],[81,249],[1816,1588],[506,1758],[1265,346],[80,2845],[1031,79],[77,253],[1051,363],[272,457],[452,1774],[1067,16],[76,1556],[49,45],[1325,16],[524,1190],[2154,781],[2649,322],[37,73],[375,85],[1860,630],[1206,2862],[1898,851],[371,418],[457,79],[707,84],[329,455],[282,541],[78,2786],[83,273],[1699,246],[84,492],[548,285],[421,16],[78,343],[68,2881],[316,1505],[406,337],[1811,1095],[440,1186],[250,14],[872,535],[84,382],[74,623],[2821,258],[294,246],[38,244],[74,302],[492,298],[1239,419],[66,86],[88,1105],[315,544],[2285,1112],[87,244],[468,76],[1343,280],[277,69],[72,260],[374,478],[46,80],[85,307],[621,14],[1507,287],[1605,1060],[1020,2730],[435,400],[265,387],[426,260],[345,2678],[67,289],[264,16],[2926,2900],[1803,16],[267,14],[84,499],[353,2075],[2152,541],[578,14],[388,1707],[264,316],[1296,16],[249,66],[651,505],[1380,324],[267,1021],[324,244],[1843,279],[465,903],[348,632],[76,262],[506,2319],[1945,2886],[866,535],[946,84],[1312,286],[2142,285],[591,279],[1141,16],[420,14],[1246,400],[66,294],[43,71],[2748,90],[1524,434],[268,16],[737,567],[1862,1095],[76,79],[816,90],[69,825],[341,373],[720,88],[525,388],[2194,400],[1372,16],[297,84],[371,827],[70,291],[389,14],[78,986],[2450,305],[69,639],[250,748],[303,1975],[2021,16],[84,495],[84,74],[896,16],[78,622],[83,266],[270,294],[1646,287],[474,355],[267,306],[593,16],[1438,287],[2783,1175],[2062,313],[258,305],[351,70],[295,287],[80,72],[73,876],[1245,246],[521,418],[1996,80],[882,16],[1711,16],[338,541],[250,1328],[78,419],[66,88],[363,851],[963,280],[455,89],[350,77],[712,16],[274,80],[250,3012],[331,78],[281,650],[281,16],[2387,654],[445,390],[858,71],[1825,1172],[450,1439],[2532,543],[2599,246],[316,426],[985,16],[681,14],[406,1663],[3008,353],[4,1570],[2175,78],[1114,81],[381,14],[68,90],[69,2541],[1907,455],[753,451],[548,2483],[1499,16],[2395,258],[2975,255],[1030,537],[2451,691],[768,263],[1635,271],[2038,1068],[1607,84],[253,285],[85,90],[425,14],[270,90],[401,246],[1383,16],[2042,2088],[75,2132],[312,260],[2725,1130],[784,478],[2779,260],[36,83],[1016,432],[720,288],[443,1592],[1034,16],[742,478],[69,307],[415,1049],[517,287],[85,537],[361,1258],[1694,70],[1905,1997],[863,1108],[584,72],[585,336],[1108,280],[88,353],[1625,255],[954,280],[76,249],[3013,1078],[559,825],[443,418],[77,266],[1228,81],[264,491],[294,484],[47,90],[1429,14],[1564,755],[1482,14],[1126,2066],[361,90],[253,538],[906,403],[636,14],[351,16],[1201,1501],[605,14],[856,255],[2794,470],[83,342],[1012,373],[39,334],[302,90],[416,1209],[532,424],[67,580],[352,263],[1259,16],[1708,272],[846,338],[88,254],[3062,466],[68,274],[1511,637],[85,14],[1270,16],[668,491],[1457,263],[479,14],[85,390],[908,302],[1914,287],[1086,622],[897,346],[2363,1347],[416,293],[294,666],[3043,352],[1542,373],[1437,466],[299,691],[409,505],[747,1697],[81,682],[886,2242],[90,2999],[647,84],[48,70],[1665,16],[249,345],[867,14],[2163,16],[2559,88],[578,1986],[1593,16],[1312,1164],[71,378],[46,878],[71,419],[36,2883],[1317,280],[2095,16],[896,246],[2071,543],[1052,84],[2075,248],[663,263],[1078,825],[279,460],[1995,828],[67,577],[258,72],[4,1687],[1120,535],[846,2144],[966,3153],[273,567],[72,610],[72,90],[447,382],[1630,68],[974,14],[1550,246],[412,271],[701,1355],[248,380],[1725,246],[426,346],[2427,285],[67,682],[83,505],[71,587],[1491,294],[717,1348],[736,84],[309,2679],[439,1319],[1624,984],[75,372],[368,453],[1555,352],[528,70],[3079,635],[2885,267],[305,752],[254,877],[289,329],[84,1343],[1387,16],[3021,246],[45,2652],[265,430],[262,1417],[415,259],[3053,272],[821,551],[1017,84],[87,424],[259,90],[996,2113],[85,2125],[79,505],[270,835],[866,1145],[252,295],[290,1286],[1502,70],[80,84],[256,14],[2099,786],[1686,16],[81,272],[83,751],[1469,2260],[448,658],[66,506],[2346,244],[452,466],[1208,701],[259,345],[2184,786],[406,309],[2146,267],[250,2632],[3180,73],[68,438],[1096,587],[316,1234],[963,16],[574,336],[1142,253],[1390,16],[3230,2141],[675,14],[3194,258],[485,268],[388,294],[79,2300],[489,632],[315,2320],[249,14],[899,280],[353,69],[425,16],[2439,90],[69,2289],[996,1503],[84,1154],[631,2937],[1605,565],[2049,2770],[47,2329],[85,626],[77,352],[319,382],[2227,16],[2158,246],[1529,70],[1100,851],[67,2383],[3263,323],[296,324],[84,560],[69,729],[1009,263],[289,470],[294,285],[521,271],[656,255],[2738,66],[735,14],[1666,535],[265,436],[2917,455],[1488,968],[3241,670],[267,244],[66,849],[2513,66],[1407,324],[435,84],[533,656],[3264,876],[452,247],[91,74],[47,1404],[1365,246],[487,16],[475,563],[2117,400],[747,392],[521,3],[1164,16],[260,1142],[2110,90],[3142,415],[2542,280],[2647,551],[76,973],[324,1724],[1405,90],[1480,280],[409,263],[2741,90],[1633,14],[1051,324],[1143,600],[3020,2190],[839,494],[419,16],[379,296],[1500,305],[406,884],[1911,246],[78,933],[3229,639],[259,305],[320,2502],[1656,1095],[44,86],[57,243],[1775,16],[676,14],[492,835],[250,836],[2104,786],[2345,279],[2401,345],[289,263],[87,74],[380,352],[255,80],[316,631],[1375,1710],[66,91],[1513,382],[525,704],[477,418],[2175,1722],[1043,14],[41,70],[81,273],[321,3],[2610,2474],[1173,16],[80,902],[1437,266],[1225,269],[77,316],[38,550],[465,2236],[1743,1321],[3179,253],[2546,246],[1938,84],[70,271],[662,329],[1142,461],[2653,70],[272,1251],[472,73],[271,533],[3355,273],[465,729],[353,303],[69,751],[48,416],[560,16],[339,1366],[656,306],[2908,246],[492,294],[2097,267],[325,563],[262,16],[160,59],[78,258],[776,255],[1373,84],[525,322],[1029,1688],[598,84],[84,2486],[399,336],[635,267],[1909,1963],[1458,258],[1513,432],[1635,90],[2793,324],[455,1473],[552,3199],[452,2260],[2328,246],[344,255],[39,3023],[1502,361],[399,14],[416,3362],[81,74],[251,1939],[1905,937],[79,403],[1171,69],[53,3375],[1633,16],[1797,84],[71,3415],[2443,786],[659,84],[1584,950],[1420,285],[1672,280],[552,246],[68,403],[887,16],[71,289],[325,2217],[1691,287],[246,430],[53,85],[52,1688],[1540,683],[70,70],[2449,322],[3262,289],[2279,16],[651,244],[2246,1354],[571,14],[66,338],[2299,246],[1007,246],[1907,955],[647,263],[80,68],[2136,543],[545,336],[2042,260],[3335,641],[891,1324],[2927,379],[72,535],[593,432],[298,271],[85,729],[1008,84],[440,83],[1753,16],[1749,353],[517,71],[759,84],[1739,246],[248,597],[315,1736],[71,2393],[2123,16],[1014,16],[396,2835],[3106,16],[1457,16],[407,2289],[2284,267],[1086,307],[1497,952],[289,373],[1931,2551],[1475,84],[2014,839],[91,287],[1650,16],[1701,16],[700,14],[1693,2215],[67,378],[1191,85],[44,293],[1938,280],[2918,255],[2863,544],[2309,282],[2102,90],[353,656],[323,16],[415,755],[86,1277],[1093,518],[1995,285],[2825,246],[472,255],[294,731],[68,617],[79,491],[84,251],[281,748],[325,285],[69,257],[250,72],[260,1501],[1929,246],[403,246],[2179,263],[275,77],[293,1094],[635,78],[604,263],[2423,246],[248,491],[271,289],[1544,246],[273,307],[365,2132],[388,472],[250,316],[3178,434],[282,748],[2553,280],[1178,14],[3432,373],[2281,779],[350,432],[477,14],[1740,3518],[533,67],[68,646],[2062,767],[1574,16],[47,264],[67,413],[270,306],[1844,1625],[2110,287],[244,286],[309,2855],[537,271],[468,78],[324,277],[1670,16],[271,3235],[259,1767],[4,2470],[1197,280],[3525,249],[657,246],[69,610],[964,3],[250,71],[328,14],[45,269],[412,69],[254,648],[317,287],[1059,1654],[84,633],[315,2914],[2100,246],[338,80],[1121,280],[2618,90],[823,14],[2345,1200],[533,1175],[530,16],[434,1035],[1836,255],[1142,1979],[258,2300],[320,266],[87,537],[369,16],[338,410],[2114,249],[90,577],[1114,288],[688,432],[569,263],[1029,294],[316,683],[249,305],[265,77],[3523,86],[77,1068],[920,273],[1598,246],[1171,1987],[85,343],[2481,382],[248,767],[265,737],[68,1354],[1117,1592],[2426,324],[834,14],[528,260],[87,2958],[71,544],[881,14],[1252,84],[1142,2396],[363,1578],[1329,706],[533,69],[1874,84],[361,413],[866,285],[3115,267],[271,3582],[1502,285],[2017,305],[397,1592],[15,320],[270,3363],[79,16],[809,434],[552,876],[1703,16],[1375,1441],[875,366],[1018,263],[635,293],[465,2565],[737,287],[1102,968],[1331,16],[309,901],[3583,88],[2063,1458],[71,1868],[85,808],[3626,1844],[306,87],[1922,670],[1952,400],[312,590],[1667,544],[1051,79],[415,567],[582,2396],[83,380],[279,1688],[36,690],[528,565],[720,271],[506,692],[351,549],[312,1899],[447,3],[2293,280],[298,270],[1497,1663],[2828,3564],[911,272],[256,437],[720,280],[323,84],[316,91],[353,90],[83,262],[1746,579],[1001,342],[3392,305],[3581,551],[3170,2876],[1635,287],[279,2753],[2000,70],[771,90],[319,289],[482,537],[290,382],[447,432],[719,14],[3326,400],[701,1725],[528,3547],[258,3663],[37,1904],[160,1358],[271,535],[1015,706],[72,434],[281,346],[1143,284],[2150,90],[1121,84],[1806,622],[91,1105],[36,970],[3190,272],[1960,285],[77,455],[36,401],[699,16],[997,2073],[797,89],[482,336],[272,84],[1812,253],[353,294],[3578,3705],[858,755],[270,748],[312,1890],[809,950],[707,263],[250,1066],[312,77],[692,528],[1983,246],[84,259],[679,346],[1393,2421],[708,287],[1081,505],[2528,246],[389,478],[735,16],[608,14],[263,654],[1194,288],[660,827],[4,1534],[787,654],[271,372],[284,14],[433,285],[1970,16],[475,729],[2071,81],[666,74],[243,3744],[390,3745],[2346,1958],[79,3280],[1073,441],[52,86],[2496,903],[2986,2729],[699,84],[69,491],[1102,828],[2142,70],[66,1060],[3733,1963],[250,305],[2493,430],[77,2756],[3240,249],[1978,849],[325,255],[652,336],[2402,563],[84,505],[290,1352],[597,81],[338,491],[533,2257],[2628,14],[267,89],[403,263],[68,449],[1683,76],[38,2966],[3175,264],[273,1206],[1083,285],[2161,246],[1038,984],[3160,78],[897,280],[1651,280],[406,3746],[388,544],[74,355],[2362,3671],[3508,903],[2359,84],[4,38],[243,272],[364,2088],[2204,379],[2866,246],[1123,1919],[3196,311],[85,403],[1416,322],[2588,375],[72,970],[3512,2434],[75,293],[1960,70],[77,1638],[50,70],[340,285],[769,88],[1690,84],[57,593],[477,382],[281,529],[1630,1142],[1225,81],[1370,603],[250,2727],[2865,430],[1553,16],[315,945],[935,544],[2262,549],[3468,248],[319,505],[3377,430],[1574,84],[66,14],[297,280],[250,68],[1201,373],[3097,551],[653,691],[1491,877],[350,298],[701,508],[279,663],[1605,781],[290,3],[584,3268],[258,3836],[249,1018],[3841,307],[72,388],[1761,2215],[1383,285],[1430,280],[2751,691],[281,244],[2137,263],[412,80],[68,412],[1994,255],[35,3773],[1157,864],[66,979],[601,579],[3252,272],[552,243],[533,249],[50,80],[71,246],[53,309],[160,3129],[1015,2613],[1564,665],[2155,68],[306,80],[78,268],[321,538],[365,80],[83,373],[3688,864],[700,336],[1757,298],[3557,272],[2637,255],[339,731],[614,4],[959,90],[412,412],[68,263],[3651,79],[15,66],[778,579],[432,16],[3260,779],[1102,544],[78,442],[1227,280],[81,2272],[406,3054],[75,380],[299,3428],[620,847],[571,336],[2675,272],[84,600],[279,537],[1365,16],[887,280],[2065,255],[3321,70],[259,84],[67,587],[1365,263],[289,345],[260,392],[2842,637],[1550,273],[1575,287],[77,255],[53,3566],[3215,267],[361,286],[2830,84],[2261,1148],[1709,755],[701,505],[1836,285],[908,253],[3056,246],[66,723],[1465,783],[765,418],[55,79],[42,258],[502,382],[1292,271],[407,70],[77,269],[42,80],[635,325],[1596,629],[2388,782],[1162,14],[88,2168],[1144,81],[2397,1694],[244,89],[406,277],[405,544],[1318,287],[522,361],[1922,639],[250,3888],[2001,80],[72,2383],[2461,16],[396,418],[2906,1068],[2177,583],[1207,16],[3445,298],[2690,75],[305,886],[35,250],[412,484],[3897,379],[3616,285],[406,83],[745,382],[258,87],[290,1888],[519,72],[74,426],[411,2316],[2304,632],[620,285],[2,2],[67,343],[2479,84],[1818,3904],[727,4],[1495,287],[2934,400],[880,69],[282,1538],[2099,77],[313,3],[3670,461],[44,255],[1407,937],[480,14],[1051,1095],[333,84],[2063,284],[325,478],[1166,1352],[4,1255],[1015,1618],[295,410],[1103,544],[1925,16],[416,705],[2385,16],[549,15],[83,289],[84,743],[2637,299],[72,273],[73,14],[88,419],[2575,84],[1447,272],[347,1347],[1003,827],[324,86],[1141,4002],[996,3172],[1093,3340],[310,3],[81,388],[1261,294],[2492,16],[1835,288],[3870,295],[2872,1156],[4,278],[324,662],[1425,827],[85,353],[1555,786],[634,785],[296,565],[1397,432],[1312,587],[3658,248],[3193,346],[2426,812],[1114,662],[389,248],[3138,3082],[2268,2638],[3469,90],[289,1209],[272,255],[78,325],[621,84],[2563,617],[1363,14],[327,16],[68,2125],[608,400],[4042,442],[90,3009],[506,271],[69,2735],[693,14],[494,90],[656,1603],[426,984],[2809,285],[1607,280],[1816,1712],[600,14],[1581,683],[84,337],[561,4],[87,658],[2007,263],[72,691],[743,1473],[575,400],[872,14],[71,813],[847,632],[328,400],[1242,379],[364,16],[626,16],[294,280],[2177,255],[72,277],[1353,747],[273,662],[1430,84],[35,775],[68,910],[902,611],[2563,267],[1493,1538],[694,352],[1952,373],[67,1663],[701,81],[430,78],[307,2399],[3360,1963],[2336,246],[4,2664],[294,1749],[388,340],[50,289],[306,273],[1769,246],[735,255],[85,864],[422,1447],[2545,88],[3883,266],[3528,779],[2057,16],[2114,2257],[680,14],[1703,84],[69,380],[1687,615],[2004,4100],[3325,937],[2029,16],[2675,1594],[747,2236],[1972,2153],[2573,1145],[1904,567],[817,4],[85,380],[337,246],[905,16],[1387,432],[4035,1157],[36,346],[983,290],[720,345],[57,335],[2947,280],[967,14],[371,336],[253,758],[260,287],[1407,1359],[317,4087],[429,16],[472,461],[250,528],[267,3610],[3779,1414],[1535,16],[3113,551],[1053,382],[85,986],[4000,401],[1584,325],[3829,74],[72,442],[1241,263],[73,2904],[895,1195],[661,374],[1664,1492],[1931,403],[1775,14],[312,14],[2237,1050],[2677,279],[721,90],[554,263],[66,279],[506,1190],[408,14],[1892,84],[67,296],[601,85],[2001,472],[382,16],[47,390],[281,85],[935,295],[67,403],[578,336],[80,698],[81,309],[267,4134],[4007,2144],[1368,287],[66,403],[3464,85],[486,336],[68,316],[1497,69],[1708,529],[81,320],[2514,937],[762,268],[1298,682],[271,90],[1844,2434],[2965,3965],[1209,2631],[466,16],[2812,246],[80,2478],[1370,313],[1535,355],[861,14],[1135,4176],[248,2376],[376,785],[248,392],[514,71],[3006,90],[1933,287],[2017,1578],[1808,67],[523,14],[996,2232],[799,84],[947,884],[839,281],[1425,352],[1373,16],[363,665],[705,3017],[406,704],[476,84],[1466,16],[74,535],[3245,260],[290,2230],[84,434],[809,268],[539,260],[2269,16],[1033,418],[1307,285],[1181,505],[450,325],[634,825],[522,1888],[1743,1757],[832,16],[717,14],[3083,249],[78,380],[2558,16],[412,67],[245,427],[53,78],[1475,16],[316,2693],[70,4237],[68,1715],[2728,74],[66,311],[3267,76],[1574,280],[66,3346],[74,250],[2386,246],[81,247],[393,775],[50,1336],[84,267],[858,835],[319,1688],[57,401],[484,287],[243,4240],[350,14],[1049,79],[71,86],[2605,1694],[321,432],[1370,370],[390,366],[439,1522],[254,835],[593,14],[980,14],[376,2946],[1227,16],[2049,1082],[701,1525],[678,1200],[569,16],[1791,16],[482,478],[1209,288],[2204,324],[300,819],[260,1402],[662,4281],[2237,743],[3417,294],[522,4065],[2943,630],[895,353],[649,271],[3840,4288],[678,267],[1727,16],[72,353],[3850,311],[863,617],[279,708],[2068,84],[2788,551],[74,366],[1904,361],[2416,263],[1188,16],[325,254],[3344,658],[2347,90],[1063,285],[3795,79],[1038,4241],[1323,544],[2573,535],[72,79],[1353,1248],[495,264],[1994,535],[364,3457],[1280,84],[1265,293],[2313,1108],[70,71],[1229,580],[1201,263],[76,4282],[68,413],[306,1569],[3851,316],[1278,84],[3351,14],[1860,259],[72,366],[3843,271],[84,343],[83,645],[539,670],[450,322],[249,1979],[1012,505],[80,90],[160,1074],[81,263],[70,366],[1580,263],[935,683],[1759,672],[249,80],[4059,421],[720,1890],[653,1195],[36,438],[264,285],[959,1134],[1559,16],[3926,392],[307,1584],[1021,3693],[249,828],[1317,84],[81,893],[1502,1694],[569,84],[283,84],[2293,84],[47,80],[412,1379],[83,580],[2262,971],[678,266],[4124,285],[78,401],[445,336],[289,1145],[1276,1679],[2915,1715],[408,2316],[53,477],[1361,16],[81,984],[361,1419],[80,544],[353,281],[412,1857],[925,4324],[1140,14],[615,284],[3476,343],[69,2791],[647,16],[4,40],[1491,77],[1383,346],[651,873],[455,309],[51,86],[3419,537],[331,16],[267,666],[350,505],[1465,451],[2589,537],[312,288],[896,263],[57,308],[847,70],[70,3788],[2281,70],[282,544],[1114,543],[306,285],[72,537],[1874,16],[2720,1906],[1030,1679],[1194,1473],[1548,3],[71,262],[3709,2190],[1301,16],[321,382],[2903,613],[265,86],[2588,678],[15,993],[2033,16],[833,478],[2126,84],[2504,537],[690,279],[281,72],[439,382],[450,272],[331,671],[2237,2452],[1625,535],[1062,2584],[2616,691],[2176,77],[1167,14],[2823,246],[3381,85],[1222,14],[498,336],[250,412],[84,1250],[309,685],[2713,84],[1846,352],[35,77],[281,345],[1006,849],[3691,955],[294,3976],[15,605],[2720,3480],[708,263],[53,2329],[1311,285],[87,2399],[4440,4310],[329,16],[798,14],[2496,284],[582,1579],[41,1719],[4323,250],[4238,301],[2550,654],[466,535],[2544,16],[1209,298],[782,305],[1677,4455],[487,285],[2377,343],[75,346],[1227,246],[470,16],[863,1721],[668,1105],[2146,617],[262,28],[1623,84],[652,14],[562,84],[2562,649],[1325,287],[282,84],[2336,637],[591,288],[44,1979],[1791,84],[3680,259],[75,1599],[1667,828],[2240,84],[4012,248],[3833,263],[91,285],[713,16],[279,805],[1596,14],[480,336],[67,3409],[303,426],[1037,352],[3696,267],[476,263],[3665,919],[681,345],[386,14],[552,1971],[745,3],[2745,16],[4085,802],[720,1505],[78,915],[81,325],[739,14],[1869,79],[816,246],[315,258],[3855,68],[2039,263],[4400,76],[492,1157],[1119,84],[1373,280],[774,2973],[86,316],[2014,622],[3628,1352],[1485,2509],[269,74],[474,68],[813,70],[85,570],[3450,1167],[899,478],[1325,90],[522,294],[4537,434],[1703,280],[477,432],[2202,246],[701,78],[415,267],[3495,77],[4468,802],[282,289],[250,3929],[1165,366],[863,4144],[511,280],[489,78],[253,1095],[289,366],[293,2176],[4021,1078],[1407,812],[331,76],[901,246],[996,1542],[1165,1071],[72,258],[1897,16],[54,73],[2805,84],[742,16],[158,78],[701,67],[36,2486],[972,505],[77,337],[1417,16],[1406,16],[605,255],[71,797],[904,263],[1237,580],[90,520],[3775,70],[389,85],[315,3739],[4302,1239],[508,968],[2456,16],[87,337],[634,1661],[1488,85],[1114,903],[839,361],[1547,253],[2217,2344],[2118,287],[252,451],[1931,323],[37,77],[4534,663],[3150,1119],[815,285],[66,575],[1757,1112],[2528,373],[1692,3],[2518,84],[3960,633],[447,279],[1576,1971],[69,3554],[586,658],[54,533],[3799,1467],[2874,16],[3390,632],[2514,244],[68,4501],[4533,74],[40,270],[250,284],[250,406],[4222,1248],[3542,955],[74,1997],[604,85],[3981,392],[249,294],[832,336],[160,440],[943,336],[348,1071],[1699,373],[4347,90],[562,336],[71,637],[1846,84],[464,14],[47,4530],[406,1097],[1499,336],[297,77],[1195,590],[2479,280],[1890,299],[1007,280],[1816,85],[1201,505],[305,3911],[2815,346],[3994,74],[668,401],[1317,14],[78,826],[3842,343],[72,4352],[737,2763],[2004,1354],[690,84],[73,645],[1410,617],[1069,3349],[415,2362],[3291,246],[2520,246],[72,646],[1329,1514],[712,255],[4094,779],[3358,373],[506,295],[71,629],[2987,263],[4584,273],[2841,284],[319,648],[353,2037],[1598,263],[3069,3036],[88,1177],[252,4574],[260,2272],[591,1178],[1037,16],[1019,84],[37,260],[492,4526],[3125,893],[1545,4],[690,352],[2387,646],[1929,84],[1272,263],[2833,246],[717,549],[281,293],[3898,71],[2816,528],[759,2884],[582,3828],[624,14],[3758,84],[2872,343],[1052,505],[49,83],[2700,90],[294,272],[1630,613],[1261,1200],[90,3],[2610,4354],[71,244],[72,345],[811,14],[69,260],[1379,622],[1390,1536],[1549,263],[1066,478],[765,14],[3249,246],[1201,246],[73,4343],[2432,895],[1643,16],[69,246],[47,1113],[593,418],[969,249],[1059,16],[902,922],[1656,2264],[263,3],[328,1101],[273,433],[1144,2091],[267,1521],[295,4732],[405,4598],[452,3987],[2803,2437],[3928,272],[243,280],[2328,255],[419,287],[1872,1618],[250,334],[651,2069],[1889,84],[2921,246],[1176,1162],[1735,611],[2842,2384],[921,580],[1069,2447],[84,455],[506,541],[343,255],[701,285],[66,1579],[78,1156],[777,253],[4166,4407],[77,293],[3413,373],[315,868],[485,86],[1352,78],[1123,1851],[964,382],[2054,287],[2150,537],[1482,16],[1086,633],[673,784],[2520,945],[2606,280],[557,280],[1615,246],[297,346],[1207,280],[1692,14],[3232,3625],[327,441],[71,4757],[582,2319],[663,432],[78,247],[528,2320],[83,4718],[265,2723],[80,289],[1173,14],[1873,343],[300,352],[1762,14],[259,864],[69,637],[3470,919],[329,84],[688,16],[421,70],[4289,419],[3943,611],[3690,528],[1989,84],[626,3216],[324,273],[450,2943],[4167,4518],[2313,267],[69,2056],[73,286],[338,1618],[2083,505],[2382,16],[2371,84],[1176,445],[76,505],[1021,3991],[2618,287],[74,632],[4147,80],[84,4733],[1081,280],[411,14],[899,14],[3947,90],[1001,74],[2376,419],[312,68],[3287,90],[361,2735],[412,1177],[331,85],[626,14],[84,277],[3166,1068],[2038,2134],[2158,285],[1520,1145],[850,373],[1486,505],[934,246],[815,70],[282,373],[69,1216],[4594,556],[1528,16],[324,403],[341,16],[46,4369],[78,2082],[307,456],[1843,245],[655,14],[249,366],[83,2707],[319,418],[4763,338],[412,3484],[860,441],[468,849],[2209,84],[2377,1156],[316,68],[858,2380],[331,279],[1337,16],[415,4824],[4420,4450],[309,1522],[1154,322],[445,14],[388,288],[477,593],[3201,491],[2359,280],[528,520],[406,893],[435,1492],[80,89],[281,90],[84,801],[272,246],[1173,84],[1925,3102],[328,861],[1325,263],[40,3910],[3872,691],[662,86],[67,270],[42,3907],[2566,691],[1290,16],[3116,537],[4192,324],[1595,16],[315,1444],[1735,922],[53,635],[708,491],[524,505],[1246,84],[81,3213],[413,280],[4142,66],[3700,343],[840,83],[1580,16],[3946,379],[52,246],[76,351],[1298,268],[315,67],[78,14],[3491,345],[1294,16],[562,382],[3561,1082],[3996,1036],[77,4887],[2595,580],[1874,280],[568,563],[690,16],[1666,1348],[657,267],[1457,505],[431,406],[262,544],[1512,14],[81,1068],[447,538],[1438,267],[803,4742],[1788,84],[2246,1715],[744,70],[1120,1320],[703,246],[271,3757],[248,264],[528,2312],[2471,4049],[1871,16],[673,4143],[313,478],[792,90],[47,70],[1434,84],[66,934],[2397,945],[296,305],[72,1445],[260,74],[2888,267],[4413,274],[2241,280],[244,4803],[465,298],[2170,1156],[560,1024],[76,14],[582,288],[45,691],[243,2766],[2136,2312],[668,249],[67,786],[3595,70],[435,382],[468,263],[3361,430],[4292,2445],[1807,528],[2508,246],[2606,84],[1711,14],[36,90],[78,1556],[1185,491],[1843,849],[1656,3668],[3809,14],[736,267],[359,432],[4258,379],[248,370],[4,37],[4,2798],[2450,851],[305,264],[4785,2445],[2696,543],[803,1819],[267,90],[3579,66],[492,81],[4180,430],[882,14],[254,90],[69,4062],[908,67],[2152,246],[339,4334],[57,388],[68,1116],[1001,1164],[2902,84],[2932,16],[1265,1745],[2848,323],[72,716],[262,248],[539,372],[1081,84],[643,16],[60,80],[90,346],[3954,1210],[81,5011],[46,816],[926,2897],[249,3459],[515,90],[1225,88],[1122,16],[492,752],[4402,16],[2474,3257],[663,382],[310,1468],[1632,263],[2979,256],[563,3511],[855,84],[1239,74],[2592,85],[1055,1186],[926,250],[4250,66],[1810,1665],[598,538],[2409,263],[71,542],[1860,84],[5021,307],[2093,1665],[2097,617],[77,691],[823,827],[253,1347],[250,298],[3233,246],[1410,827],[1332,14],[474,2723],[3483,70],[342,16],[4336,1196],[3144,280],[1426,33],[40,2753],[1803,14],[1015,80],[68,988],[692,81],[582,392],[409,366],[70,849],[930,16],[3399,1382],[2375,287],[2691,258],[848,14],[720,748],[1407,392],[2788,1070],[1808,281],[929,14],[2286,263],[160,49],[962,280],[4121,637],[712,827],[4036,85],[3200,1024],[1682,505],[1782,672],[433,345],[597,279],[298,379],[5089,249],[1808,1049],[50,258],[3539,67],[1728,16],[829,3],[1040,84],[1757,387],[475,279],[517,2380],[907,14],[2408,259],[371,2356],[271,2756],[250,703],[267,1164],[1500,528],[316,1130],[1384,14],[329,650],[1272,345],[640,352],[1233,14],[450,3],[1380,489],[3031,2001],[2768,1976],[328,580],[1197,478],[252,755],[1030,263],[2820,613],[996,3133],[4084,685],[593,382],[77,373],[69,293],[1488,579],[299,1445],[391,3],[839,541],[1961,16],[987,16],[324,1987],[3233,285],[4220,2344],[1750,14],[2809,366],[3890,80],[1259,382],[4304,366],[2574,14],[1015,1505],[778,392],[1382,451],[4346,835],[2114,1068],[54,3213],[2545,258],[2983,1130],[1017,255],[3201,90],[47,268],[1329,345],[1052,14],[45,289],[3962,1112],[1047,14],[90,1419],[338,355],[3814,249],[4640,2907],[1281,16],[66,1185],[3367,637],[255,68],[2858,324],[1339,84],[4,39],[1020,4339],[604,16],[1603,426],[908,1060],[703,731],[592,772],[2439,287],[996,5130],[1475,263],[78,946],[1994,1320],[77,2134],[650,85],[2161,250],[448,72],[85,1105],[1047,255],[1892,16],[2554,246],[690,280],[389,1355],[1873,520],[1411,1975],[3594,85],[160,4005],[309,76],[53,306],[79,873],[1807,250],[324,269],[2559,499],[66,903],[415,1908],[1951,1156],[987,280],[2728,639],[1918,544],[4253,752],[472,267],[506,543],[2386,16],[1764,16],[3656,267],[668,1177],[1134,285],[1015,288],[270,2153],[1312,483],[337,263],[2240,280],[533,361],[84,868],[2493,1710],[2848,246],[4073,5171],[2648,3],[274,67],[73,259],[85,4517],[1166,3206],[2103,84],[636,336],[962,84],[319,272],[4,3035],[763,849],[2952,70],[1037,14],[2432,633],[1102,16],[83,83],[1470,16],[363,91],[85,1156],[67,249],[2284,617],[80,945],[1690,280],[1102,379],[1889,263],[797,66],[3880,66],[3645,549],[2566,1906],[1453,434],[294,1857],[72,1516],[3517,81],[525,66],[2390,84],[4394,263],[673,14],[1808,2263],[283,14],[4023,16],[4,3123],[4441,246],[2002,66],[4185,346],[248,729],[452,249],[416,5165],[5241,273],[548,366],[2626,246],[651,2168],[53,81],[2521,345],[67,945],[941,280],[5198,282],[452,401],[1669,3858],[3957,260],[2074,84],[1522,1354],[66,485],[863,353],[316,2430],[4855,77],[1511,246],[2471,1579],[1261,563],[1281,263],[825,4],[73,419],[353,1599],[265,2224],[1913,1286],[1455,429],[1012,1190],[2252,84],[1225,1707],[77,438],[4521,1320],[1699,16],[298,5294],[480,478],[2925,400],[513,16],[621,280],[4724,311],[2949,16],[81,373],[54,2939],[591,1200],[3057,929],[363,1234],[3964,373],[1365,84],[4,50],[331,2309],[3212,80],[439,418],[3247,1050],[2410,84],[1305,16],[2176,67],[1010,16],[257,246],[67,535],[568,78],[5330,506],[1261,245],[500,14],[380,1584],[656,4783],[1427,505],[69,419],[3473,280],[329,90],[313,418],[338,1986],[41,429],[1015,250],[1209,81],[3501,3861],[4,2718],[1295,478],[4030,267],[1483,263],[1256,84],[81,617],[712,352],[562,280],[856,263],[281,1509],[685,2020],[4,721],[275,2897],[39,520],[521,382],[299,4825],[67,491],[1552,1637],[5337,4097],[1307,255],[277,259],[4730,343],[3394,3],[457,16],[249,653],[657,14],[3931,4580],[4554,1987],[2017,3881],[1197,263],[450,289],[1,358],[4804,419],[254,484],[3165,16],[389,246],[318,382],[1819,16],[449,14],[712,535],[4588,864],[315,529],[66,315],[1518,289],[388,3086],[522,267],[1587,294],[2731,246],[74,590],[84,3593],[1141,1267],[4344,80],[375,544],[2657,14],[708,16],[250,4542],[1298,1164],[281,414],[2655,16],[4865,248],[1743,255],[1491,78],[1284,418],[87,1068],[73,637],[3406,246],[4262,246],[271,263],[4547,255],[592,1749],[3835,255],[67,451],[1476,14],[249,563],[46,743],[2672,263],[1256,14],[787,3185],[81,1911],[390,345],[1743,76],[66,563],[80,325],[2304,345],[397,538],[518,285],[972,263],[2640,263],[309,253],[506,311],[1015,70],[2016,617],[1111,478],[768,84],[521,432],[3807,5207],[836,16],[430,260],[361,287],[3424,478],[1513,14],[4529,779],[1453,3941],[2830,280],[1422,366],[1870,16],[702,258],[3613,90],[4807,287],[4243,80],[539,743],[3792,266],[4196,323],[911,945],[515,287],[1119,1148],[588,4],[657,478],[1943,1722],[76,2652],[1749,2849],[315,1468],[3414,528],[1967,681],[2347,4734],[415,683],[250,4508],[2616,1850],[820,16],[510,352],[87,3510],[954,14],[2093,84],[249,87],[426,271],[81,323],[1904,1201],[69,343],[88,505],[2907,248],[343,1348],[1361,287],[1396,14],[361,893],[3759,74],[4008,1971],[1835,67],[75,2509],[315,1890],[160,838],[1740,250],[507,14],[3473,84],[2713,280],[701,1274],[662,1116],[316,81],[1038,1638],[273,544],[2677,78],[274,3],[3940,253],[87,552],[619,360],[5019,3088],[332,758],[360,1982],[415,67],[2952,379],[532,262],[325,5512],[52,552],[548,84],[4762,282],[91,1473],[1226,285],[2243,405],[315,3292],[2418,1200],[1364,3],[717,419],[396,432],[784,14],[514,1468],[1960,329],[269,5034],[1021,2998],[736,373],[339,5058],[281,285],[526,802],[9,298],[1040,263],[5479,670],[954,3],[4148,343],[668,2791],[307,290],[305,484],[5480,74],[37,80],[385,16],[1541,478],[3866,828],[1521,1142],[1173,280],[1943,337],[4519,3867],[4861,258],[1912,16],[87,611],[5485,5513],[514,84],[363,68],[663,285],[744,491],[660,418],[5500,635],[2870,432],[465,835],[297,1509],[2822,16],[2313,1721],[2256,263],[80,264],[71,323],[3347,1414],[1452,14],[823,352],[2065,1348],[3147,3305],[353,338],[5025,442],[1475,258],[2516,352],[363,2707],[67,401],[1165,346],[5517,422],[258,851],[4091,691],[76,344],[3184,246],[84,432],[244,495],[412,272],[1809,16],[1441,2399],[1109,289],[2793,1095],[456,81],[368,5593],[1015,2631],[4179,1060],[1129,336],[4701,255],[47,1084],[2099,2060],[1682,5334],[265,755],[67,825],[981,4],[3000,16],[397,382],[2747,246],[250,5597],[1182,255],[3939,1112],[996,328],[603,366],[339,2437],[388,1108],[932,336],[2432,380],[84,5328],[316,285],[1658,3],[1121,14],[1996,70],[53,254],[3679,287],[320,418],[969,263],[4247,2277],[158,250],[2536,16],[1037,255],[2164,2483],[1593,2272],[969,373],[279,2184],[4009,263],[1209,264],[68,3510],[2562,287],[3207,16],[9,16],[705,1483],[364,2509],[834,352],[1922,3050],[68,779],[3376,4078],[325,849],[4031,259],[44,70],[42,550],[67,662],[1017,1320],[3394,382],[1034,336],[53,3438],[1244,623],[833,14],[1089,16],[4870,847],[2362,249],[3379,16],[688,14],[2667,16],[4764,14],[1028,14],[1908,268],[4135,289],[84,1758],[3087,14],[4387,76],[4162,288],[250,1526],[762,816],[4674,685],[255,3764],[353,1618],[1047,535],[1019,14],[347,84],[863,90],[459,538],[1493,84],[815,1200],[592,1146],[2286,84],[2911,871],[4151,67],[1255,14],[35,5644],[1491,249],[1239,272],[2894,263],[248,403],[753,894],[881,84],[582,564],[84,287],[533,1721],[4516,272],[1433,90],[289,535],[1296,14],[69,564],[5543,250],[1306,16],[4172,639],[1802,379],[337,505],[77,3764],[1279,14],[4164,246],[85,731],[1797,280],[322,382],[78,984],[4024,259],[1300,16],[1266,16],[763,76],[2804,16],[1151,16],[2400,400],[333,280],[1994,1973],[83,1376],[350,873],[600,84],[1598,392],[759,3977],[271,1354],[690,316],[73,783],[2182,1492],[88,1834],[2298,263],[4,2601],[3140,2125],[4,41],[2105,621],[929,263],[66,705],[68,626],[2865,630],[813,1172],[5320,4872],[815,279],[4,52],[701,299],[1061,366],[2451,1445],[84,783],[4287,298],[1552,872],[388,429],[1249,14],[1349,246],[1115,336],[1965,535],[3287,287],[930,1492],[608,16],[2012,2242],[80,1846],[359,418],[885,491],[3440,324],[313,280],[717,952],[4155,90],[2309,66],[520,537],[799,16],[836,280],[2764,2388],[1836,81],[262,441],[1726,16],[1287,14],[2732,14],[907,3],[1330,1108],[2870,14],[2417,255],[900,366],[302,505],[2209,280],[309,2859],[1154,1164],[3999,90],[668,1258],[1981,3082],[799,14],[2808,418],[4608,70],[1793,567],[3571,579],[437,430],[928,263],[2915,1354],[3323,786],[702,873],[322,1654],[78,535],[635,748],[434,14],[2471,565],[705,331],[1126,2401],[449,72],[3131,786],[455,2592],[2696,87],[4954,445],[415,81],[1550,263],[1588,14],[333,432],[1281,84],[1135,1024],[5090,4677],[972,580],[1295,16],[3930,70],[340,14],[283,70],[506,267],[3958,246],[298,85],[4691,246],[1990,16],[312,264],[320,3],[71,451],[2891,864],[2776,16],[3876,3015],[435,418],[3113,1070],[158,484],[4637,379],[248,250],[76,1071],[5008,279],[69,1834],[847,285],[803,71],[1807,426],[4303,249],[3140,66],[482,382],[2648,382],[2605,3073],[1824,84],[1029,549],[371,432],[1307,85],[2983,543],[78,1309],[1017,280],[5060,14],[4283,373],[506,262],[393,3],[1188,14],[2377,442],[1629,387],[1129,14],[258,5745],[911,293],[243,1433],[1810,84],[4549,691],[389,1888],[4780,470],[328,255],[4613,70],[2475,294],[5531,5151],[582,280],[2575,478],[2449,70],[70,539],[53,470],[328,418],[397,3],[87,505],[1126,3342],[2288,280],[586,565],[1740,246],[2698,84],[46,309],[2184,535],[78,4912],[759,418],[2689,16],[882,3754],[5727,279],[1472,287],[1836,366],[60,2010],[450,33],[69,263],[271,1715],[3152,14],[3529,70],[309,4054],[670,78],[743,461],[66,748],[3645,952],[717,255],[306,74],[1109,1906],[340,263],[1358,336],[1072,14],[2802,621],[821,3088],[3130,1068],[448,4377],[38,1485],[2207,14],[1089,478],[4236,4911],[3087,3],[1552,84],[81,366],[160,1826],[565,537],[271,5915],[1259,255],[344,535],[3998,706],[844,827],[1407,2215],[328,382],[961,864],[68,249],[88,250],[1840,287],[4616,294],[2906,2134],[568,2037],[5744,324],[1641,2946],[3361,1710],[4646,2996],[1690,16],[2443,617],[4522,663],[5286,1107],[40,353],[2545,731],[2501,16],[275,250],[1149,4356],[2410,280],[1452,84],[4826,2445],[2712,781],[3568,16],[539,253],[265,1710],[1260,705],[81,3669],[3299,2312],[4072,779],[289,324],[1491,484],[1983,580],[88,5911],[3299,543],[1527,945],[5018,77],[4623,1157],[54,249],[2738,819],[357,16],[3613,287],[980,352],[1746,544],[1077,279],[3031,2422],[45,263],[640,827],[552,1808],[42,472],[620,90],[412,2055],[5490,387],[1530,329],[901,16],[2117,84],[517,491],[2408,85],[2133,336],[4460,263],[4990,3222],[3245,1599],[272,887],[75,4755],[534,14],[160,57],[333,418],[250,1043],[1739,255],[2603,418],[1220,16],[74,246],[1109,3343],[77,505],[1555,2060],[70,772],[4577,85],[1437,483],[2513,325],[71,286],[3721,387],[359,3],[720,541],[78,326],[309,561],[298,264],[84,2452],[355,6024],[4682,784],[3859,373],[5989,623],[1546,535],[897,14],[1175,16],[84,258],[897,984],[705,78],[5577,544],[274,2109],[85,946],[1245,373],[1260,3212],[4260,3867],[363,295],[2235,263],[77,2104],[465,2038],[69,342],[324,1105],[84,1981],[48,286],[821,264],[5924,266],[3222,246],[2197,16],[81,731],[4897,298],[3125,6054],[389,382],[656,260],[1740,1414],[2961,16],[1237,70],[813,285],[3226,884],[406,401],[1801,683],[271,1850],[1849,84],[995,14],[572,432],[267,579],[1284,382],[2265,535],[14,161],[525,5109],[681,706],[1735,4204],[1126,4667],[2096,294],[1029,80],[90,984],[3356,544],[3748,16],[2268,1148],[296,632],[2768,5312],[2997,833],[297,2766],[714,285],[81,1679],[1892,280],[834,535],[2179,255],[75,3808],[3762,346],[2647,1070],[4230,85],[69,3774],[4390,2119],[464,16],[375,1654],[875,580],[1607,16],[633,90],[81,1354],[315,1186],[778,296],[459,432],[4795,1071],[1576,3511],[1788,280],[2063,3017],[298,1654],[403,430],[3134,373],[393,382],[1784,1116],[4992,246],[3712,263],[3932,506],[1270,535],[2875,277],[3945,246],[897,478],[4013,621],[1182,16],[250,2094],[316,288],[1259,3],[1635,748],[265,1723],[325,5941],[246,3],[832,14],[4072,1424],[3267,849],[684,1468],[4926,5743],[256,635],[3519,1274],[1641,413],[4227,3515],[2112,3173],[328,84],[281,254],[2594,280],[3429,786],[5062,968],[3202,16],[78,1560],[1190,255],[435,1024],[72,3349],[1873,3324],[570,70],[80,4878],[4644,90],[4337,1347],[507,3],[1422,632],[40,2541],[3555,306],[1837,14],[926,90],[2817,16],[511,3],[388,1286],[455,266],[76,1177],[1184,336],[1623,263],[71,6133],[77,2116],[49,77],[2102,287],[785,284],[985,336],[3456,90],[816,287],[290,2631],[3127,246],[2663,16],[331,1200],[809,1558],[2947,1992],[886,16],[809,2962],[4361,4257],[5155,537],[1383,345],[2262,419],[6123,81],[4845,324],[1365,280],[3422,16],[3381,3119],[1915,71],[2417,246],[547,282],[315,499],[294,325],[1487,336],[1245,263],[15,1982],[934,280],[2825,263],[1103,819],[2575,280],[621,382],[1198,1054],[81,253],[3358,580],[316,851],[6175,955],[996,1971],[901,373],[1147,14],[328,432],[359,336],[595,16],[45,70],[86,2018],[1355,3711],[2252,16],[937,246],[4939,346],[562,3],[4418,3206],[459,3],[2589,505],[2751,3906],[3565,16],[91,390],[295,579],[1500,2160],[495,87],[247,15],[341,418],[759,14],[3249,373],[37,455],[1905,4966],[1225,2565],[916,280],[1964,403],[466,1145],[1215,4],[272,637],[4789,864],[340,16],[688,382],[88,246],[459,336],[2501,84],[3860,3107],[310,1283],[4759,903],[365,3808],[1967,16],[1337,827],[3925,5747],[380,827],[864,84],[523,418],[3750,603],[978,14],[79,413],[1532,685],[987,263],[1673,580],[1984,16],[2816,2037],[2218,263],[443,538],[887,1670],[3440,812],[1299,262],[2286,16],[1759,1781],[669,28],[2875,270],[3650,2419],[507,505],[823,382],[692,2037],[4555,90],[3650,379],[293,285],[426,1599],[317,14],[1182,505],[325,246],[71,346],[1673,373],[1250,14],[934,14],[1077,14],[439,3],[1015,85],[2239,3],[309,419],[885,1887],[2274,84],[72,66],[4661,285],[5092,613],[5933,434],[47,66],[77,780],[89,6205],[718,2264],[406,690],[79,537],[5331,80],[3759,637],[881,280],[1237,1190],[333,538],[3597,1302],[5625,1097],[1275,3],[2719,14],[969,710],[1364,382],[1713,3],[4932,255],[3124,16],[3579,819],[271,293],[864,280],[363,264],[2074,16],[655,418],[350,418],[4425,539],[3925,685],[2764,4495],[371,3751],[5015,70],[1006,343],[811,3],[2023,3506],[421,14],[5884,1105],[4123,259],[376,4550],[406,1684],[5277,255],[1380,2264],[1873,419],[2110,491],[4122,1352],[1873,1107],[480,418],[250,70],[822,263],[281,540],[272,1516],[47,273],[4943,1992],[4877,90],[1650,14],[2690,3874],[3517,270],[1966,352],[3171,246],[830,16],[3384,16],[5814,273],[413,432],[450,1594],[1035,3073],[2126,280],[16,16],[4,3444],[3391,86],[1483,505],[1872,285],[15,6238],[2984,89],[1483,919],[1747,14],[1067,14],[1223,14],[267,271],[510,432],[296,68],[701,71],[2803,74],[1820,16],[912,3],[5285,259],[303,16],[431,14],[1700,538],[1571,255],[2657,16],[546,16],[1931,1987],[568,1130],[603,70],[295,491],[3640,16],[1072,478],[249,5571],[1298,3307],[43,84],[676,246],[363,2242],[4531,4199],[2049,266],[528,1348],[962,14],[592,68],[1162,505],[77,85],[516,1975],[2361,3],[337,3],[1580,786],[3501,71],[1034,14],[81,259],[1976,272],[475,1722],[525,335],[1083,345],[391,418],[3414,405],[5810,706],[5214,373],[1614,14],[1097,263],[250,1502],[1325,14],[465,78],[1735,5261],[1194,1175],[5054,85],[3866,968],[693,898],[307,6234],[769,1212],[4961,267],[899,336],[3495,1654],[36,307],[83,434],[1779,81],[1298,2849],[1734,6380],[4,14],[250,4318],[2741,287],[350,33],[4514,4875],[2002,329],[545,775],[1719,14],[1265,2826],[528,302],[1526,84],[457,14],[995,84],[323,352],[2758,84],[1249,336],[502,3],[393,538],[2640,246],[523,3],[435,3078],[359,382],[74,565],[339,3549],[778,564],[3297,16],[4563,257],[2158,1071],[633,16],[612,1105],[1161,4866],[1165,4952],[5552,260],[3226,78],[6360,272],[620,361],[1295,258],[1119,280],[3806,418],[389,544],[4129,16],[1355,828],[1323,14],[1331,84],[1066,4378],[73,74],[1056,4],[1400,70],[267,4078],[283,246],[281,289],[2246,390],[1114,2430],[3586,1850],[48,2939],[3117,1697],[388,4133],[391,432],[1843,1200],[1387,14],[635,2826],[1743,849],[2348,14],[1553,84],[582,69],[612,3050],[1791,280],[1905,5635],[376,432],[459,382],[71,919],[946,505],[2965,5431],[5195,629],[626,5196],[1278,14],[416,2624],[1555,827],[1806,683],[928,14],[377,14],[905,989],[5619,630],[87,419],[4426,630],[4657,1068],[1735,4378],[2065,16],[1690,246],[84,586],[498,280],[36,646],[653,752],[795,505],[83,873],[833,3386],[1181,84],[533,271],[81,1105],[1363,432],[959,14],[466,246],[2052,16],[1808,282],[74,1156],[1417,2888],[2304,70],[46,86],[316,66],[739,3],[2179,505],[309,670],[2112,72],[776,4208],[160,684],[4261,329],[1967,1267],[844,14],[328,373],[262,382],[5546,412],[739,84],[84,895],[445,1354],[1529,5896],[53,501],[1983,373],[4711,246],[45,268],[552,2161],[265,6090],[575,84],[1391,16],[88,266],[79,373],[2969,246],[3117,392],[5172,255],[3356,324],[83,16],[1209,1060],[2042,1599],[3089,263],[266,246],[1658,382],[829,382],[1343,16],[71,1164],[43,4566],[315,5067],[310,33],[1278,382],[2671,392],[381,3],[325,535],[4373,90],[631,247],[6430,285],[1811,72],[4456,1050],[3679,90],[3603,16],[2030,478],[5114,541],[1053,3],[486,964],[1333,1366],[261,294],[319,432],[244,1080],[5972,258],[944,3054],[1841,505],[5031,274],[4651,373],[4617,259],[1306,14],[1020,326],[4971,90],[2052,84],[4045,2638],[4075,285],[572,3],[5390,268],[1614,84],[5275,1404],[552,5750],[1862,70],[2108,849],[2408,828],[836,263],[939,3],[79,1850],[3721,286],[882,1986],[349,382],[2443,267],[2141,16],[5365,272],[2400,1492],[502,432],[3330,16],[844,352],[1237,285],[2256,16],[4888,429],[309,2763],[3376,3854],[1271,336],[4333,246],[2285,90],[1182,535],[684,1186],[396,3],[1398,16],[597,903],[1680,16],[38,3554],[40,273],[705,812],[46,375],[482,3],[1176,1457],[271,779],[160,806],[1700,382],[70,1196],[2470,332],[49,88],[5604,263],[2307,4566],[658,457],[663,580],[47,293],[1641,374],[312,5200],[3587,16],[83,375],[91,6443],[1103,66],[2104,267],[1329,67],[2513,819],[1117,79],[973,78],[1269,263],[3890,2109],[1030,16],[2094,1902],[1428,336],[1693,6235],[271,2331],[5069,864],[3551,1976],[371,382],[385,441],[782,249],[1860,683],[1398,255],[2097,786],[390,706],[67,2729],[701,2332],[1537,478],[1335,14],[2423,255],[1555,267],[271,353],[3551,4338],[37,289],[3939,2421],[353,3019],[2002,392],[259,4714],[1062,80],[2409,255],[1417,84],[1496,336],[2544,418],[2138,1958],[1209,903],[2154,1986],[406,1404],[5846,263],[2521,263],[1264,14],[3789,246],[1524,5419],[909,14],[951,161],[245,1638],[3504,66],[703,90],[349,3],[912,85],[5545,1894],[374,14],[4,55],[5000,941],[341,263],[256,3],[5496,3854],[2546,1850],[243,289],[42,5590],[796,873],[5587,731],[647,255],[635,819],[3399,2422],[5253,70],[75,2826],[298,1899],[84,246],[254,287],[249,324],[2102,1366],[653,2320],[4227,3774],[2785,84],[1438,1108],[75,5194],[322,3],[67,808],[702,14],[1584,1558],[6237,90],[3527,16],[3491,537],[250,267],[1550,16],[253,33],[492,286],[833,2227],[5401,337],[6529,352],[253,1403],[678,1082],[525,401],[1098,4],[771,287],[2861,14],[712,14],[1227,478],[6640,4158],[81,1958],[2169,1175],[928,418],[4307,16],[1989,280],[612,287],[3380,16],[39,2391],[2252,280],[67,5935],[2336,373],[85,424],[3160,1722],[2001,250],[1849,263],[872,1145],[3058,246],[1604,352],[747,729],[4145,246],[275,336],[3621,16],[1434,287],[264,629],[4349,16],[1810,3143],[991,14],[86,478],[68,825],[5894,66],[1936,3],[2589,1679],[1058,16],[3134,246],[2603,432],[2785,280],[5050,4880],[1309,2153],[2518,280],[459,418],[3334,955],[84,1105],[660,629],[991,16],[1454,16],[3544,246],[858,355],[272,2384],[1816,828],[316,835],[479,3],[1960,6417],[1913,1992],[1531,336],[345,3],[6673,86],[6302,876],[2062,370],[4184,14],[1020,3438],[3835,535],[54,86],[1387,263],[507,382],[6479,325],[2136,81],[66,73],[1967,445],[1460,336],[6028,379],[412,2312],[1896,3],[3130,2257],[1134,968],[1701,84],[1421,16],[548,1473],[1687,279],[4148,1156],[1059,246],[315,2469],[2377,353],[2301,352],[560,3078],[739,336],[3347,4130],[799,580],[258,3818],[1017,90],[249,6660],[1319,14],[616,80],[904,373],[2700,79],[320,382],[5554,294],[3653,16],[845,3],[2390,280],[6282,70],[2595,373],[249,706],[46,1404],[3175,2928],[74,76],[1804,16],[1209,2224],[2608,16],[924,544],[1141,1837],[5269,2638],[161,16],[4832,16],[1433,86],[4026,14],[252,783],[4230,544],[1438,491],[1149,14],[2501,280],[66,1551],[1615,263],[932,14],[6582,2201],[482,3604],[74,2584],[1279,352],[38,266],[3714,16],[5428,262],[5864,259],[2858,812],[699,373],[413,382],[886,2452],[985,14],[3957,1599],[52,438],[3131,267],[1407,564],[3308,70],[1433,287],[2870,16],[753,783],[837,16],[84,683],[397,432],[258,246],[299,3906],[2984,250],[1033,382],[46,258],[1279,827],[68,283],[4752,2190],[4357,255],[3555,623],[2397,4244],[68,663],[660,538],[2643,16],[1458,731],[6051,3051],[771,366],[805,282],[4751,543],[4182,264],[5270,262],[9,280],[716,280],[5415,246],[850,580],[782,2350],[247,14],[6108,4797],[250,325],[855,280],[53,1167],[389,4375],[3097,1070],[1580,77],[4172,871],[2816,1976],[769,83],[1632,90],[2532,1707],[3294,263],[506,3107],[770,505],[3356,1095],[1635,491],[3226,1684],[3476,1156],[88,645],[5364,1414],[1466,84],[319,1594],[3086,16],[1029,952],[6278,776],[675,535],[1604,827],[1102,579],[1002,263],[1323,352],[872,3370],[6504,1320],[308,16],[331,544],[5115,528],[451,161],[1459,1592],[312,945],[47,277],[6020,4474],[349,418],[575,1492],[1472,345],[4,2167],[6336,378],[860,535],[389,418],[6152,4561],[2108,76],[1894,267],[46,2056],[87,322],[67,342],[2952,285],[5256,382],[5900,78],[1030,4817],[469,320],[494,287],[1126,16],[1416,66],[1051,2393],[3545,16],[1834,90],[554,873],[2103,16],[3407,16],[2934,1492],[856,84],[4,276],[2616,1906],[1337,14],[3016,16],[3597,90],[1109,429],[1843,563],[279,6659],[2248,267],[67,1177],[3700,1156],[5163,16],[294,390],[248,14],[472,249],[6575,267],[5044,1445],[3643,16],[1709,835],[1499,14],[1605,5892],[3131,263],[1260,87],[3323,267],[252,5030],[2478,81],[593,33],[2219,14],[1555,1108],[770,432],[4391,372],[5494,259],[1585,505],[5027,714],[5027,2723],[2905,14],[5495,14],[839,67],[1019,280],[2146,1108],[1584,3409],[486,16],[81,451],[2279,14],[4456,2452],[1727,84],[702,84],[84,266],[3712,345],[802,1347],[1171,1909],[399,84],[3308,285],[371,3],[528,329],[1349,3625],[44,2729],[4467,484],[2395,2424],[1434,16],[70,499],[250,1076],[281,461],[533,1108],[646,89],[6037,253],[1225,903],[3173,78],[5407,747],[4019,285],[2481,3],[1571,16],[44,731],[661,313],[468,432],[73,2384],[2462,14],[991,3],[1079,3137],[83,989],[388,80],[1147,336],[5305,267],[896,14],[2808,14],[720,71],[243,478],[523,382],[1757,2421],[281,5369],[1261,311],[1897,14],[597,2388],[363,3881],[50,83],[160,1415],[2318,819],[79,5895],[1008,432],[3193,984],[3006,287],[69,822],[3360,6557],[1682,259],[891,269],[1154,2184],[2180,263],[4937,90],[1017,1973],[15,990],[289,580],[319,538],[2052,478],[5023,280],[2093,280],[318,418],[2925,1492],[160,347],[1182,84],[4196,3498],[6757,73],[1381,14],[555,345],[53,323],[1135,3078],[1484,4],[1240,91],[3862,613],[1398,14],[406,2849],[1466,14],[49,286],[310,79],[46,251],[5526,255],[2442,4],[1036,14],[424,325],[5582,1665],[281,706],[3367,2384],[6415,1112],[4073,3757],[611,84],[35,723],[389,263],[6121,259],[452,323],[389,3],[1749,311],[54,1084],[1323,827],[1683,903],[673,1178],[591,2224],[4842,90],[519,14],[302,287],[1339,280],[47,427],[866,373],[1037,535],[1516,4],[71,3910],[4151,902],[2888,617],[585,3],[324,2551],[3884,382],[3058,263],[582,2973],[4,846],[5299,343],[1015,632],[3470,4348],[3588,280],[793,538],[3,9],[1575,491],[81,5425],[4989,505],[587,2835],[2328,263],[673,2502],[476,16],[2878,16],[5651,1060],[1749,4406],[6765,85],[1968,84],[88,1068],[1037,827],[85,5649],[2202,263],[5481,280],[4122,3051],[2196,432],[2823,373],[769,4960],[657,617],[435,255],[396,382],[1587,5351],[1380,1095],[1459,495],[600,1095],[264,253],[2217,5805],[1581,630],[694,827],[408,3],[313,382],[1996,2109],[656,535],[3595,285],[1016,538],[1117,324],[1079,3305],[3951,280],[2902,280],[1785,28],[636,3],[160,6365],[1280,280],[704,287],[1886,1156],[343,4248],[1086,249],[829,432],[687,3],[739,280],[911,529],[2812,263],[1682,3340],[1922,253],[3989,14],[4964,287],[2063,539],[4,4997],[3453,14],[371,538],[565,287],[858,76],[796,263],[1260,75],[4037,3206],[846,279],[71,438],[431,84],[3932,263],[1497,4740],[909,83],[1572,14],[2448,14],[6246,564],[433,706],[81,5917],[339,4217],[1002,84],[4184,3],[865,491],[930,478],[88,354],[312,4244],[2553,478],[1780,1286],[47,259],[298,84],[823,538],[530,382],[1625,16],[45,344],[1259,14],[2764,305],[2892,16],[800,418],[5979,90],[269,1354],[2126,16],[3147,3137],[860,255],[1670,84],[872,382],[800,14],[7024,246],[2784,16],[1191,828],[4752,4620],[337,84],[2097,2060],[435,3],[350,382],[3376,288],[5106,280],[656,1599],[317,3],[57,246],[6859,345],[3424,1992],[1016,33],[3551,81],[3539,2263],[3170,5398],[917,2763],[3274,16],[3298,1470],[972,280],[7025,352],[2732,3],[7338,4484],[1824,14],[85,416],[1529,826],[297,1899],[2246,4265],[2240,16],[2556,84],[254,14],[3252,1594],[1537,84],[294,1071],[2029,14],[6517,1710],[6581,455],[296,543],[3250,246],[1185,84],[3580,246],[2395,731],[254,1509],[911,329],[274,280],[1682,434],[46,407],[2004,16],[312,2430],[1705,1665],[510,827],[534,418],[80,73],[3413,246],[88,633],[3639,246],[7353,910],[4,321],[270,755],[6154,246],[593,538],[776,947],[4084,3506],[548,91],[1372,14],[2692,84],[3644,16],[6046,1354],[4863,14],[1191,851],[3076,630],[1149,2277],[4303,1177],[248,70],[4243,2109],[5509,255],[319,3],[3190,1594],[1472,285],[47,460],[87,66],[879,4714],[6782,6293],[5104,85],[2370,84],[2942,2849],[606,3],[6962,4158],[435,432],[376,825],[4937,287],[3986,294],[1894,4993],[37,407],[885,3549],[1276,14],[7054,2791],[53,1172],[3261,263],[3031,3162],[1491,1992],[44,259],[6242,4248],[646,1157],[468,382],[74,2082],[250,7432],[3166,2134],[248,5912],[6193,90],[5168,89],[248,345],[622,258],[6389,90],[7289,6388],[2478,295],[4538,16],[4117,630],[3016,246],[319,873],[4918,1354],[449,324],[3896,14],[68,751],[4426,249],[243,271],[4487,537],[1135,246],[1779,903],[353,85],[2397,3073],[2102,2437],[1739,263],[91,3346],[333,382],[465,267],[927,432],[1646,491],[822,14],[267,78],[3998,285],[1380,255],[160,6670],[1223,3],[86,69],[1171,2551],[1020,6267],[1701,280],[7470,618],[1812,3050],[1380,812],[70,3023],[267,3307],[382,14],[562,3173],[2747,263],[2848,3498],[4019,373],[6970,544],[306,246],[3848,84],[1241,84],[1313,28],[50,1105],[2779,1599],[381,70],[600,2264],[4185,984],[1254,263],[1587,1286],[277,1888],[2000,16],[5257,894],[338,257],[252,835],[6192,263],[1343,478],[5518,244],[6565,287],[4,56],[7390,1684],[350,3],[421,285],[676,418],[3672,285],[35,5126],[44,66],[3666,263],[759,352],[1365,14],[1728,84],[1464,280],[6222,529],[855,478],[1966,14],[5557,919],[86,924],[7136,3593],[88,14],[746,1210],[1029,250],[2841,629],[333,3],[3227,16],[75,7266],[485,645],[477,538],[160,2429],[39,89],[1670,14],[447,1654],[3718,922],[2427,366],[1385,3],[2447,1162],[2550,1097],[4445,589],[4169,1501],[845,382],[443,3507],[1981,14],[68,575],[2758,280],[4155,287],[1726,336],[4266,16],[5299,1156],[4989,263],[1355,272],[406,5504],[4778,84],[598,786],[2794,3515],[283,280],[1634,3],[621,418],[1824,280],[3308,246],[319,80],[688,418],[3938,246],[1191,579],[2815,267],[3247,743],[1576,285],[1209,543],[3478,84],[3293,280],[3138,6170],[2074,280],[6750,73],[5434,246],[584,491],[3191,14],[5836,246],[3150,2612],[415,4097],[1416,5682],[475,1286],[79,6475],[597,4495],[5279,90],[6163,491],[744,505],[4686,656],[2863,305],[455,81],[1270,14],[2653,535],[982,84],[2014,2876],[655,3],[2782,14],[1762,84],[2058,505],[70,382],[244,287],[21,4866],[6686,819],[403,630],[1278,3],[250,465],[4815,14],[3720,16],[254,610],[1194,2263],[964,418],[999,1987],[6551,285],[1553,280],[272,74],[1111,2018],[2196,3],[5643,864],[6785,1112],[2126,478],[620,366],[5050,272],[667,382],[5662,2331],[373,4],[1513,538],[3586,2331],[4511,246],[584,5030],[934,84],[744,873],[4615,3107],[908,451],[3186,14],[35,2144],[624,418],[3327,2356],[2164,1286],[3513,16],[1191,379],[787,6547],[5620,2962],[2911,639],[452,289],[597,1196],[282,1157],[416,7613],[7075,246],[262,432],[3690,2037],[6173,1906],[4387,849],[501,418],[4031,3903],[406,1177],[5370,2958],[2133,14],[792,287],[46,2966],[2299,263],[5773,298],[6345,2891],[312,565],[1108,478],[7106,86],[1840,16],[419,66],[4964,90],[4123,590],[3608,77],[1035,1694],[5335,246],[2158,373],[1530,14],[2649,989],[1007,432],[848,16],[6542,472],[844,418],[3537,16],[6452,2912],[3606,263],[2194,1492],[1305,3],[2788,2584],[3786,16],[2100,263],[2833,580],[1017,14],[53,457],[6356,2380],[1134,16],[54,586],[6362,4561],[935,579],[6294,324],[1377,3],[2698,280],[1495,491],[667,280],[421,1767],[455,3484],[600,336],[433,366],[2449,285],[299,343],[2204,828],[976,14],[3247,2452],[1149,6083],[2875,83],[703,346],[73,723],[667,432],[1735,14],[1667,579],[511,382],[3996,2752],[883,14],[2689,84],[267,544],[1017,287],[673,2612],[41,250],[3561,2770],[318,33],[7435,6466],[4,1246],[5016,14],[900,285],[822,505],[506,617],[2661,14],[77,580],[667,538],[1891,16],[54,556],[1017,263],[3718,611],[306,2109],[552,828],[353,666],[528,1684],[2611,538],[2696,81],[6600,864],[7165,66],[4009,505],[2030,14],[4050,16],[68,343],[1331,14],[2187,14],[1020,73],[1176,3391],[375,1599],[477,3],[898,3],[328,1492],[2698,16],[5104,2079],[253,1833],[5522,828],[81,2168],[253,1283],[3114,16],[4380,16],[1276,4298],[1452,280],[4344,2109],[1680,263],[4390,3278],[1530,4457],[2523,16],[2408,683],[1759,7454],[4681,77],[1598,729],[4391,460],[650,280],[3946,2419],[7710,90],[660,382],[296,851],[258,2162],[85,2568],[897,246],[312,2928],[281,4267],[4092,16],[5808,1108],[2152,1538],[3429,352],[2997,2111],[48,460],[1141,14],[72,267],[6628,2984],[50,2904],[791,3],[5508,1850],[2238,1888],[310,1403],[463,16],[2133,5756],[320,3971],[2987,345],[359,538],[1753,280],[431,280],[38,268],[247,287],[604,373],[85,1679],[406,4740],[2678,828],[1691,491],[1157,1902],[1227,263],[2700,3627],[621,432],[389,432],[331,432],[1470,14],[2592,544],[1794,14],[81,632],[4637,2419],[651,1958],[608,1492],[601,968],[248,86],[540,2367],[1083,366],[76,2413],[1819,14],[2268,79],[3695,16],[3504,1850],[5947,90],[4531,5268],[2918,535],[2728,262],[421,538],[1725,263],[78,309],[4367,16],[2336,2384],[1836,4338],[1952,1492],[40,
[...]
